{
  "</s>": 0,
  "<unk>": 1,
  ".": 2,
  ",": 3,
  "\u2581-": 4,
  "?": 5,
  "\u2581l\u00e0": 6,
  "\u2581kh\u00f4ng": 7,
  "\u2581c\u00f3": 8,
  "\u2581die": 9,
  "\u2581und": 10,
  "!": 11,
  "\u2581c\u1ee7a": 12,
  "\u2581t\u00f4i": 13,
  "\u2581der": 14,
  "\u2581v\u00e0": 15,
  "\u2581ist": 16,
  "\u2581ta": 17,
  "\u2581zu": 18,
  "\u2581ng\u01b0\u1eddi": 19,
  "\u2581nicht": 20,
  "\u2581m\u1ed9t": 21,
  "\u2581ich": 22,
  "\u2581das": 23,
  "\u2581\u0111\u00e3": 24,
  "\u2581Ich": 25,
  "\u2581Sie": 26,
  "\u2581in": 27,
  "...": 28,
  "\u2581\u0111\u01b0\u1ee3c": 29,
  "\u2581cho": 30,
  "\u2581s\u1ebd": 31,
  "\u2581ch\u00fang": 32,
  "\u2581anh": 33,
  "\u2581es": 34,
  "\u2581l\u00e0m": 35,
  "\u2581\u0111\u00f3": 36,
  "\u2581nh\u1eefng": 37,
  "\u2581sie": 38,
  "s": 39,
  "\u2581du": 40,
  ":": 41,
  "-": 42,
  "\u2581n\u00e0y": 43,
  "\u2581T\u00f4i": 44,
  "\u2581trong": 45,
  "\u2581th\u1ec3": 46,
  "\u2581g\u00ec": 47,
  "\u2581v\u1edbi": 48,
  "\u2581den": 49,
  "\u2581wir": 50,
  "\u2581ein": 51,
  "en": 52,
  "\u2581ph\u1ea3i": 53,
  "\u2581\u0111i": 54,
  "\u2581auf": 55,
  "\u2581s\u1ef1": 56,
  "\u2581mit": 57,
  "\u2581ra": 58,
  "\u2581n\u00f3i": 59,
  "\u2581von": 60,
  "\u2581c\u00e1c": 61,
  "\u2581\u1edf": 62,
  "\u2581th\u1ebf": 63,
  "\u2581er": 64,
  "\u2581bi\u1ebft": 65,
  "n": 66,
  "\u2581\u0111\u1ec3": 67,
  "\u2581\u0111\u1ebfn": 68,
  "\u2581nh\u01b0": 69,
  "\u2581v\u1ec1": 70,
  "\u2581l\u1ea1i": 71,
  "\u2581n\u00e0o": 72,
  "e": 73,
  "\u2581sich": 74,
  "\u2581an": 75,
  "\u2581con": 76,
  "\u2581m\u00e0": 77,
  "\u2581": 78,
  "\u2581eine": 79,
  "\u2581r\u1ed3i": 80,
  "\u2581dass": 81,
  "\u2581khi": 82,
  "\u2581\u0110\u1ee9c": 83,
  "\u2581Ch\u00faa": 84,
  "\u2581f\u00fcr": 85,
  "\u2581\u201c": 86,
  "\u2581Das": 87,
  "\u2581Gi\u00ea": 88,
  "\u2581Anh": 89,
  "\u2581n\u00f3": 90,
  "\u2581sao": 91,
  "\u2581\u0111\u00e2y": 92,
  "\u2581h\u1ecd": 93,
  "\u2581\u201e": 94,
  "\u2581\u00f4ng": 95,
  "\u2581wie": 96,
  "\u2581sind": 97,
  "\u2581was": 98,
  "\u2581\u1ea5y": 99,
  "\u2581Und": 100,
  "\u2581dem": 101,
  "_": 102,
  "\u2581war": 103,
  "\u2581vi\u1ec7c": 104,
  "\u2581c\u00f4": 105,
  "\u2581uns": 106,
  "\u2581mir": 107,
  "\u2581th\u1ea5y": 108,
  "\u2581\u0111i\u1ec1u": 109,
  "\u2581m\u00ecnh": 110,
  "\u2581b\u1ea1n": 111,
  "\u2581hat": 112,
  "\u2581haben": 113,
  "\u2581so": 114,
  "\u2581mu\u1ed1n": 115,
  "\u2581\u0111ang": 116,
  "\u2581mich": 117,
  "\u2581em": 118,
  "\u2581c\u0169ng": 119,
  "\u2581v\u00e0o": 120,
  "\u2581th\u00ec": 121,
  "\u2581Was": 122,
  "\u2581\"": 123,
  "\u2581Kh\u00f4ng": 124,
  "\u2581c\u1ea3": 125,
  "\u2581b\u1ecb": 126,
  "\u2581als": 127,
  "\u2581wird": 128,
  "\u2581v\u1eady": 129,
  "\u2581aus": 130,
  "\u2581Es": 131,
  "\u2581v\u00ec": 132,
  "\u2581Ch\u00fang": 133,
  "\u2581Wir": 134,
  "\u2581im": 135,
  "t": 136,
  "\u2581c\u00e1i": 137,
  "\u2581Die": 138,
  "\u2581Tr\u1eddi": 139,
  "\u2581sein": 140,
  "\u2581r\u1eb1ng": 141,
  "\u2581des": 142,
  "\u2581werden": 143,
  "\u2581Du": 144,
  "\u2581ch\u1ec9": 145,
  "\u2581um": 146,
  "\u2581h\u00f4": 147,
  "\u2581einen": 148,
  "\u2581Er": 149,
  "\u2581auch": 150,
  "\u2581t\u1eeb": 151,
  "\u2581(": 152,
  "\u2581va": 153,
  "\u2581th\u00e0nh": 154,
  ")": 155,
  "\u2581tr\u00ean": 156,
  "\u2581\u201d.": 157,
  "\u2581noch": 158,
  "\u2581dich": 159,
  "\u2581c\u00f2n": 160,
  "\u2581kh\u00e1c": 161,
  "\u2581ngh\u0129": 162,
  "\u2581nhi\u1ec1u": 163,
  "\u2581wenn": 164,
  "\u2581h\u01a1n": 165,
  "\u2581V\u00e0": 166,
  "\u2581c\u00e1ch": 167,
  "\u2581tin": 168,
  "\u2581,": 169,
  "\u2581gi\u1edd": 170,
  "\u2581c\u1eadu": 171,
  "\u2581th\u1eadt": 172,
  "\u2581s\u1ed1ng": 173,
  "\u2581\u0111\u00e2u": 174,
  "\u2581c\u00f4ng": 175,
  "\u2581aber": 176,
  "\u2581\u0111\u1ea7u": 177,
  "\u2581\u2014": 178,
  "\u2581chuy\u1ec7n": 179,
  "\u2581habe": 180,
  "\u2581c\u1ea7n": 181,
  "\u2581oder": 182,
  "er": 183,
  "\u2581nh\u00e0": 184,
  ";": 185,
  "\u2581n\u00ean": 186,
  "\u2581kann": 187,
  "\u2581nur": 188,
  "\u2581hier": 189,
  "\u2581r\u1ea5t": 190,
  "\u2581ihn": 191,
  "\u2581ihr": 192,
  "\u2581l\u1eddi": 193,
  "\u2581nh\u01b0ng": 194,
  "\u2581Wie": 195,
  "\u2581C\u00f3": 196,
  "\u2581n\u1eefa": 197,
  "\u2581c\u00f9ng": 198,
  "\u2581\u00fcber": 199,
  "\u2581Nh\u01b0ng": 200,
  "\u2581theo": 201,
  "\u2581man": 202,
  "\u2581ai": 203,
  "\u2581bin": 204,
  "\u25811": 205,
  "\u2581th\u1ee9": 206,
  "\u2581dir": 207,
  "\u2581nach": 208,
  "\u2581Gott": 209,
  "\u2581tr\u01b0\u1edbc": 210,
  "\u2581quan": 211,
  "\u2581da": 212,
  "\u2581ng\u00e0y": 213,
  "\u2581l\u00ean": 214,
  "\u2581n\u01a1i": 215,
  "\u2581vor": 216,
  "\u2581Ng\u00e0i": 217,
  "\u2581n\u0103m": 218,
  "\u2581Aber": 219,
  "\u2581m\u1ecdi": 220,
  "\u2581\u0111\u1ed3": 221,
  "\u2581\u0111\u1ea5y": 222,
  "\u2581\u00fd": 223,
  "\u2581nh\u1ea5t": 224,
  "\u2581nh\u1eadn": 225,
  "\u2581k\u00f6nnen": 226,
  "\u2581th\u00f4i": 227,
  "\u2581da\u00df": 228,
  "'": 229,
  "\u2581s\u1ed1": 230,
  "\u2581C\u00f4": 231,
  "\u2581qua": 232,
  "\u2581einem": 233,
  "\u2581h\u1ecdc": 234,
  "\u2581t\u00ecm": 235,
  "\u2581gi\u00fap": 236,
  "\u2581Nein": 237,
  "\u2581sau": 238,
  "\u2581hay": 239,
  "\u2581t\u1edbi": 240,
  "\u2581Jehova": 241,
  "\u2581Der": 242,
  "\u2581th\u1eddi": 243,
  "\u2581einer": 244,
  "\u2581Ja": 245,
  "\u2581y\u00eau": 246,
  "\u2581Kinh": 247,
  "\u2581ch\u1ebft": 248,
  "\u2581bei": 249,
  "\u2581t\u1ea1i": 250,
  "\u2581xem": 251,
  "\u0301": 252,
  "\u2581ihm": 253,
  "\u2581schon": 254,
  "\u2581ng\u01b0\u01a1i": 255,
  "\u2581mehr": 256,
  "\u2581zum": 257,
  "\u2581Wenn": 258,
  "\u2581bao": 259,
  "\u2581t\u1ef1": 260,
  "\u2581l\u00f2ng": 261,
  "\u2581n\u1ebfu": 262,
  "\u2581Em": 263,
  "\u2581ch\u00ednh": 264,
  "\u2581ch\u1ee9": 265,
  "\u2581t\u1ed1t": 266,
  "\u2581hast": 267,
  "\u2581nghe": 268,
  "\u201c": 269,
  "\u2581meine": 270,
  "\u2581nh\u00e2n": 271,
  "\u2581M\u1ed9t": 272,
  "\u2581\u00d4ng": 273,
  "\u2581dann": 274,
  "\u2581th\u00edch": 275,
  "\u2581ng\u00e0i": 276,
  "\u2581ch\u01b0a": 277,
  "\u2581durch": 278,
  "\u2581b\u1eaft": 279,
  "\u2581Menschen": 280,
  "\u2581\u0111\u1ed9ng": 281,
  "\u2581b\u1eb1ng": 282,
  "\u2581k\u1ebb": 283,
  "\u2581diese": 284,
  "\u2581gia": 285,
  "\u2581su": 286,
  "\u2581c\u1ea3m": 287,
  "\u2581seine": 288,
  "\u2581m\u1edbi": 289,
  "\u2581gut": 290,
  "\u2581N\u1ebfu": 291,
  "\u2581gian": 292,
  "\u2581[": 293,
  "\u2581etwas": 294,
  "\u2581tr\u1edf": 295,
  "\u2581\u01a1n": 296,
  "\u2581th\u00e1nh": 297,
  "\u2581alle": 298,
  "i": 299,
  "\u2581Zeit": 300,
  "\u2581\u0111\u1ecbnh": 301,
  "\u2581wurde": 302,
  "st": 303,
  "\u2581d\u00e2n": 304,
  "\u2581immer": 305,
  "\u2581nhi\u00ean": 306,
  "\u2581hatte": 307,
  "\u2581hai": 308,
  "\u2581h\u1eafn": 309,
  "\u2581\u201d": 310,
  "\u2581h\u1ebft": 311,
  "\u2581m\u1eb9": 312,
  "\u2581qu\u00e1": 313,
  "\u2581tun": 314,
  "\u2581th\u1ef1c": 315,
  "\u2581h\u1ecfi": 316,
  "\u2581In": 317,
  "\u2581nay": 318,
  "\u2581V\u1eady": 319,
  "\u2581hi\u1ec3u": 320,
  "\u2581\u00e0": 321,
  "\u2581doch": 322,
  "\u2581\u0103n": 323,
  "\u2581hi\u1ec7n": 324,
  "\u2581\u0111\u1eddi": 325,
  "\u2581Th\u00e1nh": 326,
  "\u2581alles": 327,
  "\u2581jetzt": 328,
  "\u2581wei\u00df": 329,
  "\u2581keine": 330,
  "\u2581mein": 331,
  "\u2581Leben": 332,
  "\u2581h\u00e3y": 333,
  "\u2581Con": 334,
  "\u2581\u0111\u1ec1": 335,
  "r": 336,
  "\u2581tr\u1ecdng": 337,
  "\u2581N\u00f3": 338,
  "\u2581n\u01b0\u1edbc": 339,
  "\u2581Gottes": 340,
  "\u2581bist": 341,
  "\u2581h\u1ed9i": 342,
  "\u2581H\u00e3y": 343,
  "ng": 344,
  "\u2581will": 345,
  "\u2581cu\u1ed9c": 346,
  "\u2581m\u1eb7t": 347,
  "\u2581l\u1ed7i": 348,
  "\u2581l\u00fac": 349,
  "\u2581wieder": 350,
  "\u2581do": 351,
  "\u2581\u0110\u00f3": 352,
  "\u2581kh\u1ecfi": 353,
  "\u2581C\u1eadu": 354,
  "\u2581l\u1ea5y": 355,
  "\u2581v\u1eabn": 356,
  "\u2581denn": 357,
  "\u2581\u0111\u1ec1u": 358,
  "\u2581b\u00e0": 359,
  "\u2581\u0111\u00fang": 360,
  "\u2581t\u1ea5t": 361,
  "\u2581gibt": 362,
  "\u2581Ein": 363,
  "\u2581h\u00e0nh": 364,
  "\u2581Ta": 365,
  "\u2581mal": 366,
  "\u2581nhau": 367,
  "\u2581th\u01b0\u01a1ng": 368,
  "m": 369,
  "\u2581euch": 370,
  "\u2581t\u00ecnh": 371,
  "\u2581l\u00fd": 372,
  "\u2581sehr": 373,
  "\u2581t\u00ean": 374,
  "\u2581Ihr": 375,
  "\u2581Jesus": 376,
  "\u2581tay": 377,
  "\u2581Mann": 378,
  "\u2581ti\u00ean": 379,
  "\u2581to\u00e0n": 380,
  "\u2581Khi": 381,
  "\u2581t\u00e2m": 382,
  "\u2581H\u1ecd": 383,
  "\u2581ch\u1eb3ng": 384,
  "\u2581l\u1edbn": 385,
  "\u2581muss": 386,
  "\u2581h\u1ee3p": 387,
  "\u2581V\u00ec": 388,
  "\u2581b\u1ea5t": 389,
  "\u2581c\u1ea7u": 390,
  "\u2581h\u00ecnh": 391,
  "\u2581b\u1ea3o": 392,
  "\u2581b\u1ecf": 393,
  "\u2581machen": 394,
  "\u2581g\u1eb7p": 395,
  "\u2581g\u1ecdi": 396,
  "\u2581\u0111\u1ea5t": 397,
  "\u2581m\u00fcssen": 398,
  "\u2581\u0111\u1ed1i": 399,
  "\u2581geht": 400,
  "\u2581Jehovas": 401,
  "\u2581\u0111\u1ed3ng": 402,
  "\u2581ti\u1ebfp": 403,
  "\u2581ngay": 404,
  "\u2581ho\u1eb7c": 405,
  "\u0323": 406,
  "\u201c.": 407,
  "\u2581gi\u1edbi": 408,
  "\u2581c\u01a1": 409,
  "\u2581l\u1ebd": 410,
  "\u2581ihre": 411,
  "\u2581l\u1ea7n": 412,
  "\u2581d\u00f9ng": 413,
  "\u2581ja": 414,
  "\u2581C\u00e1c": 415,
  "es": 416,
  "\u2581waren": 417,
  "\u2581\u0111\u01b0\u1eddng": 418,
  "\u2581nichts": 419,
  "\u2581Christ": 420,
  "\u2581am": 421,
  "\u2581xin": 422,
  "\u2581sagen": 423,
  "\u2581t\u1edb": 424,
  "\"": 425,
  "\u2581gi\u1ea3i": 426,
  "\u2581sehen": 427,
  "\u2581Warum": 428,
  "\u2581Oh": 429,
  "\u2581Nh\u1eefng": 430,
  "\u2581c\u00e2u": 431,
  "\u2581k\u1ebft": 432,
  "\u2581nh\u00ecn": 433,
  "\u2581vui": 434,
  "\u2581ihnen": 435,
  "\u2581...": 436,
  "\u2581c\u1ee9": 437,
  "\u2581Welt": 438,
  "\u2581ch\u1ee9ng": 439,
  "\u2581sinh": 440,
  "\u2581b\u00ecnh": 441,
  "\u2581w\u00fcrde": 442,
  "\u2581v\u1ee5": 443,
  "\u2581h\u00e0ng": 444,
  "\u2581zur": 445,
  "\u2581m\u1ea5t": 446,
  "\u2581\u0110\u01b0\u1ee3c": 447,
  "]": 448,
  "\u2581th\u01b0\u1eddng": 449,
  "\u2581ch\u1eafc": 450,
  "\u2581ph\u1ea7n": 451,
  "\u2581dieser": 452,
  "\u2581gi\u1ebft": 453,
  "\u2581lu\u00f4n": 454,
  "\u2581\u0110\u00e2y": 455,
  "\u2581b\u1ea3n": 456,
  "\u2581c\u1ed1": 457,
  "a": 458,
  ".\"": 459,
  "\u2581\u0111\u01b0a": 460,
  "\u2581sagte": 461,
  "\u2581damit": 462,
  "\u2581Ihnen": 463,
  "\u2581gi\u00e1o": 464,
  "\u0300": 465,
  "y": 466,
  "\u2581Da": 467,
  "\u2581cha": 468,
  "\u2581So": 469,
  "\u2581viel": 470,
  "\u2581v\u1ea5n": 471,
  "\u2581unter": 472,
  "\u25812": 473,
  "\u2581ti\u1ebfng": 474,
  "\u2581Bibel": 475,
  "\u2581thay": 476,
  "\u2581t\u00ednh": 477,
  "\u2581th\u00f4ng": 478,
  "\u2581werde": 479,
  "\u2581wirklich": 480,
  "\u2581x\u1ea3y": 481,
  "\u2581c\u1ee9u": 482,
  "\u2581ngh\u0129a": 483,
  "\u2581\u2018": 484,
  "\u2581Ng\u01b0\u1eddi": 485,
  "\u2581gi\u1eef": 486,
  "\u2581v\u1eadt": 487,
  "\u2581gehen": 488,
  "\u2581ch\u1ecb": 489,
  "\u2581v\u1ecb": 490,
  "\u2581trung": 491,
  "\u2581t\u00edn": 492,
  "\u2581T\u1ea1i": 493,
  "\u2581wissen": 494,
  "\u2581anderen": 495,
  "\u2581t\u1ed9i": 496,
  "\u2581t\u1eebng": 497,
  "\u2581xe": 498,
  "\u2581xu\u1ed1ng": 499,
  "\u2581Sao": 500,
  "\u2581l\u1eafm": 501,
  "\u2581bis": 502,
  "\u2581seinen": 503,
  "\u2581ti\u1ec1n": 504,
  "\u2581b\u1edfi": 505,
  "\u2581ab": 506,
  "\u2581b\u1ed1": 507,
  "\u2581Trong": 508,
  "\u2581m\u00e0y": 509,
  "\u2581th\u1ea7n": 510,
  "\u2581t\u01b0\u1edfng": 511,
  "\u2581also": 512,
  "\u2581selbst": 513,
  "\u2581tr\u1ebb": 514,
  "\u2581\u0111\u00e1ng": 515,
  "\u2581\u0110\u1ea5ng": 516,
  "\u2581nie": 517,
  "\u2581heute": 518,
  "\u2581\u0111\u1ea1o": 519,
  "\u2581n\u0103ng": 520,
  "\u2581d\u1ee5ng": 521,
  "\u2581b\u1ed9": 522,
  "\u2581s\u00e1ng": 523,
  "\u2581\u0111\u1ed5i": 524,
  "\u2581L\u00e0m": 525,
  "\u2581nh\u1edb": 526,
  "\u2581A": 527,
  "\u2581tr\u1ea3": 528,
  "\u2581unsere": 529,
  "\u2581v\u00f4": 530,
  "\u2581gi\u1ed1ng": 531,
  "\u2581quy\u1ebft": 532,
  "\u2581\u00d0\u1ee9c": 533,
  "\u2581einfach": 534,
  "\u2581b\u00e1o": 535,
  "\u2581b\u00ean": 536,
  "\u2581Th\u1eadt": 537,
  "\u2581quy\u1ec1n": 538,
  "\u2581Ist": 539,
  "\u2581deine": 540,
  "\u2581ngo\u00e0i": 541,
  "\u2581weil": 542,
  "\u2581tr\u01b0\u1eddng": 543,
  "\u2581d\u1eabn": 544,
  "\u2581soll": 545,
  "\u2581chi\u1ebfn": 546,
  "\u2581hab": 547,
  "\u2581\u0111\u00ecnh": 548,
  "\u2581s\u00e1ch": 549,
  "\u2581ho\u00e0n": 550,
  "\u2581c\u1ea3nh": 551,
  "\u2581Also": 552,
  "\u2581\u0110\u1eebng": 553,
  "\u2581bi\u1ec7t": 554,
  "\u2581Vater": 555,
  "\u2581wo": 556,
  "\u2581kein": 557,
  "\u2581th\u1ee9c": 558,
  "\u2581vi\u00ean": 559,
  "\u2581v\u00e0i": 560,
  "\u2581t\u1ea1o": 561,
  "\u2581trai": 562,
  "d": 563,
  "\u2581\u0111i\u1ec3m": 564,
  "\u2581Xin": 565,
  "\u2581zur\u00fcck": 566,
  "\u2581ph\u00e1t": 567,
  "\u2581g\u00e1i": 568,
  "\u2581s\u0129": 569,
  "\u2581Wer": 570,
  "\u2581g\u1ea7n": 571,
  "\u2581ban": 572,
  "\u2581ph\u00f2ng": 573,
  "\u2581\u1ea3nh": 574,
  "\u2581lo\u1ea1i": 575,
  "\u2581t\u1ebf": 576,
  "\u2581ch\u00e1u": 577,
  "\u2581tr\u1ecb": 578,
  "\u2581b\u00e9": 579,
  "\u2581trang": 580,
  "\u2581m\u00e1y": 581,
  "\u2581lassen": 582,
  "\u2581th\u00eam": 583,
  "\u2581C\u00e1i": 584,
  "\u2581Frau": 585,
  "\u2581s\u00e1t": 586,
  "\u2581sollte": 587,
  "\u2581tr\u1eddi": 588,
  "\u2581d\u1ea1y": 589,
  "\u2581Hey": 590,
  "\u2581th\u00e2n": 591,
  "\u2581kommen": 592,
  "\u2581vi\u1ebft": 593,
  "c": 594,
  "\u2581andere": 595,
  "\u2581Kinder": 596,
  "\u2581l\u1ef1c": 597,
  "\u2581Y": 598,
  "\u2581\u00ca": 599,
  "\u2581w\u00e4re": 600,
  "\u2581viele": 601,
  "\u2581l\u00f4": 602,
  "\u2581\u0111\u00e1nh": 603,
  "\u2581Dann": 604,
  "\u2581seiner": 605,
  "\u2581m\u1ea1nh": 606,
  "\u2581zwei": 607,
  "\u2581Th\u1ebf": 608,
  "\u2581s\u1ee3": 609,
  "\u2581\u0110i\u1ec1u": 610,
  "\u2581ganz": 611,
  "\u2581kh\u00f3": 612,
  "\u2581sai": 613,
  "\u2581B\u1ea1n": 614,
  "\u2581li\u00ean": 615,
  "\u2581\u0110\u1ec3": 616,
  "\u2581h\u1ec7": 617,
  "\u2581r\u00f5": 618,
  "\u2581nh\u1ecf": 619,
  "\u2581mang": 620,
  "\u2581Tag": 621,
  "\u2581kia": 622,
  "\u2581qu\u1ea3": 623,
  "\u2581ch\u1ecbu": 624,
  "\u2581tao": 625,
  "\u2581cao": 626,
  "\u2581ch\u1ed7": 627,
  "\u2581b\u1ec7nh": 628,
  "\u2581sollten": 629,
  "\u2581\u0111\u1eb7t": 630,
  "\u2581Als": 631,
  "\u2581x\u00e1c": 632,
  "\u2581wollen": 633,
  "\u2581gesagt": 634,
  "\u2581khi\u1ebfn": 635,
  "\u2581l\u00e2u": 636,
  "\u2581tr\u00ecnh": 637,
  "\u2581v\u1ecdng": 638,
  "\u2581ch\u00fa": 639,
  "\u2581los": 640,
  "\u2581Ph\u1ea3i": 641,
  "\u2581ch\u00fat": 642,
  "\u2581ch\u1ecdn": 643,
  "\u2581Nh\u00e2n": 644,
  "\u2581wollte": 645,
  "\u2581dein": 646,
  "\u2581gi\u00e1": 647,
  "\u2581Seite": 648,
  "\u2581\u0111\u1ed9": 649,
  "\u2581vom": 650,
  "u": 651,
  "\u2581ba": 652,
  "\u2581cu\u1ed1i": 653,
  "\u2581\u0111\u1ea1i": 654,
  "\u2581b\u00e0i": 655,
  "\u2581\u0110i": 656,
  "\u2581nh\u00e9": 657,
  "\u2581meinen": 658,
  "\u2581s\u1ee9c": 659,
  "\u2581b\u1ecdn": 660,
  "\u2581lo": 661,
  "\u2581th\u1edd": 662,
  "\u2581t\u1ee5c": 663,
  "\u2581ch\u1ee9c": 664,
  "\u2581k\u00f6nnte": 665,
  "\u2581x\u00e9t": 666,
  "\u2581\u0111\u1ee9c": 667,
  "\u2581kommt": 668,
  "\u2581Wo": 669,
  "\u2581wurden": 670,
  "\u2581h\u1ea3": 671,
  "\u2581tr\u01b0\u1edfng": 672,
  "\u2581Ch\u1ec9": 673,
  "\u2581Eine": 674,
  "\u2581diesem": 675,
  "\u2581eines": 676,
  "\u2581\u0111\u1ee7": 677,
  "\u2581tuy\u1ec7t": 678,
  "\u2581m\u1eebng": 679,
  "\u2581Leute": 680,
  "\u2581diesen": 681,
  "\u2581thi\u1ebft": 682,
  "\u2581\u0111\u1eb7c": 683,
  "\u2581ph\u1ee5": 684,
  "\u2581xa": 685,
  "\u2581\u0111\u1eb9p": 686,
  "\u2581Erde": 687,
  "\u2581Sau": 688,
  "in": 689,
  "\u2581vua": 690,
  "\u2581c\u1eeda": 691,
  "\u2581Nicht": 692,
  "\u2581b": 693,
  "\u2581ch\u01a1i": 694,
  "\u2581ihren": 695,
  "\u2581'": 696,
  "\u2581Cha": 697,
  "\u2581t\u1ed1i": 698,
  "\u2581\u0111\u1ea7y": 699,
  "va": 700,
  "\u2581Jahre": 701,
  "\u2581ph\u1ee5c": 702,
  "\u2581k\u1ec3": 703,
  "\u2581tr\u00e1i": 704,
  "\u2581d\u01b0\u1edbi": 705,
  "\u25813": 706,
  "\u2581v\u1ee3": 707,
  "\u2581thi\u00ean": 708,
  "\u2581l\u1eadp": 709,
  "\u2581\u0110\u00fang": 710,
  "\u2581n\u1eef": 711,
  "\u2581seinem": 712,
  "\u2581Danke": 713,
  "\u2581tu\u1ed5i": 714,
  "\u2581t\u01b0\u1ee3ng": 715,
  "\u2581m\u1ed7i": 716,
  "\u2581th\u1ed1ng": 717,
  "\u2581v\u1eeba": 718,
  "\u2581k\u1ef3": 719,
  "\u2581C\u00f2n": 720,
  "\u2581Na": 721,
  "\u2581Ihre": 722,
  "\u2581t\u1eadp": 723,
  "\u2581v\u1ebb": 724,
  "\u2581jemand": 725,
  "\u2581Hier": 726,
  "\u2581kinh": 727,
  "\u2581gi\u1eefa": 728,
  "\u2581ti\u00eau": 729,
  "\u2581dieses": 730,
  "\u2581Sa": 731,
  "\u2581ph\u00e9p": 732,
  "\u2581--": 733,
  "\u2581Tuy": 734,
  "\u2581ph\u00e1p": 735,
  "\u2581Sohn": 736,
  "\u2581ch\u1ee7": 737,
  "\u2581bitte": 738,
  "\u2581sondern": 739,
  "\u2581davon": 740,
  "\u2581Wort": 741,
  "\u2581nguy\u1ec7n": 742,
  "\u2581geben": 743,
  "\u2581ob": 744,
  "\u2581h\u00e4tte": 745,
  "\u2581t\u00f4n": 746,
  "\u2581vielleicht": 747,
  "\u2581unser": 748,
  "\u2581danh": 749,
  "\u2581T\u1edb": 750,
  "\u2581;": 751,
  "\u2581weg": 752,
  "\u2581s\u01a1": 753,
  "\u2581hin": 754,
  "\u2581sicher": 755,
  "\u2581m\u1ea5y": 756,
  "\u2581helfen": 757,
  "\u2581Doch": 758,
  "\u2581sagt": 759,
  "\u2581s\u1eed": 760,
  "\u2581gi\u1ea3ng": 761,
  "\u2581quay": 762,
  "\u2581l\u1ec5": 763,
  "\u2581t\u00e0i": 764,
  "\u2581H\u1eafn": 765,
  "\u0309": 766,
  "\u2581Dinge": 767,
  "\u2581m\u1eaft": 768,
  "\u2581Im": 769,
  "\u2581th\u1eed": 770,
  "\u2581Phao": 771,
  "\u2581chi": 772,
  "\u2581truy\u1ec1n": 773,
  "\u2581Auf": 774,
  "\u2581\u0111\u1eebng": 775,
  "\u2581finden": 776,
  "\u2581t\u01b0\u01a1ng": 777,
  "\u2581gemacht": 778,
  "\u2581Ai": 779,
  "\u2581h\u01b0\u1edbng": 780,
  "\u2581macht": 781,
  "\u2581gegen": 782,
  "\u2581Liebe": 783,
  "\u2581\u00ean": 784,
  "\u2581Weg": 785,
  "\u2581nhi\u1ec7m": 786,
  "\u2581hatten": 787,
  "\u2581d\u00f9": 788,
  "\u2581thu\u1ed9c": 789,
  "\u2581Zeugen": 790,
  "\u2581\u0111\u1ea5ng": 791,
  "\u2581ph\u1ea1m": 792,
  "\u2581Mein": 793,
  "\u2581tr\u00ed": 794,
  "\u2581K\u00f6nig": 795,
  "\u2581Komm": 796,
  "\u2581dazu": 797,
  "\u2581gi\u1ea3": 798,
  "\u2581nghi\u1ec7m": 799,
  "\u2581\u0111au": 800,
  "\u2581lu\u1eadt": 801,
  "\u2581Ma": 802,
  "\u2581b\u00e2y": 803,
  "\u2581tham": 804,
  "\u2581t\u1eed": 805,
  "\u2581M\u1eb9": 806,
  "\u2581tut": 807,
  "\u2581s\u1eafp": 808,
  "\u2581ch\u00ed": 809,
  "\u2581ch\u1eafn": 810,
  "\u2581Paulus": 811,
  "\u2581t\u01b0": 812,
  "\u2581\u01a1i": 813,
  "\u2581?": 814,
  "\u2581ohne": 815,
  "\u2581T\u1ea5t": 816,
  "\u2581t\u1ee9c": 817,
  "\u2581th\u01b0": 818,
  "\u2581gab": 819,
  "\u2581\u1ed5n": 820,
  "\u2581\u0111\u1ecdc": 821,
  "\u2581h\u01b0\u1edfng": 822,
  "\u2581Okay": 823,
  "\u2581Haus": 824,
  "\u2581th\u00e1ng": 825,
  "\u2581meiner": 826,
  "\u2581weiter": 827,
  "\u2581chuy\u1ec3n": 828,
  "\u2581bi\u1ebfn": 829,
  "\u2581li\u1ec7u": 830,
  "\u2581bu\u1ed5i": 831,
  "\u2581\u0111\u1ee9a": 832,
  "\u2581d\u1ef1": 833,
  "\u2581g\u00e2y": 834,
  "\u2581daf\u00fcr": 835,
  "\u2581N\u01b0\u1edbc": 836,
  "\u2581\u0111\u00e0n": 837,
  "\u2581linh": 838,
  "\u2581\u0111i\u1ec7n": 839,
  "\u2581B\u00e0": 840,
  "\u2581Mutter": 841,
  "\u2581\u0111\u1ecba": 842,
  "\u2581thu\u1eadt": 843,
  "\u2581Man": 844,
  "\u2581h\u00f4n": 845,
  "\u2581ver": 846,
  "\u2581zusammen": 847,
  "\u2581\u00edt": 848,
  "\u2581Mit": 849,
  "\u2581gerade": 850,
  "\u2581ph\u00e1n": 851,
  "\u2581S\u1ef1": 852,
  "\u2581Familie": 853,
  "\u2581c\u00e2y": 854,
  "\u2581k\u1ebf": 855,
  "\u2581l\u1ee3i": 856,
  "\u2581Gi\u1edd": 857,
  "\u2581Geld": 858,
  "\u2581Jahren": 859,
  "\u2581einmal": 860,
  "\u2581konnte": 861,
  "\u2581sei": 862,
  "\u2581t\u1ecf": 863,
  "\u2581Beispiel": 864,
  "\u2581m\u00f4n": 865,
  "o": 866,
  "\u2581keinen": 867,
  "\u2581d\u1ec5": 868,
  "\u2581xu\u1ea5t": 869,
  "\u258110": 870,
  "\u25815": 871,
  "\u2581s\u1eb5n": 872,
  "\u2581th\u00fa": 873,
  "\u2581s\u1ee9": 874,
  "\u2581gesehen": 875,
  "\u2581suy": 876,
  "\u2581hi\u1ec7u": 877,
  "\u2581\u1ee9ng": 878,
  "\u2581kam": 879,
  "\u2581tinh": 880,
  "\u2581th\u01b0a": 881,
  "\u2581Christen": 882,
  "\u2581kannst": 883,
  "\u2581Diese": 884,
  "\u2581tranh": 885,
  "\u2581qu\u00e2n": 886,
  "\u2581Jetzt": 887,
  "ung": 888,
  "\u2581c\u1ea5p": 889,
  "\u2581m\u1ee5c": 890,
  "\u2581giao": 891,
  "\u2581meinem": 892,
  "\u2581\u00edch": 893,
  "\u2581minh": 894,
  "\u2581denen": 895,
  "\u2581m\u00f6chte": 896,
  "\u2581ch\u00e2n": 897,
  "\u2581v\u1ec7": 898,
  "\u2581lo\u00e0i": 899,
  "\u2581tra": 900,
  "\u2581\u0111\u1ee9ng": 901,
  "\u2581n\u1ed5i": 902,
  "\u2581ch\u1ea1y": 903,
  "\u2581th\u1eb1ng": 904,
  "\u2581ihrer": 905,
  "\u2581Vielleicht": 906,
  "\u2581geh\u00f6rt": 907,
  "\u2581T": 908,
  "\u2581Nun": 909,
  "\u2581C\u1ea3m": 910,
  "\u2581chi\u1ebfc": 911,
  "\u2581hei\u00dft": 912,
  "\u2581Phi": 913,
  "\u2581t\u00e1c": 914,
  "\u2581ki\u1ebfm": 915,
  "\u2581rao": 916,
  "\u2581besser": 917,
  "\u2581darauf": 918,
  "\u2581c\u00e1": 919,
  "\u2581di\u1ec5n": 920,
  "\u2581nhanh": 921,
  "\u2581ch\u1ea5t": 922,
  "\u2581m\u1edf": 923,
  "\u2581Nh\u01b0": 924,
  "\u2581ph\u00eda": 925,
  "\u2581ph\u01b0\u01a1ng": 926,
  "\u2581Mal": 927,
  "\u2581Bitte": 928,
  "\u2581Ch\u00e0o": 929,
  "\u2581wer": 930,
  "\u2581V\u00e2ng": 931,
  "\u2581genau": 932,
  "\u2581wohl": 933,
  "\u2581N\u00e0y": 934,
  "\u2581ins": 935,
  "\u2581sprach": 936,
  "\u2581her": 937,
  "\u2581kh\u00ed": 938,
  "\u2581ti\u1ebfn": 939,
  "\u2581ph\u1ea3n": 940,
  "\u2581hy": 941,
  "\u2581drei": 942,
  "ra": 943,
  "\u2581c\u1ed5": 944,
  "\u2581dort": 945,
  "\u2581leid": 946,
  "\u2581Namen": 947,
  "\u2581Alles": 948,
  "\u2581nguy\u00ean": 949,
  "\u2581M\u00e0y": 950,
  "\u2581Cho": 951,
  "\u2581ng\u1ee7": 952,
  "\u2581Stadt": 953,
  "te": 954,
  "\u2581bay": 955,
  "\u2581tr\u00f2": 956,
  "\u2581x\u1eed": 957,
  "\u2581Do": 958,
  "\u2581c\u00e0ng": 959,
  "\u2581m\u1ea1ng": 960,
  "\u2581tri": 961,
  "\u2581d\u1ecbch": 962,
  "\u2581nun": 963,
  "\u2581Ba": 964,
  "\u2581\u00e1c": 965,
  "\u2581warum": 966,
  "\u2581k\u1ef7": 967,
  "\u2581\u201c.": 968,
  "\u2581nh\u00f3m": 969,
  "\u2581ch\u1ed3ng": 970,
  "\u2581h\u1ea1n": 971,
  "\u2581b\u00e0n": 972,
  "\u2581Land": 973,
  "\u2581a": 974,
  "\u2581kho\u1ea3ng": 975,
  "\u2581lu\u1eadn": 976,
  "\u2581reden": 977,
  "\u2581daran": 978,
  "\u2581ki\u1ec3m": 979,
  "\u2581\u0111\u00eam": 980,
  "\u2581ganze": 981,
  "\u2581t\u1ed5": 982,
  "\u2581th\u00fac": 983,
  "\u2581klar": 984,
  "\u2581Hilfe": 985,
  "\u2581bleiben": 986,
  "\u2581ma": 987,
  "em": 988,
  "\u2581thi\u00eang": 989,
  "\u2581lange": 990,
  "\u2581Volk": 991,
  "\u2581h\u00f3a": 992,
  "\u2581g\u1eafng": 993,
  "\u2581glaube": 994,
  "\u2581gleich": 995,
  "\u2581kh\u00f4n": 996,
  "\u2581passiert": 997,
  "\u2581ph\u00e1": 998,
  "\u2581Ch\u1ee9ng": 999,
  "ne": 1000,
  "\u2581An": 1001,
  "\u2581willst": 1002,
  "\u2581ko": 1003,
  "\u2581li\u00eang": 1004,
  "\u2581nein": 1005,
  "\u2581raus": 1006,
  "\u2581s\u00e0ng": 1007,
  "k": 1008,
  "\u2581dachte": 1009,
  "\u2581h\u1ee9a": 1010,
  "\u2581L\u00e0": 1011,
  "\u2581Meine": 1012,
  "\u2581D\u00f9": 1013,
  "\u2581deinen": 1014,
  "\u2581Hause": 1015,
  "\u2581ghi": 1016,
  "\u2581paar": 1017,
  "\u2581L\u1eddi": 1018,
  "\u2581Tod": 1019,
  "\u2581gute": 1020,
  "\u2581l\u1ea1c": 1021,
  "\u2581\u0111\u01a1n": 1022,
  "\u2581\u2019": 1023,
  "\u2581M\u1ecdi": 1024,
  "\u2581\u201d,": 1025,
  "\u2581steht": 1026,
  "\u2581Ch\u1eafc": 1027,
  "\u2581Sir": 1028,
  "\u2581\u0111\u1ee1": 1029,
  "\u2581ph\u1ed1": 1030,
  "\u2581\u00dd": 1031,
  "\u2581Lass": 1032,
  "\u2581Wahrheit": 1033,
  "\u2581duy": 1034,
  "\u2581h\u1ea1nh": 1035,
  "\u2581s\u01b0": 1036,
  "\u2581Augen": 1037,
  "\u2581h\u00f4m": 1038,
  "\".": 1039,
  "\u2581ng\u1ed3i": 1040,
  "\u2581qu\u00fd": 1041,
  "\u2581l\u1ec7": 1042,
  "\u2581Jesu": 1043,
  "\u2581Hand": 1044,
  "\u2581Jahr": 1045,
  "\u2581l\u01b0\u1ee3ng": 1046,
  ".\u201c": 1047,
  "\u2581Gut": 1048,
  "\u2581kh\u1ea3": 1049,
  "\u2581tr\u00f4ng": 1050,
  "\u2581leben": 1051,
  "\u2581M\u00e4nner": 1052,
  "\u2581ch\u1edd": 1053,
  "\u258120": 1054,
  "\u2581B\u1ed1": 1055,
  "\u2581sogar": 1056,
  "\u2581u\u1ed1ng": 1057,
  "\u2581wirst": 1058,
  "\u2581k\u00ednh": 1059,
  "\u2581v\u0103n": 1060,
  "\u2581Ende": 1061,
  "\u2581R\u1ed3i": 1062,
  "\u2581Mr": 1063,
  "\u2581Nacht": 1064,
  "\u25814": 1065,
  "\u2581khuy\u00ean": 1066,
  "\u2581getan": 1067,
  "\u2581sollen": 1068,
  "\u2581allen": 1069,
  "\u2581b\u00e1c": 1070,
  "\u2581th\u1ecb": 1071,
  "\u2581\u0111em": 1072,
  "\u2581m\u00f4": 1073,
  "\u2581:": 1074,
  "\u2581S": 1075,
  "\u2581\u0111\u1ee3i": 1076,
  "\u2581e": 1077,
  "\u2581ersten": 1078,
  "\u2581thu\u1ed1c": 1079,
  "\u2581Tao": 1080,
  "\u2581Bruder": 1081,
  "de": 1082,
  "\u2581bringen": 1083,
  "\u2581l\u1ea1": 1084,
  "h": 1085,
  "\u2581\u1ede": 1086,
  "\u2581ngoan": 1087,
  "\u2581nehmen": 1088,
  "\u258115": 1089,
  "\u2581\u0111\u1ed9i": 1090,
  "\u2581Arbeit": 1091,
  "\u2581dar\u00fcber": 1092,
  "\u2581N\u00f3i": 1093,
  "\u2581w\u00fcrden": 1094,
  "\u2581Art": 1095,
  "\u2581ho\u1ea1t": 1096,
  "\u2581halten": 1097,
  "\u2581!": 1098,
  "\u2581Glauben": 1099,
  "\u2581Geist": 1100,
  "\u2581h\u1ea1i": 1101,
  "\u2581ging": 1102,
  "\u2581thi": 1103,
  "\u2581ph\u00e2n": 1104,
  "\u2581ri\u00eang": 1105,
  "\u2581F\u00fcr": 1106,
  "\u2581d\u00e0nh": 1107,
  "\u2581h\u1ea7u": 1108,
  "\u2581l\u00e0nh": 1109,
  "\u2581r\u01a1": 1110,
  "\u2581t\u00f4": 1111,
  "\u2581sa": 1112,
  "\u2581Bild": 1113,
  "\u2581Chuy\u1ec7n": 1114,
  "\u2581Eltern": 1115,
  "\u2581unserer": 1116,
  "S": 1117,
  "\u2581Wasser": 1118,
  "\u2581Herz": 1119,
  "\u2581Nghe": 1120,
  "\u2581chu\u1ea9n": 1121,
  "\u2581y\u1ebfu": 1122,
  "\u2581m\u1eb7c": 1123,
  "\u2581dabei": 1124,
  "\u2581einige": 1125,
  "\u2581x\u1ea5u": 1126,
  "\u2581bi\u1ec3u": 1127,
  "\u2581tu\u1ea7n": 1128,
  "\u2581Ch\u1eb3ng": 1129,
  "\u2581Grund": 1130,
  "\u2581B": 1131,
  "\u2581thanh": 1132,
  "\u2581Hast": 1133,
  "\u2581nh\u1edd": 1134,
  "\u2581x\u1ee9": 1135,
  "\u2581tr\u00e1ch": 1136,
  "\u2581jeder": 1137,
  "\u2581all": 1138,
  "\u2581ca": 1139,
  "\u2581d\u00e0i": 1140,
  "\u2581qu\u1ed1c": 1141,
  "\u2581Nur": 1142,
  "\u2581v\u00f2ng": 1143,
  "\u2581nghi\u1ec7p": 1144,
  "\u2581gar": 1145,
  "\u2581tan": 1146,
  "\u2581\u0111\u1ea5u": 1147,
  "\u2581musst": 1148,
  "\u2581hi\u1ec3m": 1149,
  "\u2581Keine": 1150,
  "\u2581th\u1ea7y": 1151,
  "\u2581\u00e1p": 1152,
  "\u2581Los": 1153,
  "\u2581ch\u1ea5p": 1154,
  "\u2581m\u1ed1i": 1155,
  "\u2581v\u0169": 1156,
  "\u2581\u0111o\u00e1n": 1157,
  "\u2581rein": 1158,
  "\u2581HERR": 1159,
  "\u2581ch\u1ed1ng": 1160,
  "\u2581richtig": 1161,
  "\u2581ph\u1ea9m": 1162,
  "\u2581chung": 1163,
  "\u2581b\u1eafn": 1164,
  "\u2581n\u1ea7y": 1165,
  "\u2581nh\u1ec9": 1166,
  "\u2581K": 1167,
  "\u2581n\u1ea1n": 1168,
  "\u2581b\u01b0\u1edbc": 1169,
  "\u2581mua": 1170,
  "\u2581be": 1171,
  "\u2581\u0111\u00f3ng": 1172,
  "\u2581vi": 1173,
  "den": 1174,
  "\u2581kh\u00e1ch": 1175,
  "\u2581x\u00e2y": 1176,
  "\u2581\u00d4i": 1177,
  "\u2581C": 1178,
  "\u2581d\u1ea5u": 1179,
  "\u2581Israel": 1180,
  "\u2581Christus": 1181,
  "\u2581C\u00f4ng": 1182,
  "\u2581unseren": 1183,
  "\u2581m\u00e1u": 1184,
  "\u2581wegen": 1185,
  "\u2581chia": 1186,
  "\u2581\u00e1n": 1187,
  "\u2581kh\u00e1": 1188,
  "\u2581wei\u00dft": 1189,
  "\u2581ph\u00fat": 1190,
  "ge": 1191,
  "\u2581quanh": 1192,
  "\u2581Denn": 1193,
  "\u2581\u0111\u00f4i": 1194,
  "\u2581\u1ea1": 1195,
  "\u2581h\u00f6ren": 1196,
  "Ich": 1197,
  "\u2581B\u00e2y": 1198,
  "\u2581Freund": 1199,
  "T": 1200,
  "\u2581s\u1ea3n": 1201,
  "\u2581l\u00e3o": 1202,
  "\u2581thi\u1ebfu": 1203,
  "\u2581tr\u00e1nh": 1204,
  "\u2581\u0111\u1ed9c": 1205,
  "\u2581d\u1ee5": 1206,
  "\u201c,": 1207,
  "\u2581gro\u00dfe": 1208,
  "\u2581\u00e1o": 1209,
  "\u2581worden": 1210,
  "\u2581Mensch": 1211,
  "\u2581di\u1ec7n": 1212,
  "\u2581V\u00e0o": 1213,
  "\u2581Himmel": 1214,
  "\u2581h\u00f2a": 1215,
  "\u2581khu": 1216,
  "\u2581th\u00f9": 1217,
  "\u2581Fall": 1218,
  "\u2581l\u1ed1i": 1219,
  "\u2581s\u00fang": 1220,
  "\u25816": 1221,
  "\u2581r\u00e0ng": 1222,
  "\u2581tri\u1ec7u": 1223,
  "\u2581\u01b0\u1edbc": 1224,
  "\u2581brauchen": 1225,
  "\u2581h\u1ee7y": 1226,
  "\u258112": 1227,
  "h\u00f4": 1228,
  "\u2581Frage": 1229,
  "\u2581Um": 1230,
  "\u2581ihrem": 1231,
  "\u2581ki\u1ebfn": 1232,
  "\u2581qu\u00ean": 1233,
  "\u2581\u0111\u00f4ng": 1234,
  "\u2581Ch\u1ecb": 1235,
  "\u2581h\u1ed9": 1236,
  "\u2581Ch\u00e1u": 1237,
  "\u2581h\u01a1i": 1238,
  "\u2581lang": 1239,
  "\u2581ph\u00fac": 1240,
  "\u2581Weil": 1241,
  "\u2581bedeutet": 1242,
  "\u2581c\u0103n": 1243,
  "\u2581h\u1ec1": 1244,
  "\u2581allein": 1245,
  "\u2581Ng\u00e0y": 1246,
  "\u2581zwischen": 1247,
  "\u2581Th\u00f4i": 1248,
  "\u2581K\u00f6nigreich": 1249,
  "\u2581Kind": 1250,
  "\u2581ngo\u1ea1i": 1251,
  "p": 1252,
  "\u2581gern": 1253,
  "\u2581David": 1254,
  "\u2581ganzen": 1255,
  "\u2581sieht": 1256,
  "\u2581ch\u1ebf": 1257,
  "\u2581mong": 1258,
  "\u2581jeden": 1259,
  "\u2581sp\u00e4ter": 1260,
  "\u2581nguy": 1261,
  "\u2581t\u00e0u": 1262,
  "\u2581tho\u00e1t": 1263,
  "\u2581\u1eea": 1264,
  "\u2581\u0111i\u00ean": 1265,
  "\u2581thu": 1266,
  "\u2581denke": 1267,
  "\u2581seit": 1268,
  "\u2581Problem": 1269,
  "\u2581d\u1ed7": 1270,
  "\u2581t\u00f9": 1271,
  "\u2581\u00e2n": 1272,
  "\u2581B\u1ecdn": 1273,
  "\u2581denken": 1274,
  "\u2581\u0111\u00e1": 1275,
  "\u2581Nach": 1276,
  "\u2581Teil": 1277,
  "\u2581c\u00e1o": 1278,
  "\u2581Ver": 1279,
  "\u2581Kann": 1280,
  "\u2581tot": 1281,
  "\u2581Aus": 1282,
  "\u2581d\u1ed1i": 1283,
  "\u2581\u0111\u00e1p": 1284,
  "\u2581beim": 1285,
  "\u2581y\u00ean": 1286,
  "\u2581Ordnung": 1287,
  "\u2581l\u1ecbch": 1288,
  "\u258130": 1289,
  "be": 1290,
  "\u2581ch\u00e0o": 1291,
  "\u2581b\u00e1n": 1292,
  "\u2581\u0111\u00f4": 1293,
  "\u2581l\u1eafng": 1294,
  "\u2581Macht": 1295,
  "\u2581sprechen": 1296,
  "\u2581xong": 1297,
  "\u2581t\u1ec7": 1298,
  "\u2581Angst": 1299,
  "\u2581bu\u1ed3n": 1300,
  "\u2581gi\u00e1c": 1301,
  "\u2581nhi\u00eau": 1302,
  "\u2581kh\u1eafp": 1303,
  "\u2581weit": 1304,
  "\u2581lai": 1305,
  "\u00ean": 1306,
  "\u2581tai": 1307,
  "\u2581h\u1eefu": 1308,
  "\u2581B\u1edfi": 1309,
  "\u2581Gi\u00f4": 1310,
  "\u2581\u00e2m": 1311,
  "\u2581Hallo": 1312,
  "\u2581d\u1ea7u": 1313,
  "\u2581Oder": 1314,
  "I": 1315,
  "\u2581cung": 1316,
  "\u2581v\u1eddi": 1317,
  "\u2581m\u1eadt": 1318,
  "\u2581n\u1eb1m": 1319,
  "\u2581\u0111o\u1ea1n": 1320,
  "\u2581ki\u1ec7n": 1321,
  "\u2581k\u00f6nnten": 1322,
  "\u2581schnell": 1323,
  "\u2581M\u00e4dchen": 1324,
  "\u2581d\u1ef1ng": 1325,
  "\u2581neue": 1326,
  "b": 1327,
  "\u2581th\u1eafng": 1328,
  "\u2581kh\u0103n": 1329,
  "\u2581tri\u1ec3n": 1330,
  "\u2581tho\u1ea1i": 1331,
  "an": 1332,
  "\u2581Wieso": 1333,
  "\u2581glauben": 1334,
  "\u2581y": 1335,
  "\u2581c\u01b0\u1eddi": 1336,
  "\u2581h\u1ea1": 1337,
  "\u2581Auch": 1338,
  "\u2581tr\u1ee3": 1339,
  "\u2581l\u1ec7nh": 1340,
  "\u2581g\u01b0\u01a1ng": 1341,
  "\u2581ngh\u1ecb": 1342,
  "\u2581H\u00ecnh": 1343,
  "\u2581\u0110a": 1344,
  "\u2581sah": 1345,
  "der": 1346,
  "?\"": 1347,
  "\u2581John": 1348,
  "\u2581s\u00e2u": 1349,
  "\u2581Z": 1350,
  "\u2581C\u00e1m": 1351,
  "\u2581s\u1ea1ch": 1352,
  "\u2581ng\u00f4n": 1353,
  "\u2581\u0111\u1ea3m": 1354,
  "\u2581\u2019.": 1355,
  "\u2581Worte": 1356,
  "\u2581La": 1357,
  "\u2581Sache": 1358,
  "ten": 1359,
  "A": 1360,
  "\u2581New": 1361,
  "\u2581t\u0103ng": 1362,
  "\u2581th\u00ea": 1363,
  "\u2581stehen": 1364,
  "\u2581Tage": 1365,
  "\u2581Welche": 1366,
  "\u2581di": 1367,
  "\u2581th\u1ee7": 1368,
  "\u2581bevor": 1369,
  "\u2581habt": 1370,
  "\u2581Apostel": 1371,
  "\u2581Vor": 1372,
  "\u2581th\u00e1i": 1373,
  "\u2581m\u00e0u": 1374,
  "\u2581la": 1375,
  "\u2581m\u1eddi": 1376,
  "\u2581v\u00f9ng": 1377,
  "g": 1378,
  "\u2581genug": 1379,
  "\u2581deinem": 1380,
  "\u2581kh\u1ed5": 1381,
  "\u2581deiner": 1382,
  "\u2581h\u1ecdp": 1383,
  "\u2581coi": 1384,
  "\u2581sch\u00f6n": 1385,
  "T\u00f4i": 1386,
  "\u2581seid": 1387,
  "\u25817": 1388,
  "\u2581Frauen": 1389,
  "ta": 1390,
  "\u2581th\u1eb3ng": 1391,
  "\u2581Ok": 1392,
  "\u2581sterben": 1393,
  "\u2581ti\u1ebft": 1394,
  "\u2581HERRN": 1395,
  "\u2581ph\u1ee5ng": 1396,
  "\u2581erst": 1397,
  "\u2581R\u1ea5t": 1398,
  "\u2581Ng\u01b0\u01a1i": 1399,
  "\u2581zwar": 1400,
  "\u2581Fragen": 1401,
  "\u2581d\u1eef": 1402,
  "\u2581ng\u1eef": 1403,
  "\u2581T\u1eeb": 1404,
  "\u2581Blut": 1405,
  "\u2581th\u0103m": 1406,
  "\u2581Nh\u00ecn": 1407,
  "\u2581nghi": 1408,
  "\u2581ph\u01b0\u1edbc": 1409,
  "\u2581Bei": 1410,
  "\u2581Name": 1411,
  "\u2581tha": 1412,
  "\u2581I": 1413,
  "\u2581h\u1eb3n": 1414,
  "\u2581bereit": 1415,
  "\u2581bi\u1ec3n": 1416,
  "\u2581Von": 1417,
  "\u2581tr\u1ea1ng": 1418,
  "\u2581kh\u1ed1n": 1419,
  "\u2581qu\u00e1i": 1420,
  "\u2581Vi\u1ec7c": 1421,
  "\u2581ph\u01b0\u1ee3ng": 1422,
  "\u2581\u0111\u1ed5": 1423,
  "\u2581zeigen": 1424,
  "\u0303": 1425,
  "\u2581Weise": 1426,
  "\u2581w\u00e4hrend": 1427,
  "\u2581Buch": 1428,
  "\u2581Zu": 1429,
  "\u2581gro\u00dfen": 1430,
  "\u2581v\u00e2ng": 1431,
  "\u2581gefunden": 1432,
  "\u2581r\u01b0\u1ee3u": 1433,
  "\u2581ni\u1ec1m": 1434,
  "\u2581Hai": 1435,
  "\u2581c\u00e1nh": 1436,
  "\u2581l\u1ea7m": 1437,
  "\u2581c\u1eady": 1438,
  "\u2581s\u1eeda": 1439,
  "\u2581b\u00f3ng": 1440,
  "\u2581dies": 1441,
  "\u2581l\u1ed9": 1442,
  "\u2581b\u00e1nh": 1443,
  "\u2581wichtig": 1444,
  "\u2581Kopf": 1445,
  "\u2581t\u00edch": 1446,
  "\u2581di\u1ec7t": 1447,
  "\u2581kh\u1ecfe": 1448,
  "\u2581fest": 1449,
  "\u2581Botschaft": 1450,
  "\u2581M\u1ef9": 1451,
  "Ch\u00faa": 1452,
  "\u2581\u0111\u00e1m": 1453,
  "\u2581Theo": 1454,
  "\u2581m\u00e3i": 1455,
  "\u2581t\u1ea5n": 1456,
  "\u2581cu\u1ed1n": 1457,
  "\u2581Geschichte": 1458,
  "\u2581ch\u0103m": 1459,
  "\u2581phong": 1460,
  "\u2581l\u1eeda": 1461,
  "\u2581m\u1ee9c": 1462,
  "\u2581letzten": 1463,
  "\u2581l\u01b0u": 1464,
  "\u2581C\u0169ng": 1465,
  "\u2581s\u1edf": 1466,
  "\u2581T\u1ed1t": 1467,
  "\u2581Ort": 1468,
  "\u2581Versammlung": 1469,
  "\u2581gewesen": 1470,
  "\u2581\u2022": 1471,
  "\u2581r\u1eddi": 1472,
  "\u2581Abend": 1473,
  "\u2581d\u00e2ng": 1474,
  "\u25811.": 1475,
  "\u2581v\u00edt": 1476,
  "E": 1477,
  "\u2581Schei\u00dfe": 1478,
  "\u2581c\u1ef1c": 1479,
  "\u2581l\u00e3nh": 1480,
  "\u2581Ch\u00fa": 1481,
  "\u2581Trung": 1482,
  "\u2581kh\u00edch": 1483,
  "\u25818": 1484,
  "\u2581Moment": 1485,
  "\u2581schrieb": 1486,
  "Gi\u00ea": 1487,
  "\u2581/": 1488,
  "\u2581oft": 1489,
  "\u2581may": 1490,
  "\u2581Haben": 1491,
  "\u2581t\u01b0\u1eddng": 1492,
  "\u2581ge": 1493,
  "\u2581jedoch": 1494,
  "\u2581su\u1ed1t": 1495,
  "\u2581thuy\u1ebft": 1496,
  "\u2581wahr": 1497,
  "\u2581etwa": 1498,
  "\u2581\u0110\u1ea1i": 1499,
  "\u2581ph\u1ee7": 1500,
  "\u2581x\u00fac": 1501,
  "\u2581welche": 1502,
  "\u2581eigenen": 1503,
  "\u2581t\u00f6ten": 1504,
  "\u2581Th\u00e1i": 1505,
  "\u2581gi\u1eadn": 1506,
  "\u2581v\u1ef1c": 1507,
  "\u2581th\u1ea5t": 1508,
  "\u2581C\u1ee9": 1509,
  "\u2581nh\u1eafc": 1510,
  "\u2581sang": 1511,
  "\u2581b\u1ee9c": 1512,
  "\u2581Ra": 1513,
  "\u2581V\u1edbi": 1514,
  "se": 1515,
  "\u2581vi\u1ec7n": 1516,
  "\u2581verstehen": 1517,
  "\u2581bekommen": 1518,
  "\u2581tr\u1eadn": 1519,
  "\u2581Tut": 1520,
  "\u2581ch\u01b0\u01a1ng": 1521,
  "\u2581mai": 1522,
  "\u2581beide": 1523,
  "\u2581biblische": 1524,
  "\u2581khoa": 1525,
  "\u2581gegeben": 1526,
  "\u2581Ha": 1527,
  "\u2581allem": 1528,
  "\u2581ngh\u1ec9": 1529,
  "L": 1530,
  "\u2581Alle": 1531,
  "\u2581th\u00e1ch": 1532,
  "\u2581ng\u00f4i": 1533,
  "\u2581lernen": 1534,
  "\u2581\u0111u\u1ed5i": 1535,
  "\u2581Ch\u00ednh": 1536,
  "\u2581vinh": 1537,
  "\u2581Ngay": 1538,
  "\u2581Freunde": 1539,
  "\u2581kennen": 1540,
  "\u2581b\u00e0y": 1541,
  "\u2581d\u1eady": 1542,
  "\u2581erste": 1543,
  "\u2581okay": 1544,
  "\u2581Ach": 1545,
  "\u2581ng\u1edd": 1546,
  "\u2581r\u1ed9ng": 1547,
  "\u2581c\u1ea1nh": 1548,
  "\u2581c\u1ed9ng": 1549,
  "\u00fc": 1550,
  "\u2581ho\u1ea1ch": 1551,
  "\u2581g\u00e3": 1552,
  "\u2581Herzen": 1553,
  "\u2581\u25a1": 1554,
  "\u2581Herr": 1555,
  "\u2581O": 1556,
  "\u2581quen": 1557,
  "l": 1558,
  "\u2581unserem": 1559,
  "\u2581M\u00ecnh": 1560,
  "\u2581cai": 1561,
  "\u2581Be": 1562,
  "\u2581gh\u00e9t": 1563,
  "\u2581g\u1eedi": 1564,
  "\u2581v\u00e0ng": 1565,
  "B": 1566,
  "\u2581Qu\u1ed1c": 1567,
  "\u2581wusste": 1568,
  "\u2581m\u00f3n": 1569,
  "\u2581tr\u1eeb": 1570,
  "\u2581r\u1ed1i": 1571,
  "\u2581Thi": 1572,
  "\u2581th\u1eadn": 1573,
  "\u2581schwer": 1574,
  "\u2581lie\u00df": 1575,
  "\u2581h\u00e4tten": 1576,
  "sch": 1577,
  "\u2581*": 1578,
  "\u2581nh\u1eadp": 1579,
  "\u2581k\u00e9o": 1580,
  "\u2581k\u00eca": 1581,
  "\u2581E": 1582,
  "\u2581Recht": 1583,
  "\u2581Sinn": 1584,
  "\u2581gi\u00e0": 1585,
  "\u2581Am": 1586,
  "K": 1587,
  "\u2581Lebens": 1588,
  "\u2581s\u1edbm": 1589,
  "\u2581\u00c0": 1590,
  "\u2581\u01a1": 1591,
  "\u2581liegt": 1592,
  "\u2581Gia": 1593,
  "\u2581d\u1ee5c": 1594,
  "\u2581x\u01b0a": 1595,
  "\u2581\u00f4": 1596,
  "\u2581Morgen": 1597,
  "\u2581Dienst": 1598,
  "\u2581Teufel": 1599,
  "\u2581suchen": 1600,
  "\u2581to": 1601,
  "\u2581Sind": 1602,
  "\u2581\u0111\u1ec1n": 1603,
  "\u2581Nat\u00fcrlich": 1604,
  "\u2581hinter": 1605,
  "\u2581hoch": 1606,
  "\u2581t\u1ea3": 1607,
  "\u2581m\u1eafc": 1608,
  "\u2581&": 1609,
  "\u2581vielen": 1610,
  "\u2581recht": 1611,
  "\u2581n\u1eb7ng": 1612,
  "\u2581t\u1eadn": 1613,
  "\u2581s\u00f3c": 1614,
  "\u2581\u1ed2": 1615,
  "\u2581\u201c,": 1616,
  "\u2581th\u1ecbt": 1617,
  "\u2581Br\u00fcder": 1618,
  "\u2581Kraft": 1619,
  "\u2581c\u1ea7m": 1620,
  "\u2581phim": 1621,
  "\u2581t\u1ed9c": 1622,
  "\u2581n\u1ed7i": 1623,
  "\u2581gekommen": 1624,
  "\u2581ch\u00e0ng": 1625,
  "\u2581ch\u1eefa": 1626,
  "\u2581\u01b0": 1627,
  "\u2581b\u0103ng": 1628,
  "\u2581ho\u00e0ng": 1629,
  "\u2581Gl\u00fcck": 1630,
  "\u2581gegen\u00fcber": 1631,
  "\u2581bald": 1632,
  "\u2581seines": 1633,
  "\u2581machte": 1634,
  "\u2581G": 1635,
  "\u2581darum": 1636,
  "\u2581M\u00f4i": 1637,
  "sten": 1638,
  "\u2581ph\u00f9": 1639,
  "\u2581b\u1ea1i": 1640,
  "\u2581nghi\u00ean": 1641,
  "\u2581H\u1ed9i": 1642,
  "ste": 1643,
  "\u2581indem": 1644,
  "\u2581ki\u1ec3u": 1645,
  "\u2581Nhi\u1ec1u": 1646,
  "\u2581\u0111a": 1647,
  "\u2581sage": 1648,
  "\u2581guten": 1649,
  "\u2581ngu\u1ed3n": 1650,
  "\u2581h\u1ed3i": 1651,
  "\u2581v\u1eefng": 1652,
  "\u2581bereits": 1653,
  "\u2581liebe": 1654,
  "\u2581vier": 1655,
  "\u2581\u0111\u00f2i": 1656,
  "\u2581Hy": 1657,
  "\u2581beiden": 1658,
  "\u2581neuen": 1659,
  "\u2581T\u00ean": 1660,
  "\u2581lieben": 1661,
  "\u2581gi\u1ea3n": 1662,
  "\u2581Vua": 1663,
  "\u2581fast": 1664,
  "\u2581Junge": 1665,
  "\u2581mag": 1666,
  "\u2581L\u00fac": 1667,
  "\u2581tr\u1ed1n": 1668,
  "\u2581m\u00f6glich": 1669,
  "\u2581l\u00e4sst": 1670,
  "\u2581H\u00f6r": 1671,
  "s\u01a1": 1672,
  "\u2581b\u00ed": 1673,
  "\u2581brauche": 1674,
  "\u2581c\u01b0": 1675,
  "\u2581n\u00fai": 1676,
  "\u25819": 1677,
  "\u2581k\u1ef9": 1678,
  "\",": 1679,
  "\u2581Bist": 1680,
  "\u2581t\u1eafc": 1681,
  "\u2581Millionen": 1682,
  "\u2581nat\u00fcrlich": 1683,
  "\u2581se": 1684,
  "\u2581Den": 1685,
  "\u2581n\u00e0ng": 1686,
  "\u2581h\u00e1t": 1687,
  "\u2581nh\u1ea1c": 1688,
  "\u2581Hat": 1689,
  "\u2581ng\u0103n": 1690,
  "\u2581Hay": 1691,
  "\u2581Rat": 1692,
  "\u2581u": 1693,
  "na": 1694,
  "\u2581b\u1ea1c": 1695,
  "\u2581\u1ea5n": 1696,
  "\u2581machst": 1697,
  "\u2581l\u1ef1a": 1698,
  "\u2581G\u00ec": 1699,
  "\u2581Dank": 1700,
  "--": 1701,
  "\u2581je": 1702,
  "H": 1703,
  "\u2581anders": 1704,
  "\u2581Frieden": 1705,
  "\u2581\u0111en": 1706,
  "\u2581kh\u1ee7ng": 1707,
  "\u2581Ge": 1708,
  "\u2581fertig": 1709,
  "\u2581ch\u00f3": 1710,
  "\u2581v\u01b0\u1ee3t": 1711,
  "\u2581h\u1ecda": 1712,
  "\u2581Tr\u01b0\u1edbc": 1713,
  "ver": 1714,
  "D": 1715,
  "\u25812.": 1716,
  "\u2581h\u1eadu": 1717,
  "\u2581sofort": 1718,
  "\u2581tr\u1ecdn": 1719,
  "\u2581\u0110\u00e3": 1720,
  "\u258118": 1721,
  "\u2581m\u01a1": 1722,
  "\u2581Mach": 1723,
  "\u2581Zukunft": 1724,
  "\u2581h\u1ed3": 1725,
  "\u2581Gesetz": 1726,
  "C": 1727,
  "\u2581D": 1728,
  "\u2581niemand": 1729,
  "\u2581l\u1edbp": 1730,
  "\u2581ch\u00faa": 1731,
  "\u2581k\u00fd": 1732,
  "\u2581wenig": 1733,
  "x": 1734,
  "\u2581meisten": 1735,
  "\u2581Licht": 1736,
  "\u2581T\u00fcr": 1737,
  "\u2581Freude": 1738,
  "\u2581Selbst": 1739,
  "\u2581ch\u1edb": 1740,
  "\u2581\u00e1nh": 1741,
  "\u2581\u0111\u00ea": 1742,
  "\u2581Diener": 1743,
  "\u2581Ab": 1744,
  "\u2581s\u00f3t": 1745,
  "\u2581erkennen": 1746,
  "\u2581Dad": 1747,
  "\u2581Schwester": 1748,
  "\u2581H\u00ea": 1749,
  "\u2581th\u1eadm": 1750,
  "\u2581aller": 1751,
  "\u2581arbeiten": 1752,
  "sa": 1753,
  "\u2581bu\u1ed9c": 1754,
  "\u2581t\u0129nh": 1755,
  "\u2581Euch": 1756,
  "\u2581Dr": 1757,
  "\u2581Gi\u0103ng": 1758,
  "\u2581d\u00f2ng": 1759,
  "\u2581Minuten": 1760,
  "\u2581tr\u0103m": 1761,
  "\u2581thu\u1eadn": 1762,
  "\u2581kleine": 1763,
  "\u2581b\u1ed1n": 1764,
  "\u2581li": 1765,
  "\u2581Tochter": 1766,
  "\u2581\u0111\u1ea1t": 1767,
  "\u2581ch\u1eef": 1768,
  "\u2581t\u1ea1p": 1769,
  "\u25813:": 1770,
  "\u2581Wei\u00dft": 1771,
  "\u2581nghi\u00eam": 1772,
  "\u2581tim": 1773,
  "\u2581essen": 1774,
  "\u2581Giu": 1775,
  "\u2581sehe": 1776,
  "\u2581bestimmt": 1777,
  "R": 1778,
  "al": 1779,
  "\u2581m\u1eabu": 1780,
  "\u2581c\u1ee5": 1781,
  "\u2581s\u1eafc": 1782,
  "\u2581ngh\u1ec7": 1783,
  "\u2581heraus": 1784,
  "\u2581ngu": 1785,
  "\u2581S\u1ebd": 1786,
  "\u2581fragen": 1787,
  "\u2581Feuer": 1788,
  "\u2581f\u00fcnf": 1789,
  "\u2581th\u1ecfa": 1790,
  "\u2581tr\u1ea1i": 1791,
  "\u2581un": 1792,
  "\u2581\u0111\u1ea9y": 1793,
  "\u2581ri": 1794,
  "\u2581darin": 1795,
  "\u2581ng\u00e0n": 1796,
  "\u2581eigentlich": 1797,
  "\u2581c\u01a1n": 1798,
  "\u2581eure": 1799,
  "chen": 1800,
  "\u2581chi\u00ean": 1801,
  "\u2581verloren": 1802,
  "\u2581dienen": 1803,
  "\u2581musste": 1804,
  "\u2581sonst": 1805,
  "\u2581Dieser": 1806,
  "\u2581geworden": 1807,
  "\u2581Kindern": 1808,
  "\u2581t\u00f2a": 1809,
  "\u2581khai": 1810,
  "\u2581ti\u1ec7t": 1811,
  "\u2581h\u1ed3n": 1812,
  "\u2581spricht": 1813,
  "\u258150": 1814,
  "\u2581c\u1eaft": 1815,
  "\u2581verlassen": 1816,
  "\u2581vergessen": 1817,
  "\u2581Hoffnung": 1818,
  "\u2581ch\u1eebng": 1819,
  "\u2581g\u1ed3m": 1820,
  "ig": 1821,
  "\u2581c\u01b0\u1edbi": 1822,
  "\u2581c\u0169": 1823,
  "\u2581ng\u1ea1c": 1824,
  "\u2581Durch": 1825,
  "\u2581solche": 1826,
  "\u2581x\u00e3": 1827,
  "F": 1828,
  "\u2581konnten": 1829,
  "\u2581ngh\u1ecbch": 1830,
  "\u2581V\u1ec1": 1831,
  "\u2581c\u1eed": 1832,
  "\u2581luy\u1ec7n": 1833,
  "\u2581thi\u1ec7n": 1834,
  "\u2581l\u01b0\u01a1ng": 1835,
  "\u2581b\u00e8n": 1836,
  "\u2581tats\u00e4chlich": 1837,
  "et": 1838,
  "\u2581York": 1839,
  "\u2581d\u1eebng": 1840,
  "re": 1841,
  "\u2581frei": 1842,
  "\u2581l\u00e1i": 1843,
  "\u2581tr\u1ea3i": 1844,
  "\u2581\u00fcberhaupt": 1845,
  "O": 1846,
  "\u2581Auto": 1847,
  "\u2581Sag": 1848,
  "\u2581\u0111\u00edch": 1849,
  "\u2581t": 1850,
  "\u258111": 1851,
  "\u2581ph\u00ed": 1852,
  "\u2581L": 1853,
  "\u2581v\u00f6llig": 1854,
  "\u2581Krieg": 1855,
  "\u2581ziemlich": 1856,
  "\u2581Nhanh": 1857,
  "\u2581vorbei": 1858,
  "\u2581l\u00e1": 1859,
  "\u2581oben": 1860,
  "\u2581Stunden": 1861,
  "\u2581warten": 1862,
  "N": 1863,
  "\u2581Jerusalem": 1864,
  "\u2581k\u00eau": 1865,
  "\u2581mi\u1ec7ng": 1866,
  "z": 1867,
  "\u2581f\u00fchren": 1868,
  "Name": 1869,
  "\u2581Mir": 1870,
  "\u2581\u0110\u01b0a": 1871,
  "\u2581dessen": 1872,
  "\u2581kh\u00f3a": 1873,
  "to": 1874,
  "\u2581nahm": 1875,
  "\u2581\u0111\u1ea3o": 1876,
  "die": 1877,
  "\u2581d\u1ef1a": 1878,
  "\u2581\u0111\u01b0\u01a1ng": 1879,
  "\u2581d\u00f5i": 1880,
  "\u2581komme": 1881,
  "\u258125": 1882,
  "\u2581\u0110\u1ebfn": 1883,
  "\u25812:": 1884,
  "\u2581Genau": 1885,
  "\u2581Gedanken": 1886,
  "\u2581M": 1887,
  "\u2581nam": 1888,
  "\u2581gehe": 1889,
  "\u2581braucht": 1890,
  "zu": 1891,
  "\u2581gi\u1ecfi": 1892,
  "\u2581C\u1ea3": 1893,
  "\u2581gi\u1ea3m": 1894,
  "\u2581n\u1ec1n": 1895,
  "\u2581bringt": 1896,
  "\u2581ch\u0103ng": 1897,
  "\u2581komm": 1898,
  "\u2581ngon": 1899,
  "\u2581k\u00edch": 1900,
  "\u2581d\u00e2y": 1901,
  "\u258140": 1902,
  "\u2581Hi": 1903,
  "P": 1904,
  "\u2581l\u00ednh": 1905,
  "\u2581ni\u00ean": 1906,
  "\u2581ham": 1907,
  "ma": 1908,
  "\u2581Baby": 1909,
  "\u2581zeigt": 1910,
  "\u2581n\u00e3o": 1911,
  "\u2581n\u00f3ng": 1912,
  "\u2581\u00c1p": 1913,
  "\u2581Fehler": 1914,
  "\u2581c\u1ea3i": 1915,
  "\u2581gl\u00fccklich": 1916,
  "\u2581100": 1917,
  "\u2581b\u1eefa": 1918,
  "\u2581binh": 1919,
  "\u2581nu\u00f4i": 1920,
  "\u2581wollten": 1921,
  "\u2581stellen": 1922,
  "\u2581kleinen": 1923,
  "\u2581l\u1eabn": 1924,
  "\u2581ph\u00f3": 1925,
  "el": 1926,
  "\u2581\u00dcber": 1927,
  "\u2581lo\u1ea1n": 1928,
  "\u2581versucht": 1929,
  "\u2581gi\u00e1m": 1930,
  "\u2581ki\u00ean": 1931,
  "\u2581phi": 1932,
  "\u2581kurz": 1933,
  "\u2581Nh\u00e0": 1934,
  "\u2581mache": 1935,
  "\u2581tr\u1ee5": 1936,
  "G": 1937,
  "\u2581N": 1938,
  "\u2581erz\u00e4hlt": 1939,
  "\u2581morgen": 1940,
  "\u2581c\u1eadp": 1941,
  "\u2581Idee": 1942,
  "\u2581so\u00e1t": 1943,
  "\u2581drau\u00dfen": 1944,
  "\u2581qu\u1ea7n": 1945,
  "\u2581daher": 1946,
  "la": 1947,
  "\u2581Jack": 1948,
  "\u2581ti\u1ebfc": 1949,
  "\u2581lesen": 1950,
  "\u2581N\u00ean": 1951,
  "\u2581gi\u1ea5y": 1952,
  "\u2581m\u1ebfn": 1953,
  "\u2581b\u00e1p": 1954,
  "\u2581r\u01a1i": 1955,
  "\u2581ok": 1956,
  "\u2581Geh": 1957,
  "\u2581\u266a": 1958,
  "\u2581chim": 1959,
  "\u2581kamen": 1960,
  "\u2581chuy\u00ean": 1961,
  "\u2581\u0111i\u1ec7p": 1962,
  "\u258114": 1963,
  "\u2581Tagen": 1964,
  "\u2581F": 1965,
  "\u2581t\u00e0n": 1966,
  "M": 1967,
  "\u2581versuchen": 1968,
  "\u2581Xem": 1969,
  "\u2581nh\u1ea3y": 1970,
  "lich": 1971,
  "\u2581na": 1972,
  "\u2581anderes": 1973,
  "\u2581letzte": 1974,
  "\u2581get\u00f6tet": 1975,
  "ri": 1976,
  "\u2581\u0111o\u00e0n": 1977,
  "\u2581n\u1ed5": 1978,
  "\u2581wahrscheinlich": 1979,
  "\u2581Probleme": 1980,
  "\u2581stimmt": 1981,
  "\u2581Nichts": 1982,
  "\u2581treffen": 1983,
  "\u2581Ganz": 1984,
  "\u2581che": 1985,
  "\u2581hoa": 1986,
  "\u2581n\u1eeda": 1987,
  "\u2581runter": 1988,
  "\u2581t\u00eam": 1989,
  "ch": 1990,
  "\u2581vai": 1991,
  "\u2581\u1ea9n": 1992,
  "\u2581t\u1ec9nh": 1993,
  "\u2581Sam": 1994,
  "\u2581Uhr": 1995,
  "li": 1996,
  "\u2581Schon": 1997,
  "\u2581Noch": 1998,
  "\u2581c\u00e1m": 1999,
  "\u2581jede": 2000,
  "\u2581voll": 2001,
  "\u2581Th\u1ee9": 2002,
  "\u2581t\u1ed3n": 2003,
  "\u2581Seele": 2004,
  "\u2581ng\u1ef1a": 2005,
  "\u25811:": 2006,
  "\u2581Spiel": 2007,
  "\u2581ly": 2008,
  "\u258116": 2009,
  "\u2581Deshalb": 2010,
  "\u2581Schule": 2011,
  "\u2581n\u00e4chsten": 2012,
  "us": 2013,
  "\u2581Kein": 2014,
  "le": 2015,
  "\u2581Yeah": 2016,
  "\u2581b\u1ea1o": 2017,
  "\u2581qu\u1ea3n": 2018,
  "\u2581alt": 2019,
  "\u2581c\u1ea5t": 2020,
  "\u2581Heute": 2021,
  "\u2581einzige": 2022,
  "\u2581besonders": 2023,
  "\u2581Dein": 2024,
  "\u2581can": 2025,
  "\u2581\u201a": 2026,
  "\u2581Halt": 2027,
  "/": 2028,
  "\u2581J\u00fcnger": 2029,
  "\u2581leicht": 2030,
  "\u2581darf": 2031,
  "\u2581Leid": 2032,
  "\u2581erhalten": 2033,
  "\u2581Viele": 2034,
  "\u2581bleibt": 2035,
  "\u2581nh\u00f3c": 2036,
  "\u2581ph\u00ea": 2037,
  "\u2581P": 2038,
  "\u2581\u0111\u1eb7ng": 2039,
  "Tr\u1eddi": 2040,
  "\u25814:": 2041,
  "\u2581C\u00e2u": 2042,
  "\u2581ty": 2043,
  "\u2581Bis": 2044,
  "\u2581lieber": 2045,
  "\u2581Gi\u00e1o": 2046,
  "ieren": 2047,
  "\u2581\u0111\u00f9a": 2048,
  "\u2581gi\u00e0u": 2049,
  "\u2581hi\u1ec3n": 2050,
  "nen": 2051,
  "\u2581c\u01b0\u1edbp": 2052,
  "\u2581l\u1eeba": 2053,
  "\u2581\u0111\u1ef1ng": 2054,
  "\u2581ru": 2055,
  "\u2581Sicherheit": 2056,
  "\u2581Th\u01b0a": 2057,
  "\u2581m\u00f9a": 2058,
  "\u2581Opfer": 2059,
  "\u2581H\u00e4nde": 2060,
  "\u2581Wissen": 2061,
  "\u2581d\u1ea7n": 2062,
  "\u2581dadurch": 2063,
  "\u2581m\u1eafn": 2064,
  "\u2581Willst": 2065,
  "\u2581Ihren": 2066,
  "\u2581b\u01a1": 2067,
  "\u2581Gerechtigkeit": 2068,
  "am": 2069,
  "\u2581War": 2070,
  "\u2581Antwort": 2071,
  "\u2581jemanden": 2072,
  "\u2581Personen": 2073,
  "\u2581ng\u1ed1c": 2074,
  "\u2581t\u1ea5m": 2075,
  "\u2581thuy\u1ec1n": 2076,
  "\u2581d\u1ea1ng": 2077,
  "\u2581Ph\u00e1p": 2078,
  "\u2581L\u1ea1i": 2079,
  "\u2581schaffen": 2080,
  "\u2581meines": 2081,
  "\u2581n\u1ed9i": 2082,
  "\u2581Ehe": 2083,
  "\u2581Ki": 2084,
  "\u2581sollst": 2085,
  "\u2581Petrus": 2086,
  "\u2581k\u00ec": 2087,
  "\u258124": 2088,
  "\u2581Polizei": 2089,
  "\u2581t\u1ea7m": 2090,
  "\u2581Frank": 2091,
  "\u2581heiligen": 2092,
  "\u2581retten": 2093,
  "\u2581t\u1ed5ng": 2094,
  "\u2581bisschen": 2095,
  "\u2581kh\u1eafc": 2096,
  "\u2581N\u0103m": 2097,
  "\u2581Geht": 2098,
  "\u2581h\u00fat": 2099,
  "\u2581dung": 2100,
  "\u2581w\u00e4ren": 2101,
  "\u2581Ziel": 2102,
  "\u2581d\u01b0\u1eddng": 2103,
  "\u258117": 2104,
  "\u2581ziehen": 2105,
  "\u2581Hoa": 2106,
  "\u2581Woche": 2107,
  "\u2581niemals": 2108,
  "\u2581ph\u1ea1t": 2109,
  "\u2581t\u1ed1": 2110,
  "\u2581Zum": 2111,
  "\u2581stand": 2112,
  "\u00e4": 2113,
  "\u2581ng\u01b0\u1ee3c": 2114,
  "man": 2115,
  "\u2581warst": 2116,
  "\u2581xung": 2117,
  "\u2581K\u00f6rper": 2118,
  "\u2581tat": 2119,
  "\u2581Au\u00dferdem": 2120,
  "nh": 2121,
  "\u2581He": 2122,
  "\u2581m\u00e1i": 2123,
  "\u2581th\u01b0\u1edfng": 2124,
  "\u2581kh\u1edfi": 2125,
  "\u2581ti\u1ec7c": 2126,
  "\u2581nhu": 2127,
  "\u2581Job": 2128,
  "\u2581x\u1ee9c": 2129,
  "\u2581t\u00f9y": 2130,
  "Die": 2131,
  "\u2581Gib": 2132,
  "\u2581Lu\u1eadt": 2133,
  "\u2581dran": 2134,
  "\u2581chi\u1ec1u": 2135,
  "\u2581Ahnung": 2136,
  "\u2581Warte": 2137,
  "\u2581tr\u1ef1c": 2138,
  "\u2581c\u1ea9n": 2139,
  "\u2581kenne": 2140,
  "\u2581weniger": 2141,
  "\u2581s\u1ed5": 2142,
  "\u2581B\u1eb1ng": 2143,
  "\u2581khen": 2144,
  "\u2581Dies": 2145,
  "im": 2146,
  "\u2581Ch\u1ebft": 2147,
  "\u2581chuy\u1ebfn": 2148,
  "\u2581\u0111\u00f3i": 2149,
  "\u2581v\u00ed": 2150,
  "\u2581Menge": 2151,
  "\u25815:": 2152,
  "\u2581th\u1ea3o": 2153,
  "\u2581khi\u1ec3n": 2154,
  "\u258113": 2155,
  "\u2581Gute": 2156,
  "\u2581ch\u1ed1i": 2157,
  "\u2581verstehe": 2158,
  "\u2581erfahren": 2159,
  "\u2581g\u00f3p": 2160,
  "\u2581unten": 2161,
  "\u2581Jungs": 2162,
  "\u2581Ngo\u00e0i": 2163,
  "\u2581Tages": 2164,
  "\u2581egal": 2165,
  "\u2581khuy\u1ebfn": 2166,
  "\u2581echt": 2167,
  "\u2581Qua": 2168,
  "H\u00e3y": 2169,
  ").": 2170,
  "\u2581Damit": 2171,
  "\u2581Person": 2172,
  "\u2581m\u00f6chten": 2173,
  "\u2581nh\u1eabn": 2174,
  "um": 2175,
  "\u2581Essen": 2176,
  "\u2581Ga": 2177,
  "\u2581m\u01b0\u1eddi": 2178,
  "\u2581x\u1ebfp": 2179,
  "\u2581T\u00e2y": 2180,
  "\u2581t\u1edd": 2181,
  "\u2581danke": 2182,
  "\u2581solltest": 2183,
  "\u2581H": 2184,
  "\u2581h\u01b0": 2185,
  "\u2581s\u1ebb": 2186,
  "\u2581sanh": 2187,
  "\u2581phi\u1ec1n": 2188,
  "\u2581Unter": 2189,
  "\u2581r\u00fat": 2190,
  "\u2581Verbindung": 2191,
  "\u2581\u0111\u1ed9t": 2192,
  "\u2581kh\u00f3c": 2193,
  "\u2581spielen": 2194,
  "\u2581h\u1eb9n": 2195,
  "\u2581mi": 2196,
  "\u2581Tin": 2197,
  "f": 2198,
  "\u2581Luft": 2199,
  "\u2581s\u1ebfp": 2200,
  "\u2581bekannt": 2201,
  "\u2581gro\u00df": 2202,
  "\u2581Seine": 2203,
  "\u2581chu\u1ed9c": 2204,
  "\u2581drin": 2205,
  "\u2581l\u0169": 2206,
  "\u2581m\u00ea": 2207,
  "\u2581Tuy\u1ec7t": 2208,
  "\u2581\u0111\u00f3n": 2209,
  "\u2581U": 2210,
  "\u2581Juden": 2211,
  "\u2581b\u1ea3y": 2212,
  "\u2581d\u00e0ng": 2213,
  "\u2581jedem": 2214,
  "\u2581besten": 2215,
  "\u2581d\u00fcrfen": 2216,
  "iert": 2217,
  "\u00f6": 2218,
  "\u2581H\u1ee1i": 2219,
  "ing": 2220,
  "ter": 2221,
  "\u2581Engel": 2222,
  "\u2581Satan": 2223,
  "\u2581Kommen": 2224,
  "\u2581Christi": 2225,
  "\u2581gebracht": 2226,
  "\u2581Gesicht": 2227,
  "\u2581v\u1ebft": 2228,
  "\u2581b\u00e8": 2229,
  "\u2581ni\u1ec7m": 2230,
  "\u2581Platz": 2231,
  "\u2581ph\u00e1i": 2232,
  "\u2581b\u00f2": 2233,
  "\u2581Jahrhundert": 2234,
  "\u2581M\u1ed7i": 2235,
  "\u2581si": 2236,
  "\u2581t\u1ea1m": 2237,
  "\u2581alten": 2238,
  "\u2581Sorgen": 2239,
  "\u2581G\u00fcte": 2240,
  "\u2581Kerl": 2241,
  "\u2581h\u1ea1t": 2242,
  "\u2581v": 2243,
  "\u2581tr\u1eafng": 2244,
  "\u2581m\u1ebd": 2245,
  "\u2581000": 2246,
  "on": 2247,
  "\u2581ph\u1eadn": 2248,
  "\u2581Nationen": 2249,
  "\u258115.": 2250,
  "\u2581Israeliten": 2251,
  "ru": 2252,
  "\u2581fahren": 2253,
  "\u2581ti\u1ec7n": 2254,
  "\u2581R": 2255,
  "\u25816:": 2256,
  "\u2581th\u1eadp": 2257,
  "\u2581\u266b": 2258,
  "\u2581Ruhe": 2259,
  "\u2581Si": 2260,
  "\u2581Ch\u01b0a": 2261,
  "\u2581Ch\u1edd": 2262,
  "\u2581Religion": 2263,
  "\u2581Deine": 2264,
  "\u2581Johannes": 2265,
  "\u2581Ihrer": 2266,
  "\u2581Ca": 2267,
  "\u2581ni": 2268,
  "\u2581Artikel": 2269,
  "\u2581deshalb": 2270,
  "\u2581ngh\u00e8o": 2271,
  "\u2581kaum": 2272,
  "w": 2273,
  "\u2581qu\u00e0": 2274,
  "\"?": 2275,
  "\u2581D\u0129": 2276,
  "\u2581Einige": 2277,
  "\u2581Guten": 2278,
  "\u2581S\u00fcnde": 2279,
  "\u2581\u0111\u00e0ng": 2280,
  "\u2581sechs": 2281,
  "\u2581th\u1eeba": 2282,
  "\u2581Jeder": 2283,
  "\u2581Plan": 2284,
  "\u2581n": 2285,
  "\u2581ruhig": 2286,
  "\u2581ng\u1ee3i": 2287,
  "\u2581verr\u00fcckt": 2288,
  "\u2581Herrn": 2289,
  "\u2581s": 2290,
  "\u2581t\u00e1": 2291,
  "\u2581jedes": 2292,
  "\u2581Thay": 2293,
  "\u2581to\u00e1n": 2294,
  "\u2581l\u1ea1nh": 2295,
  "\u2581s\u1ed1t": 2296,
  "\u2581c": 2297,
  "\u2581th\u00ed": 2298,
  "\u2581Gef\u00fchl": 2299,
  "\u2581n\u1ed1i": 2300,
  "\u2581H\u01a1n": 2301,
  "\u2581fand": 2302,
  "\u2581Sieh": 2303,
  "\u2581erz\u00e4hlen": 2304,
  "\u2581xanh": 2305,
  "\u2581Weisheit": 2306,
  "\u2581\u1ee7ng": 2307,
  "\u2581khi\u00eam": 2308,
  "\u2581Wirklich": 2309,
  "\u2581sp\u00e4t": 2310,
  "\u2581nh\u1ee5c": 2311,
  "ern": 2312,
  "\u2581Worten": 2313,
  "\u2581Unsere": 2314,
  "\u2581b\u1ed9i": 2315,
  "\u2581Chance": 2316,
  "\u2581s\u00f4ng": 2317,
  "\u2581gi\u00e2y": 2318,
  "\u2581ph\u00f3ng": 2319,
  "\u2581K\u00f6nnen": 2320,
  "\u2581s\u00e1u": 2321,
  "\u2581\u0111\u1ecf": 2322,
  "\u2581Ch\u00fac": 2323,
  "\u2581W": 2324,
  "\u2581Sehr": 2325,
  "\u2581b\u1eadt": 2326,
  "\u2581weitere": 2327,
  "\u2581h\u1ea3o": 2328,
  "\u2581Ni": 2329,
  "\u2581Ben": 2330,
  "\u2581n\u00eau": 2331,
  "\u2581tragen": 2332,
  "\u2581mach": 2333,
  "\u2581Dieses": 2334,
  "\u2581M\u00e0": 2335,
  "\u2581Werk": 2336,
  "\u2581Canh": 2337,
  "\u2581c\u1eadn": 2338,
  "\u2581lem": 2339,
  "\u2581Kommt": 2340,
  "\u2581Th\u1ef1c": 2341,
  "\u2581d\u1ecb": 2342,
  "\u2581mu\u00df": 2343,
  "\u2581v\u1eadn": 2344,
  "\u2581\u1ee7i": 2345,
  "\u25813.": 2346,
  "\u2581B\u00e1c": 2347,
  "\u2581Schatz": 2348,
  "\u2581L\u1ea7n": 2349,
  "\u2581Soll": 2350,
  "\u2581Einen": 2351,
  "\u2581th\u1ec1": 2352,
  "\u2581Haupt": 2353,
  "\u2581M\u1ea5y": 2354,
  "\u2581eins": 2355,
  "\u2581\u0111\u1ea1n": 2356,
  "\u2581Moses": 2357,
  "\u2581Mom": 2358,
  "\u2581h\u00e3i": 2359,
  "\u2581Wunder": 2360,
  "\u2581gerne": 2361,
  "\u2581guter": 2362,
  "\u2581tuy\u00ean": 2363,
  "\u2581Dollar": 2364,
  "\u2581hilft": 2365,
  "\u2581Lassen": 2366,
  "\u2581genauso": 2367,
  "\u2581Lage": 2368,
  "\u2581Peter": 2369,
  "\u2581l\u00e4uft": 2370,
  "\u2581huy": 2371,
  "\u2581damals": 2372,
  "\u2581h\u00e0i": 2373,
  "\u2581Lu": 2374,
  "\u2581Niemand": 2375,
  "\u2581falsch": 2376,
  "%": 2377,
  "\u2581Ding": 2378,
  "\u2581L\u1ea1p": 2379,
  "\u2581anderer": 2380,
  "\u2581Wahl": 2381,
  "\u2581Anfang": 2382,
  "\u2581werdet": 2383,
  "\u2581lao": 2384,
  "\u2581Gef\u00e4ngnis": 2385,
  "\u2581Mose": 2386,
  "\u2581c\u1edb": 2387,
  "\u2581b\u00e0o": 2388,
  "\u2581c\u1eb7p": 2389,
  "\u2581ki\u1ebfp": 2390,
  "\u2581Ch\u00e2u": 2391,
  "\u2581b\u1eadn": 2392,
  "\u2581zehn": 2393,
  "\u2581tr\u00ec": 2394,
  "\u2581qu\u1ec9": 2395,
  "\u2581Schuld": 2396,
  "\u2581J": 2397,
  "\u2581Bilder": 2398,
  "\u2581gi\u1ea5u": 2399,
  "\u2581Stimme": 2400,
  "\u2581tr\u1ed9m": 2401,
  "n\u00f3": 2402,
  "\u2581huy\u1ec1n": 2403,
  "\u2581xuy\u00ean": 2404,
  "\u2581kh\u00e1m": 2405,
  "\u2581H\u00f4m": 2406,
  "\u2581m\u00f4i": 2407,
  "\u2581Zeiten": 2408,
  "\u2581Dass": 2409,
  "\u2581x\u1ee9ng": 2410,
  "\u2581Ho\u1eb7c": 2411,
  "\u2581nachdem": 2412,
  "\u2581The": 2413,
  "\u2581quy": 2414,
  "\u2581th\u1ee7y": 2415,
  "\u2581Woher": 2416,
  "\u2581K\u00fd": 2417,
  "\u2581Boden": 2418,
  "\u2581manchmal": 2419,
  "\u2581mau": 2420,
  "\u2581\u1ed5ng": 2421,
  "\u2581b\u1ed5": 2422,
  "\u2581Erkenntnis": 2423,
  "\u2581K\u1ef3": 2424,
  "\u2581stark": 2425,
  "\u2581nh\u01b0\u1eddng": 2426,
  "\u2581OK": 2427,
  "\u2581Th\u00ec": 2428,
  "\u2581ch\u1ee9a": 2429,
  "\u2581danach": 2430,
  "\u2581gedacht": 2431,
  "\u2581setzen": 2432,
  "\u2581Gi\u1ed1ng": 2433,
  "\u2581Th\u00e1p": 2434,
  "\u2581allerdings": 2435,
  "\u2581Bett": 2436,
  "\u258119": 2437,
  "\u2581tr\u01b0ng": 2438,
  "\u2581d\u1ecda": 2439,
  "\u2581f\u00fchrt": 2440,
  "\u2581h\u00f9ng": 2441,
  "\u2581t\u00f3c": 2442,
  "\u2581Waffe": 2443,
  "\u2581tu": 2444,
  "\u2581Menschheit": 2445,
  "\u2581siehst": 2446,
  "\u2581brachte": 2447,
  "\u2581l\u00ed": 2448,
  "\u2581of": 2449,
  "\u2581Re": 2450,
  "\u2581\u00e4ndern": 2451,
  "\u2581direkt": 2452,
  "\u2581Waffen": 2453,
  "\u2581Gold": 2454,
  "\u2581Ban": 2455,
  "\u2581tr\u1ea5n": 2456,
  "\u2581schlecht": 2457,
  "\u2581hoang": 2458,
  "\u2581K\u1ebb": 2459,
  "\u2581Michael": 2460,
  "\u2581nehme": 2461,
  "\u2581c\u00e0": 2462,
  "\u2581s\u0103n": 2463,
  "\u2581th\u01a1": 2464,
  "\u2581th\u1ea3": 2465,
  "\u2581d\u00e1m": 2466,
  "\u2581erinnern": 2467,
  "\u2581\u0111\u01b0\u01a1": 2468,
  "\u2581Kampf": 2469,
  "\u2581huy\u1ebft": 2470,
  "ab": 2471,
  "\u2581deutlich": 2472,
  "\u2581genommen": 2473,
  "\u2581keiner": 2474,
  "\u0110\u1ee9c": 2475,
  "\u2581Zwei": 2476,
  "\u2581geschehen": 2477,
  "\u2581nh\u1eadt": 2478,
  "\u2581Wann": 2479,
  "\u2581T\u1ed5ng": 2480,
  "\u2581th\u1edf": 2481,
  "\u2581Rolle": 2482,
  "\u2581erkl\u00e4rte": 2483,
  "\u2581B\u00ecnh": 2484,
  "\u2581Al": 2485,
  "\u2581Alter": 2486,
  "ein": 2487,
  "\u2581hoffe": 2488,
  "\u2581\u0111\u00e0o": 2489,
  "\u2581Gehen": 2490,
  "\u2581Siehe": 2491,
  "\u2581Sein": 2492,
  "\u2581\u0111am": 2493,
  "\u2581h\u1ed9p": 2494,
  "\u2581B\u1ecf": 2495,
  "\u2581Ah": 2496,
  "\u2581s\u00e1nh": 2497,
  "\u2581Sachen": 2498,
  "\u2581m\u00e3": 2499,
  "\u2581finde": 2500,
  "\u2581ent": 2501,
  "s\u1ef1": 2502,
  "\u2581lass": 2503,
  "\u2581r\u00f4": 2504,
  "t\u00f4i": 2505,
  "\u2581t\u1eaft": 2506,
  "\u2581Sch": 2507,
  "W": 2508,
  "\u2581k": 2509,
  "\u2581nhi\u1ec7t": 2510,
  "\u2581S\u1ee9": 2511,
  "\u2581tr\u1ed3ng": 2512,
  "\u2581Tr\u00e1i": 2513,
  "\u2581f\u00fchlen": 2514,
  "igen": 2515,
  "\u2581Sprache": 2516,
  "l\u00e0": 2517,
  "ner": 2518,
  "\u2581n\u1eafm": 2519,
  "\u2581Wagen": 2520,
  "\u2581B\u1ea3n": 2521,
  "\u2581w\u00fcrdest": 2522,
  "\u2581scheint": 2523,
  "\u2581l\u1eb7ng": 2524,
  "\u2581m\u00e0n": 2525,
  "\u2581wann": 2526,
  "\u2581ch\u1ea3": 2527,
  "\u2581Th\u1eb1ng": 2528,
  "\u2581Vaters": 2529,
  "\u2581Ehre": 2530,
  "\u2581Unser": 2531,
  "\u2581chi\u1ebfu": 2532,
  "\u2581h\u00f6rte": 2533,
  "\u2581\u0111\u1eb1ng": 2534,
  "\u2581geschrieben": 2535,
  "\u2581N\u00e0o": 2536,
  "\u2581n\u00e4mlich": 2537,
  "\u2581wahre": 2538,
  "\u2581dagegen": 2539,
  "\u2581gefallen": 2540,
  "\u2581eher": 2541,
  "\u2581d\u1ecdn": 2542,
  "\u2581Zimmer": 2543,
  "\u2581au\u00dfer": 2544,
  "\u2581Willen": 2545,
  "\u2581James": 2546,
  "\u2581ch\u1edf": 2547,
  "\u2581erkl\u00e4rt": 2548,
  "\u2581r\u1eafc": 2549,
  "\u2581M\u1eb7c": 2550,
  "\u2581b\u1ea7u": 2551,
  "\u2581x\u00f3t": 2552,
  "\u2581\u00fcberall": 2553,
  "ja": 2554,
  "\u2581g\u1ed1c": 2555,
  "\u2581t\u1ed5n": 2556,
  "\u2581\u00e1m": 2557,
  "\u2581r\u1eebng": 2558,
  "\u2581Gesellschaft": 2559,
  "\u2581R\u00f5": 2560,
  "\u2581Cu\u1ed1i": 2561,
  "\u2581Th\u1ea7n": 2562,
  "\u2581D\u1eebng": 2563,
  "\u2581ch\u1eb7t": 2564,
  "\u2581kh\u1ea9u": 2565,
  "\u2581holen": 2566,
  "\u2581d\u00e2m": 2567,
  "ca": 2568,
  "\u2581Jo": 2569,
  "\u2581t\u00fai": 2570,
  "\u2581Informationen": 2571,
  "\u2581Sehen": 2572,
  "\u2581vertrauen": 2573,
  "\u2581Daniel": 2574,
  "\u2581T\u00ecnh": 2575,
  "\u2581sieben": 2576,
  "\u2581d\u1ee9t": 2577,
  "\u2581s\u00e2n": 2578,
  "\u2581gen": 2579,
  "\u2581Entscheidung": 2580,
  "\u2581Coi": 2581,
  "\u2581Priester": 2582,
  "\u2581ng\u1eebng": 2583,
  "\u2581Stunde": 2584,
  "\u2581erkl\u00e4ren": 2585,
  "\u2581System": 2586,
  "\u2581n\u1ed7": 2587,
  "\u2581Vielen": 2588,
  "\u2581Zeichen": 2589,
  "\u2581Ph\u00f2ng": 2590,
  "\u2581begann": 2591,
  "\u2581Raum": 2592,
  "\u2581x\u01b0ng": 2593,
  "\u2581Un": 2594,
  "\u2581\u0111e": 2595,
  "\u2581toll": 2596,
  "\u2581Adam": 2597,
  "\u2581Spa\u00df": 2598,
  "\u2581geh": 2599,
  "\u25814.": 2600,
  "ba": 2601,
  "\u2581Situation": 2602,
  "\u2581n\u1ee3": 2603,
  "\u2581c\u1ea3n": 2604,
  "\u2581t\u1ed3i": 2605,
  "\u2581Meinung": 2606,
  "\u2581h\u00e4lt": 2607,
  "\u2581schlie\u00dflich": 2608,
  "\u2581Tr\u00ean": 2609,
  "ia": 2610,
  "\u2581zuerst": 2611,
  "\u0111a": 2612,
  "\u2581herum": 2613,
  "\u2581verlieren": 2614,
  "\u2581li\u1ec7t": 2615,
  "\u2581Tempel": 2616,
  "2": 2617,
  "\u2581Wochen": 2618,
  "\u2581ihres": 2619,
  "ke": 2620,
  "\u2581hung": 2621,
  "\u2581h\u1ee9ng": 2622,
  "\u2581sagten": 2623,
  "\u2581Ko": 2624,
  "\u2581besteht": 2625,
  "\u2581Ihrem": 2626,
  "\u2581Typ": 2627,
  "!\"": 2628,
  "\u2581Denken": 2629,
  "\u2581sowie": 2630,
  "U": 2631,
  "\u2581Nam": 2632,
  "\u2581ch\u1ea5m": 2633,
  "3": 2634,
  "\u2581gi\u00f3": 2635,
  "\u2581fr\u00fcher": 2636,
  "\u2581Fleisch": 2637,
  "\u2581M\u00e3": 2638,
  "\u2581findet": 2639,
  "\u2581nennen": 2640,
  "\u2581th\u1ea3y": 2641,
  "\u2581wahren": 2642,
  "\u2581k\u00e4mpfen": 2643,
  "Anh": 2644,
  "\u2581X": 2645,
  "\u2581Gebet": 2646,
  "\u2581th\u01b0\u1ee3ng": 2647,
  "\u2581B\u1ed9": 2648,
  "\u2581irgendwie": 2649,
  "\u2581V": 2650,
  "\u2581tue": 2651,
  "\u2581nahe": 2652,
  "\u2581Schwert": 2653,
  "\u2581st\u00e4ndig": 2654,
  "\u2581ch\u00e9p": 2655,
  "\u2581Prozent": 2656,
  "\u2581weder": 2657,
  "\u2581ng\u01b0\u01a1": 2658,
  "\u2581\u0111\u00e8n": 2659,
  "\u2581D\u00e2n": 2660,
  "\u2581euer": 2661,
  "\u2581Mund": 2662,
  "\u2581Oliver": 2663,
  "\u2581t\u1ee5i": 2664,
  "\u2581\u0111\u1eadp": 2665,
  "\u2581M\u00ea": 2666,
  "\u2581ch\u1ea3y": 2667,
  "\u2581B\u1ea5t": 2668,
  "\u2581blo\u00df": 2669,
  "\u2581Hab": 2670,
  "\u2581erwartet": 2671,
  "ur": 2672,
  "\u2581ch\u1ea1m": 2673,
  "\u2581bang": 2674,
  "Das": 2675,
  "ul": 2676,
  "\u2581S\u00e1ng": 2677,
  "\u2581sag": 2678,
  "\u2581mi\u1ec5n": 2679,
  "\u2581di\u1ec7u": 2680,
  "\u2581eigene": 2681,
  "\u2581Nimm": 2682,
  "\u2581Vertrauen": 2683,
  "\u2581drauf": 2684,
  "\u2581St": 2685,
  "\u2581Ti": 2686,
  "\u2581T\u1ed1i": 2687,
  "\u2581Cu\u1ed9c": 2688,
  "\u2581l\u01a1": 2689,
  "\u2581Arsch": 2690,
  "\u2581gi\u1ea5c": 2691,
  "\u2581Darum": 2692,
  "\u2581ng\u1eafn": 2693,
  "\u2581funktioniert": 2694,
  "\u2581m\u01b0u": 2695,
  "\u2581T\u1ea1o": 2696,
  "\u2581nhi\u1ec5m": 2697,
  "\u2581th\u1ea3m": 2698,
  "ige": 2699,
  "\u2581Schl\u00fcssel": 2700,
  "\u2581B\u1eaft": 2701,
  "\u2581ebenfalls": 2702,
  "\u2581starb": 2703,
  "\u2581Tu": 2704,
  "\u2581hinaus": 2705,
  "\u2581ngang": 2706,
  "da": 2707,
  "\u2581k\u00ea": 2708,
  "\u2581Seit": 2709,
  "\u2581h\u00e0o": 2710,
  "\u2581ph\u1ed1i": 2711,
  "\u2581welcher": 2712,
  "\u25815.": 2713,
  "\u2581Verdammt": 2714,
  "\u2581George": 2715,
  "\u2581sagst": 2716,
  "\u2581ch\u0103n": 2717,
  "\u2581Tr\u00f4": 2718,
  "\u2581Tom": 2719,
  "\u2581say": 2720,
  "\u2581R\u00f4": 2721,
  "\u2581Sagen": 2722,
  "\u2581n\u00f4": 2723,
  "\u2581Familien": 2724,
  "\u2581h\u00f6rt": 2725,
  "\u2581song": 2726,
  "\u2581h\u1ea5p": 2727,
  "\u2581v\u1ebd": 2728,
  "),": 2729,
  "\u2581lebt": 2730,
  "\u2581m\u1ec7nh": 2731,
  "\u2581h\u1ed5": 2732,
  "\u2581geh\u00f6ren": 2733,
  "\u2581Alex": 2734,
  "\u2581gi\u01b0\u1eddng": 2735,
  "\u2581gebe": 2736,
  "\u2581Mi": 2737,
  "\u2581Auge": 2738,
  "\u2581ch\u1eadm": 2739,
  "\u2581ng\u1ea1i": 2740,
  "\u2581Wert": 2741,
  "mal": 2742,
  "\u2581Mu\u1ed1n": 2743,
  "\u2581gh\u00ea": 2744,
  "\u2581ch\u1ec9nh": 2745,
  "\u2581d\u00ednh": 2746,
  "\u2581Abraham": 2747,
  "\u2581Meer": 2748,
  "\u2581ch\u00f3ng": 2749,
  "\u2581t\u1ed1c": 2750,
  "is": 2751,
  "\u2581h\u1eb1ng": 2752,
  "\u201e": 2753,
  "\u2581ng\u00e3": 2754,
  "\u2581bi": 2755,
  "\u2581vorstellen": 2756,
  "\u2581Regierung": 2757,
  "\u2581meinst": 2758,
  "\u2581m\u1ec7t": 2759,
  "\u2581n\u00f6tig": 2760,
  "\u2581t\u1ea7ng": 2761,
  "\u2581qu\u00ed": 2762,
  "\u2581Schei\u00df": 2763,
  "\u2581endlich": 2764,
  "\u2581\u0111i\u1ec3n": 2765,
  "und": 2766,
  "Was": 2767,
  "\u2581Ch\u00e2m": 2768,
  "\u2581C\u00e1ch": 2769,
  "\u2581v\u0129": 2770,
  "\u258160": 2771,
  "\u2581\u0110\u1ecdc": 2772,
  "\u2581junge": 2773,
  "\u2581ch\u1ee5p": 2774,
  "\u2581fort": 2775,
  "\u2581Eure": 2776,
  "\u2581Juda": 2777,
  "\u2581s\u00f4": 2778,
  "\u2581nh\u1eb9": 2779,
  "\u2581v\u01b0\u1eddn": 2780,
  "\u2581Li\u00ean": 2781,
  "\u2581ch\u00e1n": 2782,
  "\u2581x": 2783,
  "\u2581c\u00e2n": 2784,
  "\u2581weiterhin": 2785,
  "\u2581trao": 2786,
  "\u2581Stelle": 2787,
  "bar": 2788,
  "\u2581L\u1ec5": 2789,
  "il": 2790,
  "\u2581eben": 2791,
  "\u2581tust": 2792,
  "\u2581unseres": 2793,
  "isch": 2794,
  "\u2581chi\u1ebfm": 2795,
  "\u2581Text": 2796,
  "\u2581beste": 2797,
  "\u2581ehrlich": 2798,
  "\u2581geboren": 2799,
  "\u2581\u0110\u1ed3": 2800,
  "\u2581Anbetung": 2801,
  "\u2581neu": 2802,
  "\u2581n\u00e4her": 2803,
  "\u2581Leuten": 2804,
  "\u2581c\u00e3i": 2805,
  "\u2581obwohl": 2806,
  "\u25aa": 2807,
  "\u2581Miss": 2808,
  "\u2581hi\u1ec7p": 2809,
  "\u2581erreichen": 2810,
  "\u2581Internet": 2811,
  "\u2581Toten": 2812,
  "\u2581v\u1ee1": 2813,
  "\u2581fallen": 2814,
  "\u2581thu\u00ea": 2815,
  "\u2581krank": 2816,
  "\u2581interessiert": 2817,
  "\u2581schreiben": 2818,
  "\u2581Gruppe": 2819,
  "\u2581m\u00f6gen": 2820,
  "un": 2821,
  "\u2581Kirche": 2822,
  "\u2581ti\u1ec3u": 2823,
  "ie": 2824,
  "\u2581gro\u00dfer": 2825,
  "\u2581voller": 2826,
  "\u2581Gefahr": 2827,
  "\u2581zuvor": 2828,
  "\u2581Sorge": 2829,
  "\u2581Einstellung": 2830,
  "\u2581B\u00fcro": 2831,
  "\u2581mi\u00eau": 2832,
  "son": 2833,
  "\u2581denkt": 2834,
  "\u2581Nation": 2835,
  "\u2581Stra\u00dfe": 2836,
  "\u2581H\u00f6lle": 2837,
  "ton": 2838,
  "\u2581T\u1ea1m": 2839,
  "\u2581Maria": 2840,
  "\u2581Verh\u00e4ltnis": 2841,
  "\u2581geistige": 2842,
  "\u2581Entschuldigung": 2843,
  "th": 2844,
  "\u2581trinken": 2845,
  "\u2581statt": 2846,
  "\u2581h\u01b0\u01a1ng": 2847,
  "\u2581th\u1ea5p": 2848,
  "\u2581bi\u00ea": 2849,
  "\u2581bitten": 2850,
  "\u2581v\u01a1": 2851,
  "\u2581wider": 2852,
  "1": 2853,
  "ster": 2854,
  "\u258126": 2855,
  "\u2581S\u00f6hne": 2856,
  "\u2581fragte": 2857,
  "\u2581Aufgabe": 2858,
  "\u2581than": 2859,
  "\u2581liebt": 2860,
  "\u2581Bericht": 2861,
  "\u2581si\u00eau": 2862,
  "\u2581St\u00fcck": 2863,
  "\u2581gesprochen": 2864,
  "vi": 2865,
  "\u2581Th\u1ea5y": 2866,
  "\u2581kh\u1ee9": 2867,
  "\u2581alte": 2868,
  "\u2581l\u01b0ng": 2869,
  "\u2581solchen": 2870,
  "\u2581Gi\u00f3p": 2871,
  "\u2581Wow": 2872,
  "\u2581\u0110\u1ed1i": 2873,
  "\u2581Form": 2874,
  "\u2581Mama": 2875,
  "\u2581Freundin": 2876,
  "\u2581Manche": 2877,
  "\u2581Propheten": 2878,
  "\u2581acht": 2879,
  "\u2581qu\u1ef7": 2880,
  "\u2581h\u00e0m": 2881,
  "\u2581gef\u00e4llt": 2882,
  "\u2581Dort": 2883,
  "\u2581Pha": 2884,
  "\u2581truy": 2885,
  "\u2581nimmt": 2886,
  "\u2581v\u00e2": 2887,
  "\u2581h\u1ecfng": 2888,
  "\u2581beten": 2889,
  "\u2581the": 2890,
  "\u2581Fenster": 2891,
  "\u2581Nh\u1edd": 2892,
  "\u2581Sei": 2893,
  "\u2581gutes": 2894,
  "\u2581kim": 2895,
  "\u2581n\u00e4chste": 2896,
  "\u2581schlafen": 2897,
  "\u2581nh\u1eb1m": 2898,
  "\u2581l\u00e0ng": 2899,
  "\u2581Jim": 2900,
  "\u2581hu\u1ea5n": 2901,
  "\u2581h\u1ed7": 2902,
  "\u2581gerettet": 2903,
  "\u2581ng\u1ee5c": 2904,
  "\u2581gem\u00e4\u00df": 2905,
  "\u2581Schiff": 2906,
  "\u2581c\u1ee9ng": 2907,
  "Ch\u00fang": 2908,
  "\u2581qu\u00e1n": 2909,
  "\u2581n\u00e9m": 2910,
  "\u2581Zahl": 2911,
  "\u2581soi": 2912,
  "\u258122": 2913,
  "\u2581Bedeutung": 2914,
  "\u2581Organisation": 2915,
  "\u2581Monate": 2916,
  "\u2581N\u01a1i": 2917,
  "\u2581Jungen": 2918,
  "\u2581Sonne": 2919,
  "\u2581Rest": 2920,
  "\u2581bom": 2921,
  "\u2581t\u00e2y": 2922,
  "\u2581Gewalt": 2923,
  "\u2581Th\u1eddi": 2924,
  "\u2581Ausdruck": 2925,
  "\u2581Musik": 2926,
  "\u2581\u00d0a": 2927,
  "\u2581\u0110\u00e1": 2928,
  "\u2581einigen": 2929,
  "\u2581gelernt": 2930,
  "\u2581kho\u1ea3n": 2931,
  "\u2581k\u00e9m": 2932,
  "\u2581\u0111\u1ed1ng": 2933,
  "\u2581Daher": 2934,
  "\u2581m\u00f9i": 2935,
  "\u2581geistigen": 2936,
  "\u2581%": 2937,
  "\u258121": 2938,
  "\u2581gehst": 2939,
  "\u2581kommst": 2940,
  "\u2581bewusst": 2941,
  "\u2581fr\u00fch": 2942,
  "\u2581verstanden": 2943,
  "\u2581hielt": 2944,
  "\u2581Khoan": 2945,
  "\u2581genannt": 2946,
  "\u2581giam": 2947,
  "\u2581Mary": 2948,
  "\u2581h\u00e4ttest": 2949,
  "\u00df": 2950,
  "\u2581langsam": 2951,
  "or": 2952,
  "\u2581laufen": 2953,
  "\u2581Gelegenheit": 2954,
  "\u2581gingen": 2955,
  "\u2581Joseph": 2956,
  "\u2581thang": 2957,
  "\u2581\u0111\u1edbn": 2958,
  "\u2581Schutz": 2959,
  "\u2581\u0111\u1ed1t": 2960,
  "\u2581l\u1ed7": 2961,
  "\u2581t\u00fac": 2962,
  "\u2581B\u00ea": 2963,
  "ungen": 2964,
  "\u2581t\u1eb7ng": 2965,
  "land": 2966,
  "\u2581T\u00ecm": 2967,
  "\u2581ng\u00e2n": 2968,
  "do": 2969,
  "\u2581de": 2970,
  "\u2581g\u1eafn": 2971,
  "\u2581Team": 2972,
  "\u2581Rede": 2973,
  "\u2581W\u00fcrde": 2974,
  "\u2581ngh\u1ec1": 2975,
  "\u2581liegen": 2976,
  "\u2581v\u1eb9n": 2977,
  "\u2581Mut": 2978,
  "\u2581offen": 2979,
  "\u2581Ho\u00e0ng": 2980,
  "\u2581H\u00f6ren": 2981,
  "\u25818.": 2982,
  "\u2581b\u1eadc": 2983,
  "\u2581kennt": 2984,
  "\u2581kleiner": 2985,
  "\u2581t\u1eafm": 2986,
  "\u258127": 2987,
  "\u2581m\u01b0\u01a1i": 2988,
  "\u2581Rachel": 2989,
  "\u2581f\u00e4llt": 2990,
  "\u2581folgen": 2991,
  "\u2581Kh\u1ea3i": 2992,
  "\u2581ch\u00e1y": 2993,
  "\u2581g\u00e1nh": 2994,
  "\u2581M\u00f6glichkeit": 2995,
  "\u2581ch\u00fac": 2996,
  "Es": 2997,
  "Ti\u1ebfng": 2998,
  "\u2581denkst": 2999,
  "ische": 3000,
  "\u2581Gehirn": 3001,
  "\u2581Israels": 3002,
  "auf": 3003,
  "\u2581K\u00f6nigs": 3004,
  "\u2581l\u00e4nger": 3005,
  "\u2581sorgen": 3006,
  "\u2581b\u1ea3ng": 3007,
  "\u2581k\u1ecbch": 3008,
  "\u2581Thema": 3009,
  "\u2581Qu\u1ea3": 3010,
  "\u2581\u0111\u00e2": 3011,
  "\u2581Klar": 3012,
  "\u2581rinh": 3013,
  "\u2581Ross": 3014,
  "\u2581C\u1ea3nh": 3015,
  "\u2581K\u1ebft": 3016,
  "\u2581Meister": 3017,
  "\u2581ch\u1eb7n": 3018,
  "\u2581reicht": 3019,
  "\u2581Dingen": 3020,
  "\u2581Freiheit": 3021,
  "\u2581th\u00e2": 3022,
  "\u2581Druck": 3023,
  "os": 3024,
  "\u2581\u00ea": 3025,
  "\u2581Glaube": 3026,
  "\u2581nh\u1eafn": 3027,
  "\u2581l": 3028,
  "\u2581\u0110\u00f4i": 3029,
  "\u258133": 3030,
  "\u2581diejenigen": 3031,
  "\u2581ho\u1ea1i": 3032,
  "\u2581khi\u1ebfp": 3033,
  "\u2581f\u00fchrte": 3034,
  "\u2581giai": 3035,
  "\u2581Interesse": 3036,
  "\u2581\u0110ang": 3037,
  "\u2581Wein": 3038,
  "\u2581c\u0103ng": 3039,
  "\u2581B\u1ea3o": 3040,
  "\u2581b\u1edd": 3041,
  "\u2581S\u00fcnden": 3042,
  "\u2581verdammt": 3043,
  "\u2581kriegen": 3044,
  "\u2581Predigtdienst": 3045,
  "\u2581b\u00f6se": 3046,
  "\u2581m\u00e3n": 3047,
  "\u258170": 3048,
  "\u2581canh": 3049,
  "\u2581c\u01b0ng": 3050,
  "\u2581n\u00f4ng": 3051,
  "\u2581Sch\u00f6n": 3052,
  "\u2581jemals": 3053,
  "gen": 3054,
  "\u2581xinh": 3055,
  "\u2581k\u00f6nnt": 3056,
  "\u2581pro": 3057,
  "\u2581Quan": 3058,
  "ha": 3059,
  "\u2581t\u00e1n": 3060,
  "\u2581Natur": 3061,
  "\u2581deines": 3062,
  "trai": 3063,
  "\u2581Claire": 3064,
  "\u2581Lehrer": 3065,
  "\u2581Gebiet": 3066,
  "\u2581ng\u1ecdn": 3067,
  "Y": 3068,
  "\u2581verletzt": 3069,
  "\u2581t\u00e1i": 3070,
  "\u2581hi": 3071,
  "\u2581\u1ea5m": 3072,
  "\u2581Bi\u1ebft": 3073,
  "\u2581c\u1ea5m": 3074,
  "\u0110\u1ee9ng": 3075,
  "\u2581Tr\u00e1nh": 3076,
  "\u2581Bewegung": 3077,
  "\u2581Falls": 3078,
  "\u2581Mike": 3079,
  "\u2581treu": 3080,
  "Gel\u00e4chter": 3081,
  "\u2581Hinsicht": 3082,
  "\u2581\u1ed1ng": 3083,
  "\u2581getroffen": 3084,
  "\u2581Arzt": 3085,
  "\u2581m": 3086,
  "\u2581noi": 3087,
  "\u2581Jemand": 3088,
  "\u2581c\u1edd": 3089,
  "\u2581Euer": 3090,
  "\u2581alter": 3091,
  "\u2581Brief": 3092,
  "\u2581B\u1eafc": 3093,
  "\u2581Ti\u1ebfp": 3094,
  "\u2581gestorben": 3095,
  "\u2581ph\u1ee9c": 3096,
  "\u2581L\u00e4ndern": 3097,
  "heit": 3098,
  "\u2581t\u1ea3i": 3099,
  "\u2581n\u00e2ng": 3100,
  "\u2581offensichtlich": 3101,
  "\u2581hierher": 3102,
  "\u2581nett": 3103,
  "Kh\u00f4ng": 3104,
  "ko": 3105,
  "bi": 3106,
  "ler": 3107,
  "\u2581\u0111\u00e0i": 3108,
  "\u2581g\u1ea5p": 3109,
  "\u2581Gef\u00fchle": 3110,
  "\u2581jungen": 3111,
  "\u2581miteinander": 3112,
  "\u2581thai": 3113,
  "\u2581t\u00ed": 3114,
  "\u25817.": 3115,
  "\u2581warte": 3116,
  "\u258112:": 3117,
  "\u2581Nh\u1eadt": 3118,
  "\u2581handeln": 3119,
  "\u2581Nummer": 3120,
  "\u2581sitzen": 3121,
  "\u2581m\u00ec": 3122,
  "\u2581unbedingt": 3123,
  "\u2581\u0110\u1ee3i": 3124,
  "\u258128": 3125,
  "\u2581th\u1ee3": 3126,
  "\u2581Nachricht": 3127,
  "\u2581\u00c4ltesten": 3128,
  "\u2581b\u1ec1": 3129,
  "\u2581W\u00e4hrend": 3130,
  "\u2581De": 3131,
  "\u2581Richtung": 3132,
  "\u2581Tat": 3133,
  "\u2581Verhalten": 3134,
  "\u2581d\u1ecbp": 3135,
  "kh\u00f4ng": 3136,
  "\u2581Wohnung": 3137,
  "\u258110.": 3138,
  "\u2581hinein": 3139,
  "\u2581stellte": 3140,
  "\u2581\u1ea4n": 3141,
  "\u2581gleichen": 3142,
  "\u2581wert": 3143,
  "\u2581200": 3144,
  "\u2581Bin": 3145,
  "\u2581N\u00e4he": 3146,
  "\u2581dahin": 3147,
  "\u2581s\u00f3ng": 3148,
  "h\u1eafc": 3149,
  "\u2581seien": 3150,
  "\u2581doanh": 3151,
  "\u25813,": 3152,
  "\u2581tr\u00f9ng": 3153,
  "\u2581Blick": 3154,
  "\u2581Partner": 3155,
  "\u2581th\u0103ng": 3156,
  "\u2581by": 3157,
  "EN": 3158,
  "\u2581n\u00e1t": 3159,
  "\u2581Reise": 3160,
  "\u2581stellt": 3161,
  "ar": 3162,
  "ve": 3163,
  "\u2581Lies": 3164,
  "\u2581welchen": 3165,
  "\u2581Telefon": 3166,
  "\u2581nh\u1ea5n": 3167,
  "\u2581Ohne": 3168,
  "\u2581l\u0129nh": 3169,
  "\u2581nieder": 3170,
  "\u2581\u0110\u00f4ng": 3171,
  "\u2581Paris": 3172,
  "\u2581passieren": 3173,
  "\u2581Fu\u00df": 3174,
  "\u2581l\u00f4n": 3175,
  "\u2581n\u00e8": 3176,
  "\u2581dankbar": 3177,
  "\u2581erwarten": 3178,
  "\u2581gi\u01a1": 3179,
  "\u2581Wollen": 3180,
  "\u2581H\u00f3a": 3181,
  "\u2581mu\u00f4n": 3182,
  "\u2581gestern": 3183,
  "\u2581\u0110\u1ed3ng": 3184,
  "ni": 3185,
  "\u2581Lehren": 3186,
  "\u2581Th\u00e0nh": 3187,
  "\u25816.": 3188,
  "\u2581Schritt": 3189,
  "\u2581Auferstehung": 3190,
  "\u2581T\u1edbi": 3191,
  "\u2581gegangen": 3192,
  "\u2581x\u01b0\u01a1ng": 3193,
  "\u2581hart": 3194,
  "\u2581mu\u1ed9n": 3195,
  "\u2581\u00e9p": 3196,
  "\u2581kleines": 3197,
  "\u2581Joe": 3198,
  "\u2581V\u1eabn": 3199,
  "\u2581tief": 3200,
  "\u2581Berg": 3201,
  "\u2581t\u1eadt": 3202,
  "\u2581zog": 3203,
  "\u2581m\u00f9": 3204,
  "\u2581gefragt": 3205,
  "\u2581\u00fcberzeugt": 3206,
  "ka": 3207,
  "\u2581C\u01a1": 3208,
  "\u2581\u0111ua": 3209,
  "\u2581Schriften": 3210,
  "tin": 3211,
  "\u2581gewinnen": 3212,
  "ben": 3213,
  "\u2581d\u00edp": 3214,
  "aus": 3215,
  "di": 3216,
  "\u258123": 3217,
  "\u2581vorher": 3218,
  "\u2581ward": 3219,
  "\u2581m\u01b0a": 3220,
  "\u2581h\u1ed1i": 3221,
  "\u2581\u0111\u1ebf": 3222,
  "\u2581m\u1ea1ch": 3223,
  "\u2581J\u00easus": 3224,
  "\u2581richtige": 3225,
  "\u2581Chi\u1ebfn": 3226,
  "\u2581froh": 3227,
  "\u2581\u00d0\u1ea5ng": 3228,
  "\u2581v\u1ed1n": 3229,
  "\u2581geschafft": 3230,
  "\u2581thi\u1ec7u": 3231,
  "\u2581L\u1ea5y": 3232,
  "\u2581m\u0169i": 3233,
  "\u2581Nga": 3234,
  "\u2581gh\u1ebf": 3235,
  "\u2581b\u1eafc": 3236,
  "\u2581t\u1ec9": 3237,
  "\u2581h\u1ea7m": 3238,
  "\u2581Manchmal": 3239,
  "\u2581m\u1ed9": 3240,
  "\u2581handelt": 3241,
  "\u2581Traum": 3242,
  "\u2581b\u1ea7y": 3243,
  "\u2581lan": 3244,
  "\u2581verdient": 3245,
  "\u2581Nachdem": 3246,
  "Wir": 3247,
  "\u2581t\u01b0\u1edbng": 3248,
  "\u2581welchem": 3249,
  "\u2581Tier": 3250,
  "Er": 3251,
  "ng\u01b0\u1eddi": 3252,
  "\u2581Joey": 3253,
  "\u2581ch\u00e2u": 3254,
  "\u2581Paradies": 3255,
  "\u2581gr\u00f6\u00dfte": 3256,
  "\u2581sch": 3257,
  "\u2581c\u00e2": 3258,
  "\u2581d\u01b0\u01a1ng": 3259,
  "\u2581Verantwortung": 3260,
  "as": 3261,
  "\u2581Punkt": 3262,
  "\u2581\u0111\u0103ng": 3263,
  "\u2581B\u00ean": 3264,
  "\u2581ewig": 3265,
  "\u2581r\u0103n": 3266,
  "\u2581Darf": 3267,
  "\u2581t\u01a1": 3268,
  "\u2581Ph\u1ea7n": 3269,
  "\u2581C\u1ee9u": 3270,
  "\u2581chu\u1ed9t": 3271,
  "\u2581Krankenhaus": 3272,
  "\u2581Lauf": 3273,
  "\u2581hie\u00df": 3274,
  "\u2581li\u1ec1n": 3275,
  "\u2581weh": 3276,
  "\u2581Gericht": 3277,
  "\u2581Gemeinschaft": 3278,
  "\u2581K\u1ec3": 3279,
  "\u2581christlichen": 3280,
  "\u2581\u00cdt": 3281,
  "si": 3282,
  "\u2581Erfolg": 3283,
  "\u2581c\u1ea5u": 3284,
  "\u2581trotzdem": 3285,
  "\u2581entfernt": 3286,
  "\u2581gi\u1ecdng": 3287,
  "\u2581Mehr": 3288,
  "\u2581Schwestern": 3289,
  "\u2581g": 3290,
  "\u2581sprachen": 3291,
  "\u2581jemandem": 3292,
  "\u2581Geben": 3293,
  "\u2581Nutzen": 3294,
  "\u2581\u00f4n": 3295,
  "\u2581Brot": 3296,
  "\u2581th\u1ea9m": 3297,
  "\u2581Computer": 3298,
  "\u2581Sara": 3299,
  "\u2581S\u1ed1": 3300,
  "\u2581\u0111eo": 3301,
  "\u2581Wird": 3302,
  "\u2581tr\u1ec5": 3303,
  "\u2581phi\u00ean": 3304,
  "\u2581Kapitel": 3305,
  "\u2581m\u1ea3nh": 3306,
  "\u2581sowohl": 3307,
  "\u2581Drei": 3308,
  "\u2581Wunsch": 3309,
  "\u2581l\u1ee5c": 3310,
  "\u2581geschickt": 3311,
  "\u2581zeigte": 3312,
  "\u2581Gi\u1eef": 3313,
  "\u2581Geschenk": 3314,
  "\u2581Stein": 3315,
  "\u2581ch\u00ea": 3316,
  "\u2581m\u1ec1m": 3317,
  "Wenn": 3318,
  "\u2581kho": 3319,
  "\u2581\u0111\u1ed1c": 3320,
  "\u258112.": 3321,
  "\u2581daraus": 3322,
  "\u2581tr\u1ed1ng": 3323,
  "\u2581N\u00f4": 3324,
  "\u2581christliche": 3325,
  "\u2581h\u00f6r": 3326,
  "\u2581pl\u00f6tzlich": 3327,
  "\u2581\u00d4": 3328,
  "\u2581kaufen": 3329,
  "\u258111.": 3330,
  "\u2581bewegen": 3331,
  "\u2581Th\u1ea7y": 3332,
  "\u2581Erfahrung": 3333,
  "\u2581Wegen": 3334,
  "\u2581c\u1ee5c": 3335,
  "\u2581r\u1eeda": 3336,
  "\u2581k\u00edn": 3337,
  "\u2581s\u1eafng": 3338,
  "\u2581Eigenschaften": 3339,
  "\u2581mi\u1ec1n": 3340,
  "ze": 3341,
  "\u2581entscheiden": 3342,
  "\u2581heutigen": 3343,
  "\u2581b\u1ec1n": 3344,
  "\u2581\u00c2u": 3345,
  "\u2581Monat": 3346,
  "\u2581behalten": 3347,
  "\u2581kh\u1ea9n": 3348,
  "\u2581Thi\u00ean": 3349,
  "\u2581k\u00fcmmern": 3350,
  "\u2581t\u1ed1n": 3351,
  "\u2581Film": 3352,
  "Ta": 3353,
  "\u2581Gutes": 3354,
  "\u2581lasse": 3355,
  "\u2581Schau": 3356,
  "\u2581T\u1ef1": 3357,
  "\u258110:": 3358,
  "\u2581Ruf": 3359,
  "\u2581Tisch": 3360,
  "\u2581falls": 3361,
  "\u2581pers\u00f6nlich": 3362,
  "ed": 3363,
  "\u2581Nehmen": 3364,
  "\u2581bauen": 3365,
  "\u2581mussten": 3366,
  "\u2581Energie": 3367,
  "\u2581Jesaja": 3368,
  "\u2581Wachtturm": 3369,
  "\u2581besuchen": 3370,
  "\u2581thi\u00eau": 3371,
  "\u2581Preis": 3372,
  "\u2581Sex": 3373,
  "5": 3374,
  "\u2581thi\u1ec7t": 3375,
  "\u2581tr\u00edch": 3376,
  "\u2581Sklaven": 3377,
  "\u2581c\u1eafp": 3378,
  "\u2581nh\u1ea7m": 3379,
  "\u2581Sicher": 3380,
  "\u2581Song": 3381,
  "\u2581c\u1ee1": 3382,
  "\u2581d\u01b0": 3383,
  "\u2581Obwohl": 3384,
  "\u2581Br\u00fcdern": 3385,
  "\u2581c\u1ecf": 3386,
  "\u2581lag": 3387,
  "\u2581Mrs": 3388,
  "\u2581Entscheidungen": 3389,
  "\u2581beispielsweise": 3390,
  "\u2581\u00c4gypten": 3391,
  "\u2581Hi\u1ec7n": 3392,
  "\u2581Staaten": 3393,
  "\u2581gemeinsam": 3394,
  "\u2581tung": 3395,
  "\u2581T\u01b0\u01a1": 3396,
  "\u2581ernst": 3397,
  "\u2581\u0110\u1ea5t": 3398,
  "\u2581r\u00ea": 3399,
  "\u2581\u0110\u1ea7u": 3400,
  "\u2581Th\u01b0\u1ee3ng": 3401,
  "\u2581Kumpel": 3402,
  "\u2581v\u01b0\u01a1ng": 3403,
  "\u2581Bill": 3404,
  "\u2581Schrift": 3405,
  "liche": 3406,
  "\u2581Di": 3407,
  "\u25817:": 3408,
  "\u2581wollt": 3409,
  "\u2581tr\u00e0n": 3410,
  "\u2581Th\u00ed": 3411,
  "\u2581Sch\u00f6pfer": 3412,
  "\u2581stolz": 3413,
  "zi": 3414,
  "\u2581ninh": 3415,
  "\u2581Hol": 3416,
  "\u2581benutzen": 3417,
  "\u258111:": 3418,
  "\u2581Kontakt": 3419,
  "\u2581wieso": 3420,
  "Der": 3421,
  "\u2581Charlie": 3422,
  "\u2581M\u00f6chte": 3423,
  "\u2581falschen": 3424,
  "\u2581ver\u00e4ndert": 3425,
  "Sie": 3426,
  "\u2581berichtet": 3427,
  "\u2581tho\u1ea3i": 3428,
  "\u2581wem": 3429,
  "\u2581Etwas": 3430,
  "\u2581C\u1ed1": 3431,
  "Du": 3432,
  "\u2581quy\u1ec3n": 3433,
  "\u2581l\u01b0\u1ee1i": 3434,
  "\u2581Papa": 3435,
  "\u2581hervor": 3436,
  "\u2581\u0110\u1ed9": 3437,
  "\u2581dao": 3438,
  "\u2581Habe": 3439,
  "\u2581still": 3440,
  "\u2581b\u1eaby": 3441,
  "\u2581nh\u00e1nh": 3442,
  "\u25819.": 3443,
  "\u2581Arm": 3444,
  "\u2581Daten": 3445,
  "\u2581Tiere": 3446,
  "ich": 3447,
  "\u2581Geb\u00e4ude": 3448,
  "Lachen": 3449,
  "\u2581ho\u1ea1n": 3450,
  "\u2581Ti\u1ebfn": 3451,
  "\u2581euren": 3452,
  "ro": 3453,
  "\u2581Ch\u1ee7": 3454,
  "\u2581bi\u00ean": 3455,
  "\u2581rum": 3456,
  "erweise": 3457,
  "v": 3458,
  "Z": 3459,
  "\u2581heiraten": 3460,
  "\u2581d\u1eb7m": 3461,
  "\u2581thua": 3462,
  "\u2581Schluss": 3463,
  "\u2581Wege": 3464,
  "\u2581betrachten": 3465,
  "\u2581Geistes": 3466,
  "\u2581Kaffee": 3467,
  "\u2581M\u1ee5c": 3468,
  "\u2581All": 3469,
  "\u2581V\u1ea5n": 3470,
  "\u2581Bleib": 3471,
  "at": 3472,
  "\u2581500": 3473,
  "\u2581g\u00f3c": 3474,
  "\u258129": 3475,
  "\u2581Psalm": 3476,
  "\u2581bewahren": 3477,
  "\u2581b\u1ee5ng": 3478,
  "\u2581Schafe": 3479,
  "\u2581brauchst": 3480,
  "\u2581Nha": 3481,
  "\u2581Qu\u00e1": 3482,
  "co": 3483,
  "\u2581Tor": 3484,
  "\u2581einander": 3485,
  "\u2581Mo": 3486,
  "\u2581d\u01b0\u1ee1ng": 3487,
  "\u2581Schwierigkeiten": 3488,
  "\u2581\u0111\u00e3i": 3489,
  "\u2581n\u0103n": 3490,
  "\u2581Barry": 3491,
  "\u2581Harry": 3492,
  "ga": 3493,
  "\u2581Will": 3494,
  "\u2581beweisen": 3495,
  "\u2581l\u00e3ng": 3496,
  "\u2581gestellt": 3497,
  "\u2581g\u01b0\u01a1m": 3498,
  "\u2581M\u1eb7t": 3499,
  "\u2581blieb": 3500,
  "ren": 3501,
  "\u2581Gibt": 3502,
  "\u2581richtigen": 3503,
  "\u2581Seiten": 3504,
  "\u2581N\u00ea": 3505,
  "\u2581Paul": 3506,
  "\u2581Salomo": 3507,
  "\u258120.": 3508,
  "\u2581Feinde": 3509,
  "\u2581mi\u1ebfng": 3510,
  "\u2581\u0111\u1ed3n": 3511,
  "lo": 3512,
  "\u2581Pass": 3513,
  "ist": 3514,
  "\u2581Gesch\u00e4ft": 3515,
  "\u2581Ngu\u1ed3n": 3516,
  "\u2581kh\u1ed1i": 3517,
  "\u2581namens": 3518,
  "\u258113:": 3519,
  "\u2581ph\u1eabu": 3520,
  "\u2581erf\u00fcllt": 3521,
  "\u2581predigen": 3522,
  "\u2581\u0111\u00e2m": 3523,
  "\u2581davor": 3524,
  "\u2581erw\u00e4hnt": 3525,
  "\u2581kh\u00f4": 3526,
  "\u2581Mark": 3527,
  "\u2581entgegen": 3528,
  "\u2581hei\u00dfen": 3529,
  "ho": 3530,
  "\u2581San": 3531,
  "\u2581kh\u00eda": 3532,
  "ation": 3533,
  "\u2581Tr\u01b0\u1eddng": 3534,
  "\u2581Je": 3535,
  "\u2581Zeugnis": 3536,
  "\u2581w\u00e4r": 3537,
  "ly": 3538,
  "\u2581Bau": 3539,
  "\u258180": 3540,
  "\u2581Vergangenheit": 3541,
  "\u2581khoan": 3542,
  "\u2581ungef\u00e4hr": 3543,
  "\u2581verbunden": 3544,
  "\u2581v\u1eafng": 3545,
  "\u2581aufh\u00f6ren": 3546,
  "\u2581l\u00f9ng": 3547,
  "\u2581Dazu": 3548,
  "\u2581M\u1edf": 3549,
  "\u2581irgendwo": 3550,
  "\u258114.": 3551,
  "Ja": 3552,
  "\u2581hu\u1ed1ng": 3553,
  "\u2581Viel": 3554,
  "\u2581geschah": 3555,
  "los": 3556,
  "\u2581Zusammenk\u00fcnfte": 3557,
  "\u2581freuen": 3558,
  "\u2581geredet": 3559,
  "\u2581kh\u00e1t": 3560,
  "\u2581ph\u1ed5": 3561,
  "\u2581r\u00e1c": 3562,
  "\u2581ch\u00eca": 3563,
  "\u2581Gesundheit": 3564,
  "\u2581r\u1ed7i": 3565,
  "\u2581M\u00e4nnern": 3566,
  "\u2581Sohnes": 3567,
  "\u2581lie\u00dfen": 3568,
  "\u2581Ch\u1ea1y": 3569,
  "\u2581Hiob": 3570,
  "\u2581Aufmerksamkeit": 3571,
  "\u2581Klasse": 3572,
  "\u2581nutzen": 3573,
  "\u2581bekam": 3574,
  "\u2581H\u1ecdc": 3575,
  "\u2581ch\u1ee7ng": 3576,
  "\u2581Monaten": 3577,
  "\u2581Richter": 3578,
  "\u2581ung": 3579,
  "\u2581gi\u00e0y": 3580,
  "\u2581v\u0129nh": 3581,
  "\u2581L\u00ea": 3582,
  "\u2581entwickeln": 3583,
  "\u2581meinte": 3584,
  "\u2581spielt": 3585,
  "C\u01b0\u1eddi": 3586,
  "\u2581voraus": 3587,
  "\u2581Krankheit": 3588,
  "\u2581Max": 3589,
  "\u2581Ob": 3590,
  "\u2581sch\u00fctzen": 3591,
  "\u2581Herren": 3592,
  "\u2581m\u1ecfi": 3593,
  "\u2581Pr\u00e4sident": 3594,
  "\u2581t\u00e1ch": 3595,
  "\u2581Respekt": 3596,
  "\u2581zer": 3597,
  "\u2581m\u1ed3": 3598,
  "\u2581wohnen": 3599,
  "\u2581geholfen": 3600,
  "\u2581o": 3601,
  "\u00e9": 3602,
  "\u2581Boss": 3603,
  "\u2581neues": 3604,
  "ischen": 3605,
  "\u2581Stimmt": 3606,
  "\u2581Beste": 3607,
  "\u2581El": 3608,
  "\u2581behandelt": 3609,
  "\u2581ho\u1ea3ng": 3610,
  "\u2581versuche": 3611,
  "\u2581Besuch": 3612,
  "\u2581Robert": 3613,
  "\u2581Bar": 3614,
  "\u2581gef\u00e4hrlich": 3615,
  "\u2581Quay": 3616,
  "\u2581Typen": 3617,
  "\u2581l\u00e4\u00dft": 3618,
  "\u2581nh\u1ecbn": 3619,
  "\u2581Einer": 3620,
  "\u2581leiden": 3621,
  "\u2581\u00e2": 3622,
  "\u2581C\u1ed5": 3623,
  "\u2581Versuch": 3624,
  "\u2581machten": 3625,
  "V": 3626,
  "\u2581Mittel": 3627,
  "\u2581wen": 3628,
  "\u2581Dadurch": 3629,
  "\u2581th\u00f3i": 3630,
  "\u2581l\u00ea": 3631,
  "\u2581\u0111\u1ec9nh": 3632,
  "\u2581Geburt": 3633,
  "\u2581glaubt": 3634,
  ">": 3635,
  "\u2581Captain": 3636,
  "\u2581r\u0103ng": 3637,
  "\u2581Mord": 3638,
  "\u2581Ru": 3639,
  "\u2581ha": 3640,
  "\u2581Zorn": 3641,
  "\u2581beginnen": 3642,
  "\u2581m\u00e1t": 3643,
  "\u2581ng\u00e0nh": 3644,
  "\u2581g\u00ecn": 3645,
  "\u2581h\u00f6re": 3646,
  "\u2581manche": 3647,
  "4": 3648,
  "\u2581phi\u1ebfu": 3649,
  "\u2581G\u1ecdi": 3650,
  "\u2581h\u00e1": 3651,
  "\u2581r\u1eafn": 3652,
  "\u2581Schmerz": 3653,
  "\u2581unterschiedlich": 3654,
  "\u2581Siehst": 3655,
  "\u2581x\u00ea": 3656,
  "\u2581bat": 3657,
  "\u2581benutzt": 3658,
  "\u2581echte": 3659,
  "\u2581t\u00e1m": 3660,
  "\u2581\u0111\u1ecbch": 3661,
  "\u2581g\u00e0": 3662,
  "\u2581Rom": 3663,
  "\u2581Drogen": 3664,
  "\u2581b\u00f4ng": 3665,
  "go": 3666,
  "\u2581Kim": 3667,
  "\u2581S\u00ea": 3668,
  "\u2581Bob": 3669,
  "\u2581legen": 3670,
  "\u2581nennt": 3671,
  "\u2581V\u1ea3": 3672,
  "\u2581vergeben": 3673,
  "\u2581Jimmy": 3674,
  "mi": 3675,
  "ken": 3676,
  "\u2581ng\u1eabm": 3677,
  "\u2581Rettung": 3678,
  "\u25811914": 3679,
  "\u2581ans": 3680,
  "\u2581Wind": 3681,
  "\u2581\u0110\u1ecba": 3682,
  "\u2581Programm": 3683,
  "\u2581\u00c4lteste": 3684,
  "\u2581anderem": 3685,
  "\u2581Bank": 3686,
  "\u2581Befehl": 3687,
  "\u2581Prophezeiung": 3688,
  "\u2581d\u0129": 3689,
  "\u2581B\u00fccher": 3690,
  "\u2581G\u00f6tter": 3691,
  "\u2581gilt": 3692,
  "\u2581l\u00f4i": 3693,
  "des": 3694,
  "\u2581b\u00e3i": 3695,
  "\u2581falsche": 3696,
  "kt": 3697,
  "\u2581C\u1ee7a": 3698,
  "\u2581\u01b0u": 3699,
  "ir": 3700,
  "\u2581nho": 3701,
  "\u2581Einheit": 3702,
  "\u2581Machen": 3703,
  "kommen": 3704,
  "?\u201c": 3705,
  "\u2581besch\u00e4ftigt": 3706,
  "\u2581Liste": 3707,
  "\u2581ki\u00eau": 3708,
  "ce": 3709,
  "\u258116.": 3710,
  "\u2581re": 3711,
  "Comment": 3712,
  "6": 3713,
  "\u2581Baum": 3714,
  "\u2581unm\u00f6glich": 3715,
  "\u2581b\u1ee5i": 3716,
  "wa": 3717,
  "\u2581m\u1ea1i": 3718,
  "\u2581dr\u00fcben": 3719,
  "\u2581House": 3720,
  "\u2581Ansicht": 3721,
  "\u2581heilige": 3722,
  "\u2581r\u1ed1t": 3723,
  "\u2581Kontrolle": 3724,
  "\u2581verschiedenen": 3725,
  "\u2581Sekunden": 3726,
  "\u2581Immer": 3727,
  "\u2581tr\u00fac": 3728,
  "\u2581Henry": 3729,
  "\u2581hattest": 3730,
  "\u2581h\u00f2n": 3731,
  "\u2581trotz": 3732,
  "\u2581\u01b0a": 3733,
  "ic": 3734,
  "\u2581th\u1ee5": 3735,
  "\u2581Alice": 3736,
  "\u2581k\u00f6nntest": 3737,
  "\u2581ph\u1ecfng": 3738,
  "\u2581Beweis": 3739,
  "\u2581t\u00e0": 3740,
  "\u2581\u1ea4y": 3741,
  "\u2581Beweise": 3742,
  "\u2581n\u1ecd": 3743,
  "\u2581Hund": 3744,
  "ol": 3745,
  "\u2581Willkommen": 3746,
  "\u2581i": 3747,
  "\u2581lu\u00e2n": 3748,
  "\u2581t\u00f3m": 3749,
  "\u2581Charles": 3750,
  "\u2581f\u00fchle": 3751,
  "\u2581nahmen": 3752,
  "\u2581x\u00e2m": 3753,
  "\u2581Schlaf": 3754,
  "\u2581bu\u00f4n": 3755,
  "\u2581Saul": 3756,
  "\u2581Uh": 3757,
  "\u2581gezeigt": 3758,
  "\u2581Segen": 3759,
  "\u2581Zug": 3760,
  "\u2581bekommt": 3761,
  "ik": 3762,
  "\u2581FBI": 3763,
  "\u2581betrifft": 3764,
  "ph": 3765,
  "\u2581nochmal": 3766,
  "N\u1ebfu": 3767,
  "\u2581ch\u00f4n": 3768,
  "\u2581h\u00f2": 3769,
  "\u2581Ch\u00e0": 3770,
  "\u2581neben": 3771,
  "Sch": 3772,
  "\u2581verwenden": 3773,
  "\u2581klein": 3774,
  "\u2581taufen": 3775,
  "\u2581\u0111\u1ed3i": 3776,
  "\u2581sollt": 3777,
  "\u2581bringe": 3778,
  "\u2581\u00d6l": 3779,
  "\u2581Mist": 3780,
  "mann": 3781,
  "\u2581S\u00e1ch": 3782,
  "\u2581b\u1edb": 3783,
  "\u258117.": 3784,
  "\u2581studieren": 3785,
  "\u2581erinnert": 3786,
  "\u2581gleiche": 3787,
  "\u2581Nachrichten": 3788,
  "\u2581ti": 3789,
  "\u2581arbeitet": 3790,
  "\u2581\u00fay": 3791,
  "\u2581anfangen": 3792,
  "das": 3793,
  "\u2581Zustand": 3794,
  "\u2581H\u00e0ng": 3795,
  "\u2581g\u1ee3i": 3796,
  "\u2581\u1ea3o": 3797,
  "In": 3798,
  "\u2581Furcht": 3799,
  "\u2581nh\u01a1n": 3800,
  "\u2581weiteren": 3801,
  "\u2581Sieht": 3802,
  "\u2581verheiratet": 3803,
  "\u2581Vi": 3804,
  "\u2581bedeuten": 3805,
  "\u2581xu": 3806,
  "\u2581Gewissen": 3807,
  "\u2581cam": 3808,
  "\u2581menschlichen": 3809,
  "\u2581\u00fcberleben": 3810,
  "\u2581Lande": 3811,
  "Wer": 3812,
  "\u2581Nachfolger": 3813,
  "\u2581s\u00e9p": 3814,
  "ien": 3815,
  "\u2581Auftrag": 3816,
  "l\u00e0m": 3817,
  "\u2581Schnell": 3818,
  "\u2581Studium": 3819,
  "\u2581x\u00f3a": 3820,
  "\u2581rief": 3821,
  "m\u1ed9t": 3822,
  "\u2581fiel": 3823,
  "\u2581\u0111\u1ee5ng": 3824,
  "haus": 3825,
  "\u25810": 3826,
  "\u2581unterwegs": 3827,
  "\u2581V\u00e0i": 3828,
  "\u2581zweite": 3829,
  "\u2581b\u00e1u": 3830,
  "\u2581bestimmte": 3831,
  "pe": 3832,
  "\u2581CN": 3833,
  "\u2581verschiedene": 3834,
  "\u2581irgendwas": 3835,
  "\u2581schneller": 3836,
  "\u2581halte": 3837,
  "nt": 3838,
  "\u2581gebraucht": 3839,
  "\u2581m\u1ea1c": 3840,
  "\u2581300": 3841,
  "\u2581t\u00fay": 3842,
  "\u2581Th\u1eadm": 3843,
  "her": 3844,
  "\u2581erreicht": 3845,
  "\u2581rede": 3846,
  "\u258131": 3847,
  "\u2581gro\u00dfes": 3848,
  "\u2581\u201d?": 3849,
  "lem": 3850,
  "min": 3851,
  "\u2581K\u00f6nnte": 3852,
  "\u2581K\u00f6nige": 3853,
  "\u2581bi\u1ec7n": 3854,
  "\u2581sahen": 3855,
  "\u2581th\u1ebb": 3856,
  "br": 3857,
  "\u2581London": 3858,
  "\u2581willen": 3859,
  "\u2581regelm\u00e4\u00dfig": 3860,
  "\u2581Inwiefern": 3861,
  "\u2581qu\u00ea": 3862,
  "\u2581Herrschaft": 3863,
  "fe": 3864,
  "\u2581laut": 3865,
  "\u2581Insel": 3866,
  "\u2581solange": 3867,
  "\u2581\u00e1": 3868,
  "\u2581H\u1ebft": 3869,
  "\u2581Unterst\u00fctzung": 3870,
  "\u2581schicken": 3871,
  "gia": 3872,
  "\u2581th\u1ed5i": 3873,
  "he": 3874,
  "\u2581Noah": 3875,
  "\u2581umbringen": 3876,
  "\u2581Party": 3877,
  "\u2581\u0111\u1ea1p": 3878,
  "\u2581V\u1ee3": 3879,
  "me": 3880,
  "\u25814,": 3881,
  "\u2581Antworten": 3882,
  "\u2581entschieden": 3883,
  "\u2581H\u00f6rt": 3884,
  "\u2581Zeuge": 3885,
  "\u2581besch\u00fctzen": 3886,
  "\u2581t\u1ef7": 3887,
  "\u201c?": 3888,
  "\u2581dar": 3889,
  "\u2581lautet": 3890,
  "\u2581tr\u00e4gt": 3891,
  "\u2581verschwinden": 3892,
  "pp": 3893,
  "\u2581bezeichnet": 3894,
  "\u2581treo": 3895,
  "\u2581Li": 3896,
  "\u2581Offenbarung": 3897,
  "\u2581l\u1ed3": 3898,
  "\u2581tr\u01b0a": 3899,
  "\u2581wolltest": 3900,
  "by": 3901,
  "\u2581Stellen": 3902,
  "\u2581verantwortlich": 3903,
  "\u2581Th\u00f4ng": 3904,
  "\u2581Finger": 3905,
  "\u2581tr\u00f4i": 3906,
  "\u2581ge\u00e4ndert": 3907,
  "\u2581total": 3908,
  "C\u00f3": 3909,
  "\u2581Augenblick": 3910,
  "\u2581b\u00e3o": 3911,
  "\u2581Eis": 3912,
  "\u2581alleine": 3913,
  "\u2581treuen": 3914,
  "\u2581Ray": 3915,
  "\u2581glaubst": 3916,
  "\u2581pha": 3917,
  "\u2581schlimmer": 3918,
  "\u2581vun": 3919,
  "\u2581menschliche": 3920,
  "ft": 3921,
  "rt": 3922,
  "\u2581Li\u1ec7u": 3923,
  "\u2581Onkel": 3924,
  "\u2581To\u00e0n": 3925,
  "\u2581l\u00e1t": 3926,
  "ad": 3927,
  "\u258113.": 3928,
  "\u25816,": 3929,
  "\u2581Unterschied": 3930,
  "\u2581k\u1ecbp": 3931,
  "\u2581unterst\u00fctzen": 3932,
  "lei": 3933,
  "mit": 3934,
  "\u2581innerhalb": 3935,
  "\u2581Bo": 3936,
  "\u2581General": 3937,
  "\u2581fliegen": 3938,
  "\u2581tr\u1ea7n": 3939,
  "\u2581z": 3940,
  "\u2581Richtig": 3941,
  "\u2581n\u1ea3n": 3942,
  "t\u00f4": 3943,
  "\u2581Tatsache": 3944,
  "\u2581Weiter": 3945,
  "\u2581absolut": 3946,
  "\u2581Satans": 3947,
  "\u2581m\u00f3c": 3948,
  "\u2581sucht": 3949,
  "pa": 3950,
  "\u2581Meter": 3951,
  "\u2581Feind": 3952,
  "\u2581Reich": 3953,
  "\u2581f\u00fchlt": 3954,
  "\u2581W\u00e4re": 3955,
  "ut": 3956,
  "\u2581Eines": 3957,
  "\u2581erschaffen": 3958,
  "\u2581Heiligen": 3959,
  "nd": 3960,
  "\u2581Matth\u00e4us": 3961,
  "\u2581Soldaten": 3962,
  "\u2581kh\u00e1ng": 3963,
  "\u2581trifft": 3964,
  "\u2581l\u1ed9n": 3965,
  "ber": 3966,
  "\u2581Hunger": 3967,
  "\u2581wichtiger": 3968,
  "schaft": 3969,
  "\u2581K\u1ebf": 3970,
  "\u2581Wahrscheinlich": 3971,
  "\u2581khu\u00f4n": 3972,
  "dem": 3973,
  "\u2581Lan": 3974,
  "\u2581versprochen": 3975,
  "C\u00e1c": 3976,
  "\u2581Emily": 3977,
  "\u2581gr\u00f6\u00dfer": 3978,
  "bu": 3979,
  "\u25818:": 3980,
  "\u2581Nh\u1edb": 3981,
  "\u2581ng\u00f3n": 3982,
  "id": 3983,
  "\u2581<": 3984,
  "\u2581r\u1ed3": 3985,
  "\u2581Ent": 3986,
  "\u2581Folgen": 3987,
  "\u2581gemeint": 3988,
  "\u2581l\u01b0\u1edbi": 3989,
  "\u2581tuy\u1ebfn": 3990,
  "che": 3991,
  "\u2581Andere": 3992,
  "\u2581setzte": 3993,
  "\u2581vertraut": 3994,
  "\u2581Danny": 3995,
  "\u2581Herrlichkeit": 3996,
  "\u2581Mau": 3997,
  "\u2581\u0111u\u1ed1i": 3998,
  "\u2581schauen": 3999,
  "\u2581Regeln": 4000,
  "\u2581leisten": 4001,
  "\u2581m\u1ea1o": 4002,
  "\u2581wichtige": 4003,
  "\u2581siehe": 4004,
  "\u2581erf\u00fcllen": 4005,
  "\u2581gelesen": 4006,
  "\u2581klingt": 4007,
  "\u2581t\u01b0\u01a1i": 4008,
  "\u2581zweiten": 4009,
  "\u2581Boot": 4010,
  "\u2581v\u00ea": 4011,
  "\u2581b\u1ea9n": 4012,
  "ell": 4013,
  "\u2581ch\u00edn": 4014,
  "\u2581geschieht": 4015,
  "\u2581tu\u00e2n": 4016,
  "\u2581Lager": 4017,
  "\u2581Suche": 4018,
  "\u2581See": 4019,
  "\u2581kh\u1ea3o": 4020,
  "\u2581s\u1ea1n": 4021,
  "\u2581wandeln": 4022,
  "\u2581Bao": 4023,
  "\u2581c\u01b0\u01a1ng": 4024,
  "\u2581erinnere": 4025,
  "\u2581H\u00e4nden": 4026,
  "\u2581tho\u1ea3ng": 4027,
  "keit": 4028,
  "wie": 4029,
  "\u2581Video": 4030,
  "\u2581kennst": 4031,
  "\u2581schlie\u00dfen": 4032,
  "\u2581Karte": 4033,
  "\u2581Gebete": 4034,
  "Ng\u01b0\u1eddi": 4035,
  "\u2581d\u00f2": 4036,
  "\u258119.": 4037,
  "\u258190": 4038,
  "\u2581Geheimnis": 4039,
  "\u2581Vorstellung": 4040,
  "\u2581Zeug": 4041,
  "it": 4042,
  "\u2581ansehen": 4043,
  "\u2581stirbt": 4044,
  "\u2581b\u00f4": 4045,
  "\u2581deswegen": 4046,
  "\u2581Su": 4047,
  "\u2581zerst\u00f6rt": 4048,
  "\u2581Werke": 4049,
  "\u2581b\u1ea5y": 4050,
  "\u2581ghen": 4051,
  "\u2581mu": 4052,
  "\u2581phu": 4053,
  "\u2581B\u1ecb": 4054,
  "\u2581Beziehung": 4055,
  "\u2581G\u1ea7n": 4056,
  "\u2581sch\u00e4tzen": 4057,
  "\u2581chu": 4058,
  "\u2581cool": 4059,
  "\u2581City": 4060,
  "\u2581H\u00e4lfte": 4061,
  "\u2581L\u00f6sung": 4062,
  "\u2581Gi\u00fap": 4063,
  "\u2581Tun": 4064,
  "\u2581Co": 4065,
  "\u2581vorsichtig": 4066,
  "\u2581\u00fcbrig": 4067,
  "\u2581Lehre": 4068,
  "\u2581au\u00dferdem": 4069,
  "\u2581d\u1ea1i": 4070,
  "\u2581nh\u1edf": 4071,
  "\u2581Todes": 4072,
  "\u2581Wald": 4073,
  "\u2581Ng\u1ed3i": 4074,
  "\u2581g\u1ed7": 4075,
  "\u2581sch\u00f6ne": 4076,
  "l\u00f4": 4077,
  "\u2581Go": 4078,
  "\u2581Warten": 4079,
  "\u2581Dir": 4080,
  "\u2581Habt": 4081,
  "\u2581Seid": 4082,
  "\u2581Professor": 4083,
  "\u2581F\u00fchrer": 4084,
  "\u2581Streit": 4085,
  "\u2581c\u1ed5ng": 4086,
  "\u2581\u1ea3": 4087,
  "\u2581Chi": 4088,
  "\u2581Tja": 4089,
  "versammlung": 4090,
  "\u2581M\u00e1y": 4091,
  "\u2581Pers\u00f6nlichkeit": 4092,
  "\u2581and": 4093,
  "#244;": 4094,
  "Wie": 4095,
  "\u2581quang": 4096,
  "\u2581reich": 4097,
  "so": 4098,
  "tz": 4099,
  "\u2581Linh": 4100,
  "bel": 4101,
  "\u2581Kunst": 4102,
  "\u2581Kho\u1ea3ng": 4103,
  "\u2581w\u00fcnschte": 4104,
  "\u2581b\u01a1i": 4105,
  "\u2581Versammlungen": 4106,
  "\u2581achten": 4107,
  "\u2581dasselbe": 4108,
  "\u2581l\u1eb7p": 4109,
  "\u2581th\u00e1c": 4110,
  "\u2581Prophet": 4111,
  "\u2581Foto": 4112,
  "\u2581th\u00f9ng": 4113,
  "\u2581\u00f3c": 4114,
  "\u2581Eva": 4115,
  "\u2581M\u00f4": 4116,
  "\u2581Mitte": 4117,
  "\u2581Reden": 4118,
  "\u2581n\u1ea5u": 4119,
  "\u2581schlagen": 4120,
  "\u2581Aussicht": 4121,
  "\u2581Ernst": 4122,
  "\u2581welches": 4123,
  "\u2581Frucht": 4124,
  "\u2581Flug": 4125,
  "\u2581Flugzeug": 4126,
  "\u2581gehabt": 4127,
  "\u2581thu\u1ebf": 4128,
  "\u2581v\u1ea1n": 4129,
  "Con": 4130,
  "\u2581bestimmten": 4131,
  "\u2581wirkt": 4132,
  "\u2581Armee": 4133,
  "\u2581Gefallen": 4134,
  "\u2581stets": 4135,
  "l\u00e4": 4136,
  "\u2581Carl": 4137,
  "\u2581v\u1ed9i": 4138,
  "\u2581Sarah": 4139,
  "\u2581weise": 4140,
  "The": 4141,
  "\u2581besucht": 4142,
  "\u2581w\u00e4rst": 4143,
  "\u2581\u1ed4ng": 4144,
  "\u2581ga": 4145,
  "\u2581rund": 4146,
  "\u2581Daddy": 4147,
  "\u2581fanden": 4148,
  "J": 4149,
  "\u2581Garten": 4150,
  "\u2581Freunden": 4151,
  "\u2581hinten": 4152,
  ",\"": 4153,
  "mo": 4154,
  "\u2581Monica": 4155,
  "\u2581Vereinigten": 4156,
  "\u2581Geschichten": 4157,
  "\u2581kh\u1ed5ng": 4158,
  "\u2581vi\u1ebfng": 4159,
  "sp": 4160,
  "\u2581Bevor": 4161,
  "\u2581R\u00fccken": 4162,
  "\u2581Uns": 4163,
  "\u2581umgebracht": 4164,
  "\u2581G\u1eb7p": 4165,
  "\u2581M\u00f6rder": 4166,
  "An": 4167,
  "\u258135": 4168,
  "\u2581Bund": 4169,
  "\u2581Daf\u00fcr": 4170,
  "\u2581K\u00f6nigin": 4171,
  "\u2581Stra\u00dfen": 4172,
  "\u2581gesamte": 4173,
  "\u2581lieb": 4174,
  "\u2581Zweifel": 4175,
  "\u2581geliebt": 4176,
  "\u2581\u00dcbersetzung": 4177,
  "\u2581ph\u1ea5n": 4178,
  "\u2581anrufen": 4179,
  "\u2581b\u00ea": 4180,
  "\u2581kh\u1ec9": 4181,
  "\u2581k\u1eb9t": 4182,
  "\u2581li\u1ec1u": 4183,
  "\u2581chai": 4184,
  "\u2581c\u00fa": 4185,
  "Ein": 4186,
  "\u2581Dean": 4187,
  "\u2581Eddie": 4188,
  "\u2581g\u00e1c": 4189,
  "\u2581\u00fcberrascht": 4190,
  "\u2581No": 4191,
  "\u2581gebaut": 4192,
  "\u2581gerecht": 4193,
  "\u2581rufen": 4194,
  "\u2581Band": 4195,
  "\u2581T\u1eadp": 4196,
  "\u2581lustig": 4197,
  "\u2581m\u00f4ng": 4198,
  "\u2581tr\u00f2n": 4199,
  "\u2581t\u1ea1": 4200,
  "\u2581Stark": 4201,
  "\u2581s\u1eaft": 4202,
  "\u2581th\u1ea3i": 4203,
  "\u2581L\u1ea1y": 4204,
  "\u2581r\u1ebd": 4205,
  "\u2581v\u00e2y": 4206,
  "\u2581\u0111\u1eb7n": 4207,
  "\u00e4r": 4208,
  "\u2581t\u01b0\u1edbc": 4209,
  "\u2581M\u1edbi": 4210,
  "\u2581gefangen": 4211,
  "\u2581C\u1ea7n": 4212,
  "\u2581sitzt": 4213,
  "\u2581\u0111\u1eadu": 4214,
  "ierung": 4215,
  "\u2581h\u1ea3i": 4216,
  "\u2581B\u1ea5y": 4217,
  "\u2581unglaublich": 4218,
  "\u00fcr": 4219,
  "\u2581Reihe": 4220,
  "\u2581\u0110\u1eb7c": 4221,
  "\u258145": 4222,
  "\u2581Samuel": 4223,
  "tri": 4224,
  "\u2581M\u00f6glichkeiten": 4225,
  "\u2581bezahlen": 4226,
  "\u2581g\u1eb7t": 4227,
  "\u2581Verst\u00e4ndnis": 4228,
  "\u2581gi\u1ee5c": 4229,
  "\u2581Zur\u00fcck": 4230,
  "\u2581beobachten": 4231,
  "\u2581b\u1ed1i": 4232,
  "\u2581hey": 4233,
  "c\u00f3": 4234,
  "\u2581ch\u01b0": 4235,
  "\u2581gef\u00fchrt": 4236,
  "\u2581C\u00f9ng": 4237,
  "\u2581Super": 4238,
  "Be": 4239,
  "gel": 4240,
  "\u2581Chandler": 4241,
  "\u2581Glaubens": 4242,
  "\u2581tr\u00e1": 4243,
  "\u2581Hochzeit": 4244,
  "\u2581bezahlt": 4245,
  "\u2581ng\u01a1i": 4246,
  "\u2581wartet": 4247,
  "\u2581Patienten": 4248,
  "\u2581ebenso": 4249,
  "\u2581gesund": 4250,
  "\u2581l\u00f6sen": 4251,
  "ger": 4252,
  "\u2581b\u1ebfp": 4253,
  "\u2581Park": 4254,
  "\u2581ewiges": 4255,
  "\u2581antwortete": 4256,
  "\u2581c\u1ee7ng": 4257,
  "\u2581Landes": 4258,
  "hi": 4259,
  "\u2581Ho": 4260,
  "nh\u1eefng": 4261,
  "\u25819,": 4262,
  "\u2581Pa": 4263,
  "\u2581m\u00e8o": 4264,
  "\u2581Ex": 4265,
  "\u2581Kasten": 4266,
  "\u2581Wirklichkeit": 4267,
  "\u2581beginnt": 4268,
  "\u2581Doktor": 4269,
  "\u2581Th\u00eam": 4270,
  "\u2581Wissenschaft": 4271,
  "ah": 4272,
  "ry": 4273,
  "\u2581h\u1ed7n": 4274,
  "\u2581Mannes": 4275,
  "\u2581tr\u0103ng": 4276,
  "\u2581Erst": 4277,
  "\u2581khi\u00eau": 4278,
  "\u2581t\u1ea3ng": 4279,
  "Khi": 4280,
  "\u25811,": 4281,
  "\u258132": 4282,
  "\u2581Firma": 4283,
  "\u2581zieht": 4284,
  "\u2581Jahrhunderts": 4285,
  "\u2581Planeten": 4286,
  "\u2581Weile": 4287,
  "\u2581vi\u1ec5n": 4288,
  "\u2581Statt": 4289,
  "con": 4290,
  "\u2581Fu\u00dfnote": 4291,
  "\u2581frage": 4292,
  "\u2581\u0111i\u1ec7u": 4293,
  "\u2581Entwicklung": 4294,
  "\u2581Ohren": 4295,
  "\u2581b\u1ef1c": 4296,
  "\u2581wenige": 4297,
  "\u2581entschlossen": 4298,
  "\u2581L\u00ean": 4299,
  "\u2581Stellung": 4300,
  "\u2581b\u00f3": 4301,
  "\u2581Anna": 4302,
  "\u2581Zweck": 4303,
  "\u2581t\u00e4glich": 4304,
  "\u2581arbeite": 4305,
  "org": 4306,
  "\u2581Arten": 4307,
  "\u2581B\u1eafn": 4308,
  "\u2581Sonst": 4309,
  "\u2581entwickelt": 4310,
  "Ver": 4311,
  "\u2581Strom": 4312,
  "\u2581Regen": 4313,
  "\u2581hi\u1ebfn": 4314,
  "\u2581th\u00e8m": 4315,
  "\u2581uh": 4316,
  "ham": 4317,
  "\u2581Gespr\u00e4ch": 4318,
  "eln": 4319,
  "zeit": 4320,
  "\u2581L\u00f2ng": 4321,
  "\u2581\u00fcbernehmen": 4322,
  "\u2581\u0111o": 4323,
  "\u2581Laden": 4324,
  "\u2581lebte": 4325,
  "\u2581Speise": 4326,
  "\u2581gehalten": 4327,
  "\u2581\u00ab": 4328,
  "men": 4329,
  "\u2581Wohin": 4330,
  "\u258118.": 4331,
  "\u2581B\u00f6se": 4332,
  "\u2581Wohl": 4333,
  "\u2581nghi\u1ec7n": 4334,
  "\u2581\u0111i\u00ea": 4335,
  "\u2581\u201c(": 4336,
  "\u2581\u00f6ffnen": 4337,
  "\u2581$": 4338,
  "\u2581Davids": 4339,
  "\u2581Red": 4340,
  "\u2581g\u00f3i": 4341,
  "\u2581qu\u1ea3ng": 4342,
  "\u2581gewonnen": 4343,
  "\u2581Eigentlich": 4344,
  "\u2581Kurz": 4345,
  "\u2581Sinh": 4346,
  "\u2581ng\u1ea1o": 4347,
  "\u2581Milliarden": 4348,
  "\u2581f\u00fcrchten": 4349,
  "\u2581Achtung": 4350,
  "\u2581Matt": 4351,
  "\u2581Raus": 4352,
  "ling": 4353,
  "\u25812,": 4354,
  "\u2581Mai": 4355,
  "du": 4356,
  "\u2581tr\u1ea7m": 4357,
  "\u2581\u0111\u1eafn": 4358,
  "est": 4359,
  "\u2581b\u1edbt": 4360,
  "\u2581r\u1ed3ng": 4361,
  "\u2581\u0110\u01b0\u1eddng": 4362,
  "\u2581Zuhause": 4363,
  "\u2581andern": 4364,
  "\u2581f\u00fchlte": 4365,
  "\u2581wach": 4366,
  "\u258114:": 4367,
  "\u2581May": 4368,
  "\u25817,": 4369,
  "\u2581ch\u00ecm": 4370,
  "\u2581m\u00e9t": 4371,
  "\u2581nh\u1eafm": 4372,
  "\u2581Hi\u1ec3u": 4373,
  "\u2581Sy": 4374,
  "\u2581u\u1ebf": 4375,
  "\u258124:": 4376,
  "\u2581S\u1eb5n": 4377,
  "\u2581rechts": 4378,
  "\u2581somit": 4379,
  "\u2581gesetzt": 4380,
  "\u2581links": 4381,
  "ert": 4382,
  "gehen": 4383,
  "\u2581teilen": 4384,
  "\u2581Gar": 4385,
  "\u2581Gebot": 4386,
  "\u2581steckt": 4387,
  "\u2581Eins": 4388,
  "\u2581th\u00e1m": 4389,
  "\u2581\u0110\u1ee7": 4390,
  "\u2581l\u00e2n": 4391,
  "\u2581n\u00fat": 4392,
  "\u2581\u0111\u1ebfm": 4393,
  "gt": 4394,
  "ian": 4395,
  "\u2581kh\u00e9o": 4396,
  "\u2581l\u1ea1y": 4397,
  "\u2581offenbar": 4398,
  "\u258115:": 4399,
  "\u2581C\u1ea9": 4400,
  "\u2581Welches": 4401,
  "Ge": 4402,
  "\u2581USA": 4403,
  "\u2581l\u00f4ng": 4404,
  "\u2581thi\u1ec7p": 4405,
  "\u258137": 4406,
  "\u2581Kilometer": 4407,
  "\u2581h\u00e4ufig": 4408,
  "\u2581N\u1ea7y": 4409,
  "\u2581mu\u00f4": 4410,
  "\u2581ver\u00e4ndern": 4411,
  "\u2581\u1ee9c": 4412,
  "\u2581Feld": 4413,
  "\u2581Haut": 4414,
  "\u2581verraten": 4415,
  "\u2581Lord": 4416,
  "\u2581khuy": 4417,
  "\u2581F\u00e4higkeiten": 4418,
  "\u2581gaben": 4419,
  "\u2581verwendet": 4420,
  "\u2581gi\u00e1ng": 4421,
  "\u2581himmlischen": 4422,
  "\u2581m\u1ecdc": 4423,
  "\u2581video": 4424,
  "\u2581Gr\u00fcnde": 4425,
  "\u2581Wei\u00df": 4426,
  "\u2581Gi\u1ebft": 4427,
  "\u2581khinh": 4428,
  "\u2581Taten": 4429,
  "\u2581t\u1ee5": 4430,
  "\u2581c\u1ed9t": 4431,
  "\u2581enth\u00e4lt": 4432,
  "\u2581Dorf": 4433,
  "\u2581folgenden": 4434,
  "8": 4435,
  "\u2581F\u00fc\u00dfe": 4436,
  "\u2581ng\u1ef1c": 4437,
  "\u2581Handy": 4438,
  "\u2581redet": 4439,
  "...\"": 4440,
  "\u2581Seht": 4441,
  "\u2581passt": 4442,
  "\u2581H\u1ed3i": 4443,
  "\u2581Keiner": 4444,
  "\u2581h\u00e0": 4445,
  "\u2581traf": 4446,
  "gi\u1edd": 4447,
  "\u2581gelassen": 4448,
  "ley": 4449,
  "\u2581erz\u00e4hlte": 4450,
  "\u2581Allerdings": 4451,
  "\u2581gan": 4452,
  "\u2581ng\u1ecdt": 4453,
  "\u2581v\u1ea7y": 4454,
  "leben": 4455,
  "\u2581Fest": 4456,
  "\u2581taten": 4457,
  "\u2581C\u1eadp": 4458,
  "\u2581Thomas": 4459,
  "\u2581folgende": 4460,
  "\u2581lui": 4461,
  "\u2581setzt": 4462,
  "\u2581Agent": 4463,
  "\u2581Not": 4464,
  "\u2581bewegt": 4465,
  "\u2581neuer": 4466,
  "\u2581Gegend": 4467,
  "\u2581s\u01b0\u1edbng": 4468,
  "\u2581k\u00ed": 4469,
  "\u2581\u00e4hnlich": 4470,
  "\u2581bezug": 4471,
  "\u2581d\u1eaft": 4472,
  "\u2581h\u1ecfa": 4473,
  "\u00f4n": 4474,
  "\u2581Tats\u00e4chlich": 4475,
  "\u2581schwierig": 4476,
  "\u2581versuchte": 4477,
  "\u2581t\u0103m": 4478,
  "\u2581II": 4479,
  "\u2581Chu\u1ea9n": 4480,
  "\u2581Schlie\u00dflich": 4481,
  "\u2581reagieren": 4482,
  "\u2581vollkommen": 4483,
  "\u2581Ri": 4484,
  "\u2581fehlt": 4485,
  "\u2581gi\u00e0nh": 4486,
  "\u2581ng\u01b0\u1ee1ng": 4487,
  "\u2581schlechte": 4488,
  "\u2581Arschloch": 4489,
  "\u2581Hals": 4490,
  "\u2581V\u00ed": 4491,
  "\u2581verkaufen": 4492,
  "\u2581\u0110\u1ebf": 4493,
  "\u2581Dem": 4494,
  "\u2581leider": 4495,
  "ll": 4496,
  "\u2581%1": 4497,
  "\u2581Beispiele": 4498,
  "\u2581m\u00f2": 4499,
  "\u2581Krebs": 4500,
  "\u2581jung": 4501,
  "\u2581Folge": 4502,
  "\u2581Martin": 4503,
  "\u2581hasse": 4504,
  "\u2581\u0110\u1ed9i": 4505,
  "\u2581Schaden": 4506,
  "\u2581Tr\u1ea3": 4507,
  "\u2581fing": 4508,
  "\u2581n\u01b0\u01a1ng": 4509,
  "\u2581lebendig": 4510,
  "\u2581mehrere": 4511,
  "\u2581sobald": 4512,
  "\u2581DIE": 4513,
  "\u2581n\u1ed9p": 4514,
  "\u2581h\u00e8": 4515,
  "\u2581schreibt": 4516,
  "\u2581Welch": 4517,
  "\u2581schie\u00dfen": 4518,
  "\u2581m\u1ef1c": 4519,
  "\u2581weltweit": 4520,
  "\u2581Amerika": 4521,
  "\u2581Sollte": 4522,
  "ok": 4523,
  "\u2581neun": 4524,
  "\u2581B\u00f6sen": 4525,
  "\u2581aussehen": 4526,
  "ku": 4527,
  "\u2581Herrscher": 4528,
  "\u2581Mission": 4529,
  "\u2581r": 4530,
  "ard": 4531,
  "\u2581Holz": 4532,
  "\u2581Minute": 4533,
  "\u2581Sprachen": 4534,
  "H\u1ee1i": 4535,
  "\u2581m\u00e2y": 4536,
  "\u25819:": 4537,
  "\u2581p": 4538,
  "fi": 4539,
  "\u2581folgt": 4540,
  "\u2581ng\u01b0ng": 4541,
  "\u2581c\u1ef1": 4542,
  "\u2581wohin": 4543,
  "\u2581D\u00f9ng": 4544,
  "\u2581T\u1ee5i": 4545,
  "\u2581r\u1ee7a": 4546,
  "7": 4547,
  "up": 4548,
  "\u25818,": 4549,
  "\u2581St\u00e4dte": 4550,
  "\u2581gearbeitet": 4551,
  "\u2581Lee": 4552,
  "\u2581Nick": 4553,
  "\u2581Sch\u00f6pfung": 4554,
  "\u2581gr\u00f6\u00dften": 4555,
  "\u2581Wozu": 4556,
  "\u2581c\u00e1t": 4557,
  "\u2581Position": 4558,
  "\u2581Aaron": 4559,
  "\u2581Dan": 4560,
  "\u2581Dave": 4561,
  "\u2581Hirten": 4562,
  "\u2581ch\u01b0\u1edbc": 4563,
  "\u2581half": 4564,
  "\u2581Aussage": 4565,
  "\u2581standen": 4566,
  "\u2581\u0111\u1ef1c": 4567,
  "\u2581Se": 4568,
  "\u2581besorgt": 4569,
  "\u2581nha": 4570,
  "we": 4571,
  "\u2581Ehemann": 4572,
  "\u2581traurig": 4573,
  "\u2581\u1ed4n": 4574,
  "fahren": 4575,
  "\u2581schlimm": 4576,
  "\u2581Gr\u00f6\u00dfe": 4577,
  "\u2581b\u00f6sen": 4578,
  "\u2581richten": 4579,
  "\u2581werfen": 4580,
  "\u2581Idiot": 4581,
  "\u2581dachten": 4582,
  "\u2581lehren": 4583,
  "\u2581Verzeihung": 4584,
  "\u2581ganzes": 4585,
  "\u2581zufrieden": 4586,
  "\u2581T\u00e4tigkeit": 4587,
  "\u2581H\u1ea7u": 4588,
  "\u2581Kh\u00e1": 4589,
  "\u2581Sp\u00e4ter": 4590,
  "\u2581T\u00edn": 4591,
  "\u2581bia": 4592,
  "\u2581heim": 4593,
  "\u2581t\u00f9ng": 4594,
  "\u2581F\u00e4higkeit": 4595,
  "\u2581Vorsicht": 4596,
  "\u2581h\u00e4ngt": 4597,
  "\u2581kannte": 4598,
  "ak": 4599,
  "lichen": 4600,
  "\u2581L\u1ebd": 4601,
  "\u2581Richard": 4602,
  "\u2581Verstand": 4603,
  "\u2581khung": 4604,
  "m\u00f4n": 4605,
  "\u2581Heiden": 4606,
  "\u2581d": 4607,
  "\u258117:": 4608,
  "\u2581Bibelstudium": 4609,
  "\u2581legte": 4610,
  "\u2581\u0111\u1ebb": 4611,
  "ine": 4612,
  "vor": 4613,
  "\u2581Spr\u00fcche": 4614,
  "\u2581Herde": 4615,
  "\u2581Zeitpunkt": 4616,
  "\u2581hi\u1ebfm": 4617,
  "\u2581me": 4618,
  "\u2581d\u0169ng": 4619,
  "\u2581halt": 4620,
  "\u2581Freundschaft": 4621,
  "\u2581abge": 4622,
  "\u2581Schlag": 4623,
  "\u2581jener": 4624,
  "ier": 4625,
  "\u2581Chef": 4626,
  "\u2581erweisen": 4627,
  "\u2581st\u00e4rker": 4628,
  "Ma": 4629,
  "\u2581Volkes": 4630,
  "\u2581schwach": 4631,
  "\u2581Einsatz": 4632,
  "\u2581bieten": 4633,
  "\u2581eindeutig": 4634,
  "\u2581herausfinden": 4635,
  "\u2581tr\u1eebng": 4636,
  "Nein": 4637,
  "\u2581Vogel": 4638,
  "anh": 4639,
  "\u2581Grenzen": 4640,
  "\u2581lief": 4641,
  "\u2581angerufen": 4642,
  "\u2581m\u00fcsst": 4643,
  "\u2581wom\u00f6glich": 4644,
  "Gott": 4645,
  "hu": 4646,
  "\u01b0\u1edbc": 4647,
  "\u2581Tony": 4648,
  "\u2581ho": 4649,
  "\u2581m\u00fcsste": 4650,
  "\u2581wussten": 4651,
  "\u2581l\u1ee1": 4652,
  "iger": 4653,
  "\u2581Ch\u1edb": 4654,
  "\u2581Th\u1eed": 4655,
  "\u2581g\u1edbm": 4656,
  "\u2581hinzu": 4657,
  "\u2581Bed\u00fcrfnisse": 4658,
  "\u2581Verhei\u00dfung": 4659,
  "\u2581treue": 4660,
  "iter": 4661,
  "\u2581Messias": 4662,
  "\u2581d\u1eb9p": 4663,
  "\u2581zerst\u00f6ren": 4664,
  "\u2581Lust": 4665,
  "\u2581Ton": 4666,
  "\u2581ergeben": 4667,
  "ang": 4668,
  "\u2581gestohlen": 4669,
  "stand": 4670,
  "\u2581Gabe": 4671,
  "\u2581Zur": 4672,
  "\u2581erfolgreich": 4673,
  "lin": 4674,
  "\u2581Don": 4675,
  "\u2581Lady": 4676,
  "\u2581Le": 4677,
  "\u2581Entschuldigen": 4678,
  "rie": 4679,
  "\u2581Leib": 4680,
  "\u2581Welchen": 4681,
  "ff": 4682,
  "\u2581Glaubst": 4683,
  "\u2581Klappe": 4684,
  "\u2581Projekt": 4685,
  "\u2581s\u00ea": 4686,
  "\u2581Dich": 4687,
  "\u2581Ho\u00e0n": 4688,
  "\u2581Sch\u00fcler": 4689,
  "\u2581aufhalten": 4690,
  "\u2581erledigt": 4691,
  "\u2581sch\u00e4tze": 4692,
  "\u2581Armen": 4693,
  "\u2581N\u1eef": 4694,
  "\u2581gr\u00f6\u00dfere": 4695,
  "\u2581sung": 4696,
  "\u2581Grunds\u00e4tze": 4697,
  "\u2581l\u00f2": 4698,
  "\u2581l\u01b0\u1ee3t": 4699,
  "\u2581Bereich": 4700,
  "ti": 4701,
  "\u2581Hi\u1ec7p": 4702,
  "\u2581Lo": 4703,
  "\u2581Schicksal": 4704,
  "\u2581Taufe": 4705,
  "\u2581bestehen": 4706,
  "\u2581gehorchen": 4707,
  "\u2581Angriff": 4708,
  "\u2581d\u00ea": 4709,
  "\u2581Herausforderung": 4710,
  "pf": 4711,
  "\u2581L\u00e3nh": 4712,
  "\u2581dringend": 4713,
  "\u2581erster": 4714,
  "\u2581nachdenken": 4715,
  "\u2581\u00c4rger": 4716,
  "ende": 4717,
  "\u2581Deswegen": 4718,
  "\u2581T\u01b0": 4719,
  "\u2581c\u1ed1c": 4720,
  "\u2581V\u1ee5": 4721,
  "\u2581irgendetwas": 4722,
  "\u2581l\u00faa": 4723,
  "\u2581lo\u1ea1t": 4724,
  "\u2581uy": 4725,
  "\u2581c\u1eafn": 4726,
  "\u2581d\u1eb7n": 4727,
  "\u2581eigenes": 4728,
  "\u2581tr\u00fa": 4729,
  "\u2581einzigen": 4730,
  "\u2581solch": 4731,
  "\u2581t\u00e0ng": 4732,
  "\u2581Timotheus": 4733,
  "\u2581k\u0129": 4734,
  "\u2581L\u00fd": 4735,
  "\u2581Wissenschaftler": 4736,
  "\u2581befreien": 4737,
  "\u2581g\u1ea1t": 4738,
  "\u2581redest": 4739,
  "\u2581solches": 4740,
  "\u2581Silber": 4741,
  "\u2581t\u1ed1ng": 4742,
  "\u2581Gebote": 4743,
  "\u2581Weib": 4744,
  "\u2581W\u00fcste": 4745,
  "\u2581verfolgt": 4746,
  "\u2581\u00bb": 4747,
  "\u2581Ar": 4748,
  "\u2581ng\u0169": 4749,
  "\u2581ran": 4750,
  "\u2581Trost": 4751,
  "\u2581Dach": 4752,
  "\u2581Simon": 4753,
  "\u2581geboten": 4754,
  "no": 4755,
  "\u2581r\u00fcber": 4756,
  "\u2581\u00e4h": 4757,
  "\u2581\u0102n": 4758,
  "iere": 4759,
  "\u2581suche": 4760,
  "ungs": 4761,
  "\u2581Gegenwart": 4762,
  "\u2581gieo": 4763,
  "\u2581m\u00fcde": 4764,
  "\u2581\u00c1": 4765,
  "\u2581Maschine": 4766,
  "\u2581Wen": 4767,
  "\u2581kalt": 4768,
  "\u2581\u0110\u00e2u": 4769,
  "\u2581Zunge": 4770,
  "\u2581tr\u1ee9ng": 4771,
  "lu": 4772,
  "\u2581Egal": 4773,
  "\u2581Einfluss": 4774,
  "\u2581Samen": 4775,
  "\u2581gesegnet": 4776,
  "\u2581s\u1ee3i": 4777,
  "\u2581h\u1ed3ng": 4778,
  "\u2581w\u00fctend": 4779,
  "\u2581gewisse": 4780,
  "\u2581verdienen": 4781,
  "\u2581Einzige": 4782,
  "\u2581no": 4783,
  "\u2581Berge": 4784,
  "\u2581Ideen": 4785,
  "\u2581Jakob": 4786,
  "\u2581fangen": 4787,
  "cht": 4788,
  "\u2581H\u00e4tte": 4789,
  "\u2581Vui": 4790,
  "\u2581c\u01b0\u1eddng": 4791,
  "\u2581geistig": 4792,
  "sche": 4793,
  "\u2581Drangsal": 4794,
  "\u2581Verf\u00fcgung": 4795,
  "\u2581Entschuldige": 4796,
  "\u2581co": 4797,
  "\u2581s\u1ee5p": 4798,
  "\u2581N\u00e0ng": 4799,
  "\u2581leichter": 4800,
  "\u2581Washington": 4801,
  "\u2581hi\u1ebfp": 4802,
  "\u2581\u0111\u0129a": 4803,
  "\u2581Vision": 4804,
  "\u2581s\u1eefa": 4805,
  "\u2581zogen": 4806,
  "\u2581Predigen": 4807,
  "\u2581Gi\u00e1ng": 4808,
  "\u2581R\u00f6mer": 4809,
  "\u2581behandeln": 4810,
  "\u2581brachten": 4811,
  "\u2581leiten": 4812,
  "\u2581Dabei": 4813,
  "\u2581Well": 4814,
  "\u2581c\u1edfi": 4815,
  "\u2581junger": 4816,
  "\u2581Gemeinde": 4817,
  "\u2581Grab": 4818,
  "\u2581Norden": 4819,
  "\u2581Pferd": 4820,
  "\u2581c\u00f3c": 4821,
  "tag": 4822,
  "\u2581Chris": 4823,
  "\u2581erleben": 4824,
  "end": 4825,
  "\u2581Brooklyn": 4826,
  "\u2581Systems": 4827,
  "\u2581Zeitung": 4828,
  "\u2581ng\u1ea7m": 4829,
  "\u2581niemanden": 4830,
  "\u2581t\u00e1o": 4831,
  "\u2581Sommer": 4832,
  "\u2581chuy\u00ea": 4833,
  "\u2581phe": 4834,
  "\u2581Ne": 4835,
  "\u2581tr\u1ee5c": 4836,
  "\u2581Wieder": 4837,
  "\u2581gebeten": 4838,
  "\u2581lernte": 4839,
  "\u2581tri\u1ec1u": 4840,
  "Nh\u1eefng": 4841,
  "\u2581Gesetze": 4842,
  "\u2581erlangen": 4843,
  "innen": 4844,
  "H\u1eb3n": 4845,
  "\u2581Barmherzigkeit": 4846,
  "\u2581Denk": 4847,
  "\u2581eurer": 4848,
  "\u2581lediglich": 4849,
  "\u2581v\u00f5": 4850,
  "\u2581Aufgaben": 4851,
  "\u2581Riesen": 4852,
  "\u2581Sekunde": 4853,
  "\u2581Tr\u1eeb": 4854,
  "\u2581Christenheit": 4855,
  "\u2581J\u00fcngern": 4856,
  "\u2581erlebt": 4857,
  "\u2581r\u1ed9n": 4858,
  "\u2581Behandlung": 4859,
  "\u2581Grundlage": 4860,
  "\u2581so\u1ea1n": 4861,
  "\u2581v\u1ea9n": 4862,
  "\u2581\u00e1t": 4863,
  "\u2581Geduld": 4864,
  "\u2581M\u00fche": 4865,
  "\u25815,": 4866,
  "\u2581N\u00e8": 4867,
  "\u2581hei\u00dfe": 4868,
  "\u2581\u1edc": 4869,
  "\u2581Bildnachweis": 4870,
  "\u2581Danach": 4871,
  "\u2581gebrauchen": 4872,
  "v\u00e0": 4873,
  "\u2581Francis": 4874,
  "\u2581dorthin": 4875,
  "\u2581perfekt": 4876,
  "\u2581verkauft": 4877,
  "\u25a0": 4878,
  "\u2581China": 4879,
  "\u2581Qu\u00e2n": 4880,
  "\u2581Treue": 4881,
  "\u2581Unfall": 4882,
  "\u2581schlug": 4883,
  "form": 4884,
  "\u2581Ring": 4885,
  "\u2581h\u00e8n": 4886,
  "\u2581betrachtet": 4887,
  "\u2581f\u00fcrchte": 4888,
  "\u2581l\u1ecdc": 4889,
  "za": 4890,
  "\u2581Steve": 4891,
  "\u2581annehmen": 4892,
  "\u2581k\u1ec9": 4893,
  "ant": 4894,
  "\u2581Arthur": 4895,
  "\u2581Josua": 4896,
  "ow": 4897,
  "\u2581Wiedersehen": 4898,
  "\u2581g\u1ee1": 4899,
  "\u2581l\u00edp": 4900,
  "\u2581l\u00eca": 4901,
  "\u2581empfangen": 4902,
  "\u2581erhielt": 4903,
  "cho": 4904,
  "\u2581F\u00fcnf": 4905,
  "\u2581Sand": 4906,
  "\u2581Schatten": 4907,
  "\u2581lehrt": 4908,
  "\u2581schuldig": 4909,
  "ium": 4910,
  "\u2581Ch\u1ed7": 4911,
  "\u2581tuy\u1ebft": 4912,
  "\u2581Thanh": 4913,
  "\u2581Th\u01b0": 4914,
  "\u2581Universum": 4915,
  "\u2581Ziele": 4916,
  "RANG": 4917,
  "\u00fcber": 4918,
  "\u2581xoay": 4919,
  "\u2581Mich": 4920,
  "\u2581sorgt": 4921,
  "\u2581Haar": 4922,
  "\u2581Urteil": 4923,
  "\u2581m\u01b0\u1ee3n": 4924,
  "\u2581Gegensatz": 4925,
  "\u2581Verfolgung": 4926,
  "\u2581Wortes": 4927,
  "\u2581wachsen": 4928,
  "gekommen": 4929,
  "\u2581Mexico": 4930,
  "\u2581tr\u00e0": 4931,
  "\u2581dumm": 4932,
  "\u2581Bring": 4933,
  "\u2581Po": 4934,
  "\u2581einge": 4935,
  "\u2581irgendwann": 4936,
  "\u2581leo": 4937,
  "\u2581th\u01b0\u1edbc": 4938,
  "mm": 4939,
  "\u2581Erkl\u00e4rung": 4940,
  "\u2581schwere": 4941,
  "sh": 4942,
  "ziehen": 4943,
  "\u2581Mond": 4944,
  "\u2581vollst\u00e4ndig": 4945,
  "\u2581Vorsatz": 4946,
  "\u2581huynh": 4947,
  "\u2581Ro": 4948,
  "\u2581fern": 4949,
  "\u2581~": 4950,
  "\u2581Friedens": 4951,
  "\u2581Lesen": 4952,
  "\u2581m\u1ed9ng": 4953,
  "Da": 4954,
  "igkeit": 4955,
  "\u2581Tommy": 4956,
  "\u2581ch\u01a1n": 4957,
  "ion": 4958,
  "\u2581beschrieben": 4959,
  "\u2581geistiger": 4960,
  "\u2581Tasche": 4961,
  "\u2581d\u1ea1o": 4962,
  "\u2581n\u01b0": 4963,
  "c\u00e1c": 4964,
  "\u258121.": 4965,
  "\u2581Glas": 4966,
  "\u2581Ngh\u0129a": 4967,
  "\u2581Vergleiche": 4968,
  "\u2581pers\u00f6nliche": 4969,
  "\u2581verlangt": 4970,
  "uch": 4971,
  "\u2581Bezug": 4972,
  "\u2581Regel": 4973,
  "\u2581Ti\u1ec1n": 4974,
  "\u2581Wand": 4975,
  "\u2581gesucht": 4976,
  "\u2581thao": 4977,
  "\u2581Zeitschrift": 4978,
  "\u2581eingeladen": 4979,
  "\u2581v\u00e9": 4980,
  "tisch": 4981,
  "\u2019": 4982,
  "\u2581Or": 4983,
  "\u2581bessere": 4984,
  "\u2581m\u0169": 4985,
  "ismus": 4986,
  "\u2581Phoebe": 4987,
  "\u2581Tee": 4988,
  "So": 4989,
  "Ihr": 4990,
  "ina": 4991,
  "\u2581Schmerzen": 4992,
  "\u2581g\u00f3a": 4993,
  "\u2581m\u1ea7y": 4994,
  "\u2581sauber": 4995,
  "\u2581#": 4996,
  "\u2581Verbrechen": 4997,
  "\u2581th\u1ecbnh": 4998,
  "j": 4999,
  "it\u00e4t": 5000,
  "\u2581H\u1ea1": 5001,
  "\u2581\u00fcbertragen": 5002,
  "\u2581Generation": 5003,
  "\u2581TV": 5004,
  "Jehova": 5005,
  "\u2581D\u00e4monen": 5006,
  "\u2581Sobald": 5007,
  "\u2581G\u00e3": 5008,
  "\u2581Kongress": 5009,
  "\u2581Ph\u00fac": 5010,
  "\u2581Rache": 5011,
  "ers": 5012,
  "\u2581Jordan": 5013,
  "\u2581b\u00e1m": 5014,
  "\u2581hundert": 5015,
  "\u2581Krankheiten": 5016,
  "\u2581gi\u00e1n": 5017,
  "\u2581Trotzdem": 5018,
  "\u2581freundlich": 5019,
  "ag": 5020,
  "\u2581himmlische": 5021,
  "\u2581Sofort": 5022,
  "lichkeit": 5023,
  "\u2581rechten": 5024,
  "ck": 5025,
  "\u2581Kevin": 5026,
  "\u2581Nathan": 5027,
  "\u2581TCN": 5028,
  "\u2581Anleitung": 5029,
  "\u2581Gegenteil": 5030,
  "\u2581Herzens": 5031,
  "\u2581\u1ed5": 5032,
  "\u2581Beim": 5033,
  "\u2581\u00d0o\u1ea1n": 5034,
  "les": 5035,
  "\u2581Babylon": 5036,
  "\u2581Gegen": 5037,
  "\u2581K\u00f6nigreiches": 5038,
  "\u2581d\u1ecdc": 5039,
  "\u2581mitten": 5040,
  "\u2581super": 5041,
  "igt": 5042,
  "\u2581ange": 5043,
  "\u2581Jesse": 5044,
  "\u2581Seung": 5045,
  "\u2581Tausende": 5046,
  "\u2581m\u00f6glicherweise": 5047,
  "\u2581th\u00e1p": 5048,
  "legen": 5049,
  "\u2581Tay": 5050,
  "\u2581entweder": 5051,
  "\u2581geschlagen": 5052,
  "\u2581Hotel": 5053,
  "\u2581Kamera": 5054,
  "\u2581entlang": 5055,
  "\u2581hoffen": 5056,
  "\u2581v\u1edb": 5057,
  "X": 5058,
  "au": 5059,
  "\u2581Mar": 5060,
  "\u2581gh\u00e9": 5061,
  "\u2581m\u1ed3m": 5062,
  "\u2581sch\u00f6nen": 5063,
  "r\u01a1": 5064,
  "\u2581West": 5065,
  "\u2581gegenw\u00e4rtigen": 5066,
  "\u2581ng\u1ef1": 5067,
  "\u2581rufe": 5068,
  "tra": 5069,
  "\u2581Erbe": 5070,
  "\u2581Jeremia": 5071,
  "\u2581Test": 5072,
  "\u2581Vergleich": 5073,
  "\u2581tr\u00fang": 5074,
  "elt": 5075,
  "\u2581Angebot": 5076,
  "\u2581h": 5077,
  "\u2581Altar": 5078,
  "\u2581Anwalt": 5079,
  "\u2581Unrecht": 5080,
  "\u2581gebrochen": 5081,
  "\u2581s\u00e0n": 5082,
  "geschichte": 5083,
  "hm": 5084,
  "\u2581Angesicht": 5085,
  "\u2581Bord": 5086,
  "\u2581Heer": 5087,
  "\u2581g\u00e3y": 5088,
  "\u2581th\u00f4": 5089,
  "\u2581v\u1ea3": 5090,
  "\u258134": 5091,
  "\u2581angefangen": 5092,
  "\u2581normal": 5093,
  "\u2581{\\": 5094,
  "\u2581bem\u00fchen": 5095,
  "\u2581besondere": 5096,
  "ei": 5097,
  "ron": 5098,
  "\u00e4ng": 5099,
  "\u2581Geburtstag": 5100,
  "\u2581Gi\u1ea3i": 5101,
  "\u2581Labor": 5102,
  "\u2581Bescheid": 5103,
  "\u2581sieh": 5104,
  "\u2581Tim": 5105,
  "\u2581v\u1ecf": 5106,
  "\u2581\u0111\u1eddn": 5107,
  "\u2581B\u00e1o": 5108,
  "\u2581Pro": 5109,
  "\u2581Thron": 5110,
  "\u2581nh\u00e2": 5111,
  "ud": 5112,
  "\u2581Anruf": 5113,
  "\u2581C\u1ea7u": 5114,
  "\u2581Heilige": 5115,
  "\u2581selber": 5116,
  "\u2581tri\u1ebft": 5117,
  "!\u201c": 5118,
  "\u2581h\u1eadn": 5119,
  "\u2581th\u1ea5u": 5120,
  "\u2581m\u1edd": 5121,
  "\u2581gleichzeitig": 5122,
  "\u2581h\u1ea1ng": 5123,
  "\u2581lam": 5124,
  "\u2581x\u00f3m": 5125,
  "gi": 5126,
  "\u2581befreit": 5127,
  "\u2581h\u00e9t": 5128,
  "\u2581KDE": 5129,
  "\u2581\u0110\u00eam": 5130,
  "\u2581Grenze": 5131,
  "\u2581Versprechen": 5132,
  "\u2581t\u1ecbch": 5133,
  "ai": 5134,
  "\u2581existiert": 5135,
  "\u2581su\u1ea5t": 5136,
  "rin": 5137,
  "\u2581Queen": 5138,
  "\u2581Erden": 5139,
  "\u2581Neues": 5140,
  "\u2581au\u00dferhalb": 5141,
  "\u2581gi\u00e3n": 5142,
  "\u2581Monster": 5143,
  "\u2581ti\u00ea": 5144,
  "Ph\u1ee5c": 5145,
  "\u258116,": 5146,
  "\u2581Prozess": 5147,
  "\u2581befinden": 5148,
  "\u2581mu\u00dfte": 5149,
  "zen": 5150,
  "\u2581Lied": 5151,
  "\u2581abzu": 5152,
  "ey": 5153,
  "per": 5154,
  "\u0111\u1ebfn": 5155,
  "\u2581bisher": 5156,
  "\u00e4h": 5157,
  "\u2581Jane": 5158,
  "\u2581selten": 5159,
  "\u2581tr\u1eef": 5160,
  "\u2581Dennoch": 5161,
  "\u2581Umst\u00e4nden": 5162,
  "\u2581Ergebnis": 5163,
  "\u2581Witz": 5164,
  "\u2581h\u00ea": 5165,
  "\u2581s\u1ef9": 5166,
  "\u2581\u0110\u00e1nh": 5167,
  "schen": 5168,
  "\u2581Umgebung": 5169,
  "\u2581meint": 5170,
  "\u2581zumindest": 5171,
  "w\u00e4": 5172,
  "\u2581dauert": 5173,
  "\u2581d\u1eaby": 5174,
  "zer": 5175,
  "\u2581Datei": 5176,
  "\u2581Rose": 5177,
  "\u2581religi\u00f6sen": 5178,
  "\u2581\u0111\u00e1o": 5179,
  "\u258111,": 5180,
  "\u2581tausend": 5181,
  "\u2581wenigstens": 5182,
  "\u2581Detective": 5183,
  "\u2581Jugend": 5184,
  "\u2581Schul": 5185,
  "\u2581Welcher": 5186,
  "gegangen": 5187,
  "\u2581Ng\u00f4i": 5188,
  "\u2581c\u1ed1p": 5189,
  "\u2581letzter": 5190,
  "\u2581Erinnerung": 5191,
  "\u2581t\u1ee7": 5192,
  "\u2581Gi\u1edbi": 5193,
  "\u2581ch\u1ecdc": 5194,
  "\u2581entschuldigen": 5195,
  "#224;": 5196,
  "chi": 5197,
  "\u2581Thuy\u1ec1n": 5198,
  "\u2581brechen": 5199,
  "\u2581Bu\u1ed5i": 5200,
  "\u2581gezogen": 5201,
  "\u2581glaub": 5202,
  "\u2581s\u00fac": 5203,
  "\u2581Wesen": 5204,
  "\u2581Wilson": 5205,
  "\u2581ru\u1ed9t": 5206,
  "\u2581L\u00e4nder": 5207,
  "\u258116:": 5208,
  "\u2581Kleidung": 5209,
  "\u2581M\u1eddi": 5210,
  "\u2581\u00fcbel": 5211,
  "\u2581\u0110\u00e0n": 5212,
  "\u2581\u0111\u1ec7": 5213,
  "J\u00easus": 5214,
  "\u2581Schlacht": 5215,
  "\u2581ph\u00f4": 5216,
  "\u2581v\u00e2n": 5217,
  "\u258118:": 5218,
  "\u2581H\u1ea3": 5219,
  "\u2581Laut": 5220,
  "\u2581erlaubt": 5221,
  "\u2581n\u1ed9": 5222,
  "\u2581Scott": 5223,
  "\u2581danken": 5224,
  "\u2581t\u1ecb": 5225,
  "\u2581B\u1ec7nh": 5226,
  "\u2581Besitz": 5227,
  "\u2581redete": 5228,
  "\u2581King": 5229,
  "\u2581Sch\u00f6nheit": 5230,
  "\u2581g\u1edfi": 5231,
  "\u2581verschwunden": 5232,
  "\u2581Afrika": 5233,
  "\u2581Volksmenge": 5234,
  "\u2581Xe": 5235,
  "\u2581brauchte": 5236,
  "art": 5237,
  "\u2581Erf\u00fcllung": 5238,
  "\u2581kennenzulernen": 5239,
  "\u2581\u00fcberlegen": 5240,
  "\u2581Hoch": 5241,
  "\u2581L\u00fcgen": 5242,
  "\u2581d\u1ecbu": 5243,
  "\u2581tr\u1ea1m": 5244,
  "\u2581Gem\u00e4\u00df": 5245,
  "\u2581Kh\u1ed1n": 5246,
  "\u2581h\u00f6rten": 5247,
  "\u2581\u00f4m": 5248,
  "\u2581\u1ea2nh": 5249,
  "\u2581irgendwelche": 5250,
  "\u2581kh\u00e1i": 5251,
  "\u00c4": 5252,
  "\u2581ben\u00f6tigen": 5253,
  "\u2581darfst": 5254,
  "\u2581TED": 5255,
  "\u00f6r": 5256,
  "\u2581Aufseher": 5257,
  "\u2581M\u00e1c": 5258,
  "\u2581antworten": 5259,
  "\u2581th": 5260,
  "\u2581Ereignisse": 5261,
  "\u2581T\u00f2a": 5262,
  "\u2581Wovon": 5263,
  "\u2581wisst": 5264,
  "werk": 5265,
  "\u2581Loch": 5266,
  "\u2581Technologie": 5267,
  "S\u1ef1": 5268,
  "\u2581Gleichnis": 5269,
  "\u2581Unterhaltung": 5270,
  "\u2581hole": 5271,
  "\u2581Sherlock": 5272,
  "\u2581V\u00f4": 5273,
  "\u2581Doug": 5274,
  "\u2581F\u00fchrung": 5275,
  "\u2581aufmerksam": 5276,
  "\u2581geraten": 5277,
  "\u2581r\u00e3i": 5278,
  "\u2581t\u00e4tig": 5279,
  "\u2581Halten": 5280,
  "\u2581nu\u1ed1t": 5281,
  "hand": 5282,
  "\u2581Ausgabe": 5283,
  "\u2581Beginn": 5284,
  "\u2581Xong": 5285,
  "\u2581dem\u00fctig": 5286,
  "\u2581konzentrieren": 5287,
  "v\u00edt": 5288,
  "\u2581Angeh\u00f6rigen": 5289,
  "\u2581Neue": 5290,
  "\u2581V\u1ecb": 5291,
  "\u2581eingesetzt": 5292,
  "bo": 5293,
  "tan": 5294,
  "\u2581Alkohol": 5295,
  "\u2581DNA": 5296,
  "\u2581Vier": 5297,
  "\u2581erwischt": 5298,
  "hin": 5299,
  "\u2581Bald": 5300,
  "\u2581ausge": 5301,
  "\u2581tr\u01b0\u1ee3t": 5302,
  "\u2581t\u00ea": 5303,
  "\u2581verbringen": 5304,
  "\u2581Papier": 5305,
  "\u2581funktionieren": 5306,
  "ging": 5307,
  "stein": 5308,
  "su": 5309,
  "\u258121:": 5310,
  "\u2581Sich": 5311,
  "\u2581betete": 5312,
  "\u2581Solche": 5313,
  "\u2581eurem": 5314,
  "ale": 5315,
  "\u2581ermordet": 5316,
  "plan": 5317,
  "\u2581Khung": 5318,
  "\u2581Ungl\u00fcck": 5319,
  "\u2581d\u00e0y": 5320,
  "\u2581wirken": 5321,
  "\u2581Me": 5322,
  "raum": 5323,
  "\u2581Kate": 5324,
  "\u2581Linie": 5325,
  "\u2581eingestellt": 5326,
  "\u2581Leiche": 5327,
  "\u2581Stamm": 5328,
  "\u2581T\u00f6chter": 5329,
  "\u2581verursacht": 5330,
  "\u2581Nachkommen": 5331,
  "\u2581th\u1ec9nh": 5332,
  "\u2581treten": 5333,
  "\u2581Sieg": 5334,
  "\u2581Warnung": 5335,
  "\u2581Winter": 5336,
  "\u2581leitende": 5337,
  "\u2581Umgang": 5338,
  "\u2581aussieht": 5339,
  "ierte": 5340,
  "\u2581Eifer": 5341,
  "\u2581Fluss": 5342,
  "\u2581Jakobus": 5343,
  "\u2581herein": 5344,
  "\u2581lasst": 5345,
  "\u2581m\u1eadp": 5346,
  "\u2581verdammte": 5347,
  "\u2581\u00e4u\u00dferst": 5348,
  "tes": 5349,
  "\u2581Van": 5350,
  "\u2581gerichtet": 5351,
  "\u2581Autorit\u00e4t": 5352,
  "\u2581Kirchen": 5353,
  "\u2581Treffen": 5354,
  "ki": 5355,
  "\u2581l\u00e1nh": 5356,
  "\u2581nimm": 5357,
  "\u2581\u01af\u1edbc": 5358,
  "machen": 5359,
  "\u2581C\u1ed9ng": 5360,
  "if": 5361,
  "\u2581Medizin": 5362,
  "\u2581hei\u00df": 5363,
  "zukommen": 5364,
  "\u2581H\u00e4user": 5365,
  "\u2581d\u00e1ng": 5366,
  "\u2581unterhalten": 5367,
  "\u2581Ball": 5368,
  "\u2581Kleider": 5369,
  "\u2581Kultur": 5370,
  "\u2581n\u00ea": 5371,
  "\u2581c\u1ed1t": 5372,
  "\u2581versteht": 5373,
  "setzen": 5374,
  "\u2581bewu\u00dft": 5375,
  "\u2581hielten": 5376,
  "\u2581religi\u00f6se": 5377,
  "\u2581Bruce": 5378,
  "\u2581Einfach": 5379,
  "\u2581Ti\u1ebfng": 5380,
  "\u2581heran": 5381,
  "\u2581m\u1ea1n": 5382,
  "\u2581Hut": 5383,
  "\u2581m\u1ecfng": 5384,
  "\u2581stecken": 5385,
  "\u2581versteckt": 5386,
  "\u2581x\u1ea1": 5387,
  "\u2581Nase": 5388,
  "\u2581Rechte": 5389,
  "\u2581truy\u1ec7n": 5390,
  "\u2581Anzahl": 5391,
  "\u2581auszu": 5392,
  "\u2581dritten": 5393,
  "\u2581gib": 5394,
  "\u2581interessant": 5395,
  "eine": 5396,
  "\u2581Fortschritte": 5397,
  "\u2581Messer": 5398,
  "\u2581Schauen": 5399,
  "\u2581Walt": 5400,
  "\u2581schien": 5401,
  "\u2581th\u1ed5": 5402,
  "\u2581Bus": 5403,
  "\u2581erledigen": 5404,
  "\u2581verurteilt": 5405,
  "\u2581Hank": 5406,
  "\u2581Segnungen": 5407,
  "\u2581k\u00fcmmert": 5408,
  "\u2581langen": 5409,
  "\u2581\u00dcberraschung": 5410,
  "\u2581Hilf": 5411,
  "\u2581aufgrund": 5412,
  "\u2581beenden": 5413,
  "\u2581b\u00ec": 5414,
  "\u2581\u00c2m": 5415,
  "\u2581Ed": 5416,
  "\u2581Truy\u1ec1n": 5417,
  "\u2581cu\u1ed9n": 5418,
  "\u2581stehe": 5419,
  "\u2581Leider": 5420,
  "\u2581Damen": 5421,
  "\u2581Fisch": 5422,
  "\u2581Zahlen": 5423,
  "\u2581\u0111u\u00f4i": 5424,
  "\u2581Einladung": 5425,
  "\u2581Kon": 5426,
  "\u2581pers\u00f6nlichen": 5427,
  "\u2581Widerstand": 5428,
  "\u2581gro\u00dfartig": 5429,
  "\u2581vong": 5430,
  "\u2581\u0110": 5431,
  "stellen": 5432,
  "the": 5433,
  "\u2581St\u00e4rke": 5434,
  "mon": 5435,
  "r\u00f4n": 5436,
  "\u2581Nahrung": 5437,
  "\u258114,": 5438,
  "\u2581H\u00e0nh": 5439,
  "\u2581Pr\u00e4sidenten": 5440,
  "\u2581V\u00e4ter": 5441,
  "\u2581nah": 5442,
  "\u258119:": 5443,
  "\u2581Kleine": 5444,
  "\u2581Teile": 5445,
  "\u2581US": 5446,
  "\u2581gesandt": 5447,
  "\u2581geschlossen": 5448,
  "\u2581kriegt": 5449,
  "\u2581mutig": 5450,
  "\u2581s\u00fc\u00df": 5451,
  "\u2581Kurs": 5452,
  "\u2581Th\u1ea3": 5453,
  "\u2581Fahr": 5454,
  "\u2581Leitung": 5455,
  "\u2581Mauer": 5456,
  "\u2581Reichtum": 5457,
  "\u2581Stich": 5458,
  "\u2581Tr\u00e4nen": 5459,
  "\u2581Walter": 5460,
  "\u2581gegenseitig": 5461,
  "san": 5462,
  "\u2581Runter": 5463,
  "\u2581Trotz": 5464,
  "\u2581kaputt": 5465,
  "\u2581seht": 5466,
  "\u2581st\u00e4rken": 5467,
  "\u2581vorbereitet": 5468,
  "\u2581Indien": 5469,
  "\u2581Cao": 5470,
  "\u2581Liebling": 5471,
  "\u2581Star": 5472,
  "\u2581dient": 5473,
  "\u2581verfolgen": 5474,
  "\u2581willkommen": 5475,
  "\u2581\u00dcberzeugung": 5476,
  "\u2581D\u01b0\u1edbi": 5477,
  "\u2581K\u00f6rperschaft": 5478,
  "\u2581bring": 5479,
  "ran": 5480,
  "\u2581hassen": 5481,
  "\u2581l\u1eb7n": 5482,
  "\u2581ng\u1ee5": 5483,
  "\u2581\u00c4h": 5484,
  "\u2581Arme": 5485,
  "\u2581bilden": 5486,
  "\u2581nguy\u1ec1n": 5487,
  "\u2581r\u00e8n": 5488,
  "\u2581Damals": 5489,
  "\u2581S\u1ebfp": 5490,
  "\u2581k\u00f6nne": 5491,
  "\u2581Gi\u1ea3": 5492,
  "\u2581ertragen": 5493,
  "\u2581Grad": 5494,
  "\u2581Mong": 5495,
  "\u2581Osten": 5496,
  "\u2581S\u0129": 5497,
  "\u2581hohen": 5498,
  "\u2581x\u01a1": 5499,
  "iz": 5500,
  "\u2581nannte": 5501,
  "\u2581w\u00e4hlen": 5502,
  "\u2581400": 5503,
  "\u2581Amy": 5504,
  "\u2581Vers": 5505,
  "\u2581Nguy\u00ean": 5506,
  "\u2581lau": 5507,
  "\u2581qu\u1ef9": 5508,
  "\u2581b\u00e9o": 5509,
  "\u2581hinweg": 5510,
  "\u2581d\u00e2u": 5511,
  "\u2581halb": 5512,
  "\u2581sandte": 5513,
  "\u25812000": 5514,
  "\u2581Haare": 5515,
  "\u2581W\u00fcrden": 5516,
  "\u2581eng": 5517,
  "\u2581herauszufinden": 5518,
  "\u2581x\u00edch": 5519,
  "\u2581z\u00e4hlen": 5520,
  "ator": 5521,
  "laden": 5522,
  "\u25817]": 5523,
  "\u2581Umst\u00e4nde": 5524,
  "\u2581c\u00e0i": 5525,
  "\u2581h\u00e4ltst": 5526,
  "\u2581ti\u1ec7m": 5527,
  "\u2581Black": 5528,
  "\u2581m\u1ed3i": 5529,
  "00": 5530,
  "\u2581Tri": 5531,
  "\u2581Werden": 5532,
  "\u2581dennoch": 5533,
  "\u2581keinem": 5534,
  "\u2581n\u00fctzlich": 5535,
  "\u03c5": 5536,
  "\u2581Milit\u00e4r": 5537,
  "\u2581c\u01b0\u1ee1ng": 5538,
  "berg": 5539,
  "\u2581Ki\u1ec3": 5540,
  "\u2581Mitgef\u00fchl": 5541,
  "\u2581lebe": 5542,
  "ring": 5543,
  "\u2581Elia": 5544,
  "\u2581Loyalit\u00e4t": 5545,
  "stehen": 5546,
  "\u2581Ecke": 5547,
  "\u2581SEITE": 5548,
  "\u2581T\u01b0\u1edfng": 5549,
  "\u2581ah": 5550,
  "\u2581trug": 5551,
  "l\u01a1": 5552,
  "th\u1ea3y": 5553,
  "war": 5554,
  "\u2581Jake": 5555,
  "\u2581begonnen": 5556,
  "\u2581vang": 5557,
  "\u2581Hu": 5558,
  "\u2581T\u1ed5": 5559,
  "\u2581Worauf": 5560,
  "\u2581vu": 5561,
  "\u2581web": 5562,
  "cha": 5563,
  "\u2581CIA": 5564,
  "\u2581Falle": 5565,
  "\u2581Gruppen": 5566,
  "\u2581Ph": 5567,
  "\u2581bleibe": 5568,
  "\u2581geblieben": 5569,
  "\u2581liebte": 5570,
  "\u2581m\u1ecf": 5571,
  "\u2581wunderbare": 5572,
  "zug": 5573,
  "\u2581DER": 5574,
  "\u2581Lincoln": 5575,
  "\u2581mindestens": 5576,
  "\u2581Sogar": 5577,
  "\u2581Amerikaner": 5578,
  "\u2581Vernichtung": 5579,
  "\u2581Zugang": 5580,
  "ius": 5581,
  "om": 5582,
  "\u2581B\u00fcrger": 5583,
  "\u2581Pr\u00fcfungen": 5584,
  "\u2581komisch": 5585,
  "\u2581selben": 5586,
  "\u2581geh\u00f6rte": 5587,
  "od": 5588,
  "teil": 5589,
  "\u258120:": 5590,
  "\u258122:": 5591,
  "\u2581K\u00f6nigreichssaal": 5592,
  "\u2581bemerkt": 5593,
  "\u2581reichen": 5594,
  "\u2581w": 5595,
  "\u2581zahlen": 5596,
  "\u2581zw\u00f6lf": 5597,
  "l\u1ec5": 5598,
  "\u2581Deal": 5599,
  "\u2581Prophezeiungen": 5600,
  "\u2581\u0110\u01b0\u01a1": 5601,
  "\u258113,": 5602,
  "\u2581b\u1ecdc": 5603,
  "\u2581vernichtet": 5604,
  "\u2581England": 5605,
  "\u2581Bombe": 5606,
  "\u2581Eier": 5607,
  "\u2581To": 5608,
  "\u2581g\u1ecdn": 5609,
  "\u2581Des": 5610,
  "\u2581befindet": 5611,
  "\u2581Adresse": 5612,
  "\u2581Haufen": 5613,
  "\u2581Kleid": 5614,
  "\u2581Sicht": 5615,
  "\u2581entsprechend": 5616,
  "net": 5617,
  "\u2581H\u00fctte": 5618,
  "\u2581Thea": 5619,
  "\u2581Bein": 5620,
  "\u2581f\u00e4hrt": 5621,
  "\u2581ne": 5622,
  "\u2581vi\u00ea": 5623,
  "\u2581Marty": 5624,
  "\u1edf": 5625,
  "\u2581Mang": 5626,
  "\u2581cu\u1ed3ng": 5627,
  "\u2581heilig": 5628,
  "\u2581Seelen": 5629,
  "\u2581l\u00f9i": 5630,
  "\u2581schlechten": 5631,
  "\u2581werd": 5632,
  "\u2581x\u00e9": 5633,
  "ett": 5634,
  "\u2581V\u01b0\u01a1ng": 5635,
  "stellung": 5636,
  "\u2581Bier": 5637,
  "\u2581Farbe": 5638,
  "\u2581\u0111oan": 5639,
  "ker": 5640,
  "spiel": 5641,
  "\u2581Europa": 5642,
  "\u2581Problemen": 5643,
  "\u2581n\u01b0\u1edbng": 5644,
  "\u2581\u01b0\u01a1ng": 5645,
  "\u2581Gi": 5646,
  "\u2581Kriegs": 5647,
  "\u2581fragt": 5648,
  "\u2581ng\u1eadp": 5649,
  "gemacht": 5650,
  "isten": 5651,
  "\u258122.": 5652,
  "\u2581Vergn\u00fcgen": 5653,
  "\u2581leer": 5654,
  "\u2581th\u00e2u": 5655,
  "kommt": 5656,
  "\u2581Chi\u1ebfc": 5657,
  "\u2581Pferde": 5658,
  "\u2581\u0111i\u1ebfm": 5659,
  "bringen": 5660,
  "\u2581au\u00dfergew\u00f6hnlich": 5661,
  "\u2581n\u00e0i": 5662,
  "\u2581zuf\u00e4llig": 5663,
  "sehen": 5664,
  "\u2581ben\u00f6tigt": 5665,
  "\u2581echten": 5666,
  "\u2581s\u00f3i": 5667,
  "\u2581verhindern": 5668,
  "rat": 5669,
  "\u2581Thi\u1ebft": 5670,
  "\u2581t\u1ea9y": 5671,
  "\u2581Englisch": 5672,
  "\u2581Fi": 5673,
  "\u2581Gnade": 5674,
  "\u2581Knecht": 5675,
  "\u2581ch\u00e2m": 5676,
  "\u2581hol": 5677,
  "l\u00f2ng": 5678,
  "\u2581Demut": 5679,
  "\u2581Reaktion": 5680,
  "\u2581aufgenommen": 5681,
  "\u2581d\u00e3": 5682,
  "\u2581vermeiden": 5683,
  "\u2581vern\u00fcnftig": 5684,
  "\u2581Gebrauch": 5685,
  "\u2581Gleich": 5686,
  "\u2581Leg": 5687,
  "\u2581Risiko": 5688,
  "tha": 5689,
  "\u2581Tu\u1ea7n": 5690,
  "\u2581b\u00f3p": 5691,
  "\u2581l\u00e2": 5692,
  "\u2581vernichten": 5693,
  "\u2581D\u01b0\u01a1ng": 5694,
  "\u2581genie\u00dfen": 5695,
  "\u2581Last": 5696,
  "\u2581Vorbild": 5697,
  "\u2581Zusammenk\u00fcnften": 5698,
  "\u2581cu": 5699,
  "\u2581einst": 5700,
  "\u2581jene": 5701,
  "\u2581qu\u0103ng": 5702,
  "bin": 5703,
  "\u2581Her": 5704,
  "\u2581su\u00ea": 5705,
  "\u2581t\u00f2": 5706,
  "\u2581w\u00fcnschen": 5707,
  "\u2581Ruth": 5708,
  "\u2581verstehst": 5709,
  "r\u00ea": 5710,
  "\u2581Muss": 5711,
  "\u2581ehren": 5712,
  "\u2581\u0110\u1ea5y": 5713,
  "\u2581\u1ed1m": 5714,
  "ng\u00e0y": 5715,
  "\u2581NW": 5716,
  "\u2581T\u1ec9nh": 5717,
  "\u2581besitzen": 5718,
  "r\u00e4": 5719,
  "M\u1ed9t": 5720,
  "ps": 5721,
  "\u2581Billy": 5722,
  "\u2581Denkst": 5723,
  "\u2581Dienern": 5724,
  "\u2581Start": 5725,
  "\u2581hi\u1ec1n": 5726,
  "\u2581voran": 5727,
  "geht": 5728,
  "ong": 5729,
  "\u2581L\u1edbn": 5730,
  "\u2581Ohr": 5731,
  "\u2581Tode": 5732,
  "\u2581150": 5733,
  "\u2581Verk\u00fcndiger": 5734,
  "b\u00ecnh": 5735,
  "sein": 5736,
  "\u2581Brauch": 5737,
  "\u2581Rock": 5738,
  "\u2581l\u1ea1m": 5739,
  "Oh": 5740,
  "\u2581Jedes": 5741,
  "\u2581Schwanz": 5742,
  "\u2581Ted": 5743,
  "\u2581dritte": 5744,
  "\u2581sa\u00df": 5745,
  "ST": 5746,
  "bau": 5747,
  "\u2581Fotos": 5748,
  "\u2581arbeitete": 5749,
  "\u2581d\u1ea1n": 5750,
  "\u2581wertvoll": 5751,
  "ib": 5752,
  "\u2581Erste": 5753,
  "\u2581beobachtet": 5754,
  "\u2581klug": 5755,
  "\u2581v\u1ea3i": 5756,
  "\u2581v\u1edd": 5757,
  "\u2581t\u00e2n": 5758,
  "\u2581Kr\u00e4fte": 5759,
  "\u2581Texas": 5760,
  "\u2581m\u00f6chtest": 5761,
  "\u2581schw\u00f6re": 5762,
  "\u2581Chuck": 5763,
  "\u2581Ewigkeit": 5764,
  "\u2581Lu\u00f4n": 5765,
  "\u2581N\u1eb1m": 5766,
  "\u2581blind": 5767,
  "\u2581sowieso": 5768,
  "\u2581\u0110\u1eb7t": 5769,
  "recht": 5770,
  "\u2581Gesetzes": 5771,
  "\u2581fuhr": 5772,
  "\u2581ho\u00e1": 5773,
  "\u2581n\u1ea5y": 5774,
  "\u2581entdeckt": 5775,
  "\u2581komplett": 5776,
  "\u2581nachzudenken": 5777,
  "\u2581r\u0169": 5778,
  "\u2581\u1ee7y": 5779,
  "fall": 5780,
  "\u2581gegessen": 5781,
  "\u2581g\u1eady": 5782,
  "\u2581sp": 5783,
  "\u2581th\u1ea1nh": 5784,
  "\u2581Stuhl": 5785,
  "\u2581Wille": 5786,
  "\u2581Zusammen": 5787,
  "que": 5788,
  "\u2581h\u00e1i": 5789,
  "\u2581s\u1ec9": 5790,
  "\u2581voi": 5791,
  "\u2581Schritte": 5792,
  "\u2581n\u00e0n": 5793,
  "@": 5794,
  "EL": 5795,
  "\u2581Richtige": 5796,
  "\u2581Zeig": 5797,
  "\u2581B\u00c0I": 5798,
  "\u2581Echt": 5799,
  "\u2581Fa": 5800,
  "\u2581kho\u00e1i": 5801,
  "\u2581t\u1edfm": 5802,
  "\u2581Stopp": 5803,
  "\u2581erw\u00e4hnte": 5804,
  "\u2581sodass": 5805,
  "\u2581Dame": 5806,
  "\u2581Kaiser": 5807,
  "\u2581Mac": 5808,
  "\u2581las": 5809,
  "\u2581ph\u00fa": 5810,
  "\u2581\u0111\u1ea5m": 5811,
  "\u2581Beine": 5812,
  "\u2581Quelle": 5813,
  "\u2581Westen": 5814,
  "\u2581gelegt": 5815,
  "\u258119,": 5816,
  "\u2581Luke": 5817,
  "\u2581b\u1ed9t": 5818,
  "ment": 5819,
  "\u2581Titel": 5820,
  "\u2581begeistert": 5821,
  "\u2581enthalten": 5822,
  "\u2581geschaffen": 5823,
  "\u2581schwanger": 5824,
  "OR": 5825,
  "mp": 5826,
  "\u2581Car": 5827,
  "\u2581Lieblings": 5828,
  "\u2581Sturm": 5829,
  "\u2581Cu\u1ed1n": 5830,
  "\u2581Kosten": 5831,
  "\u2581Tower": 5832,
  "\u2581erforderlich": 5833,
  "\u2581getrennt": 5834,
  "\u2581g\u1ed1i": 5835,
  "\u2581tr\u1ed9n": 5836,
  "\u2581unbe": 5837,
  "op": 5838,
  "\u2581ao": 5839,
  "\u2581lehrte": 5840,
  "\u2581seltsam": 5841,
  "Trong": 5842,
  "\u2581Lukas": 5843,
  "\u2581Pi": 5844,
  "\u2581einzelnen": 5845,
  "\u2581manh": 5846,
  "\u2581\u0111\u00e9o": 5847,
  "nh\u01b0": 5848,
  "t\u1edb": 5849,
  "\u258110,": 5850,
  "\u2581Gerechten": 5851,
  "\u2581Jahres": 5852,
  "\u2581Korinther": 5853,
  "\u2581ch\u1ed1t": 5854,
  "\u2581\u0111inh": 5855,
  "buch": 5856,
  "\u2581Kern": 5857,
  "\u2581[\u201c": 5858,
  "\u2581c\u1eedu": 5859,
  "\u2581hang": 5860,
  "Ai": 5861,
  "\u2581Danh": 5862,
  "\u2581Universit\u00e4t": 5863,
  "\u2581Xu\u1ea5t": 5864,
  "\u2581verspreche": 5865,
  "\u2581Lauterkeit": 5866,
  "\u2581hinauf": 5867,
  "\u2581verliebt": 5868,
  "\u2581Bildung": 5869,
  "\u2581Gregor": 5870,
  "\u2581Griff": 5871,
  "\u2581ber\u00fchrt": 5872,
  "del": 5873,
  "qui": 5874,
  "ys": 5875,
  "\u2581Vortrag": 5876,
  "\u2581th\u01a1m": 5877,
  "\u2581H\u00f6he": 5878,
  "\u2581Jede": 5879,
  "\u2581Ursache": 5880,
  "\u2581beantworten": 5881,
  "\u2581findest": 5882,
  "\u2581g\u00f5": 5883,
  "St": 5884,
  "\u258136": 5885,
  "\u2581Ur": 5886,
  "\u2581b\u1ed3i": 5887,
  "\u2581schrecklich": 5888,
  "\u2581s\u1eafm": 5889,
  "\u2581angesehen": 5890,
  "\u2581aufgeben": 5891,
  "\u2581verhaftet": 5892,
  "\u2581wunderbar": 5893,
  "\u2581\u00f4i": 5894,
  "\u2581Strafe": 5895,
  "\u2581unterst\u00fctzt": 5896,
  "tor": 5897,
  "\u2581Gro\u00df": 5898,
  "\u2581wohnt": 5899,
  "\u00b7": 5900,
  "\u2581Darauf": 5901,
  "\u2581r\u00e0o": 5902,
  "\u2581wenden": 5903,
  "\u2581Gang": 5904,
  "\u2581g\u0169i": 5905,
  "ere": 5906,
  "\u2581S\u01b0": 5907,
  "\u2581forderte": 5908,
  "\u2581ngh\u00ecn": 5909,
  "Wo": 5910,
  "har": 5911,
  "tal": 5912,
  "\u2581Au\u00dfer": 5913,
  "\u2581Beziehungen": 5914,
  "\u2581Tha": 5915,
  "\u2581l\u1edd": 5916,
  "\u2581n\u1ea3y": 5917,
  "\u2581th\u1ea7m": 5918,
  "\u2581woher": 5919,
  "\u2581Yo": 5920,
  "\u2581h\u00e4ngen": 5921,
  "\u2581legt": 5922,
  "\u2581t\u1ecda": 5923,
  "schlag": 5924,
  "\u2581Anweisungen": 5925,
  "\u2581Laurel": 5926,
  "\u2581Ser": 5927,
  "\u2581Sport": 5928,
  "\u2581kh\u00f3i": 5929,
  "ti\u1ec1m": 5930,
  "\u2581Har": 5931,
  "\u2581S\u00f4": 5932,
  "\u2581Th\u1ee9c": 5933,
  "\u2581Wertsch\u00e4tzung": 5934,
  "\u2581niemandem": 5935,
  "\u2581x\u00f4ng": 5936,
  "\u2581\u0111c": 5937,
  "ek": 5938,
  "\u2581D\u01b0\u1eddng": 5939,
  "\u2581Vorteil": 5940,
  "\u2581gesalbten": 5941,
  "\u2581hi\u1ebfu": 5942,
  "\u2581Ragnar": 5943,
  "\u2581entkommen": 5944,
  "\u2581feiern": 5945,
  "\u2581khoe": 5946,
  "\u2581loyal": 5947,
  "\u2581ng\u1eafm": 5948,
  "\u2581quy\u1ebfn": 5949,
  "\u2581schlie\u00dft": 5950,
  "\u2581\u00c4rzte": 5951,
  "\u2581Gedanke": 5952,
  "\u2581Spur": 5953,
  "\u2581Xa": 5954,
  "\u2581trat": 5955,
  "\u2581tuy": 5956,
  "\u2581ve": 5957,
  "\u2581Finsternis": 5958,
  "\u2581Roy": 5959,
  "\u2581T\u00ednh": 5960,
  "\u2581bereitet": 5961,
  "\u2581vermisst": 5962,
  "\u2581Kh\u1ec9": 5963,
  "\u2581Lo\u1ea1i": 5964,
  "\u2581Pat": 5965,
  "\u2581b\u1ecfng": 5966,
  "\u2581erfordert": 5967,
  "\u2581\u0110\u1ea1o": 5968,
  "\u2581Wayne": 5969,
  "\u2581anzu": 5970,
  "\u2581b\u1ea3": 5971,
  "\u2581h\u00fcbsch": 5972,
  "\u2581verstecken": 5973,
  "ick": 5974,
  "\u2581Hebr\u00e4er": 5975,
  "\u2581Heimat": 5976,
  "\u2581Stolz": 5977,
  "\u2581Wall": 5978,
  "\u2581h\u00f4i": 5979,
  "ya": 5980,
  "\u2581Martha": 5981,
  "\u2581Zusammenkunft": 5982,
  "\u2581gai": 5983,
  "\u2581h\u00e3m": 5984,
  "\u2581ki\u1ec7m": 5985,
  "\u2581Gordon": 5986,
  "\u2581Setz": 5987,
  "\u2581Situationen": 5988,
  "\u2581Standpunkt": 5989,
  "\u2581b\u1ebb": 5990,
  "\u2581griechische": 5991,
  "\u2581Roboter": 5992,
  "\u2581Staub": 5993,
  "\u2581h\u00f6her": 5994,
  "\u2581praktisch": 5995,
  "and": 5996,
  "pi": 5997,
  "tel": 5998,
  "\u2581Grunde": 5999,
  "\u2581Marie": 6000,
  "\u2581Pete": 6001,
  "\u2581Walker": 6002,
  "\u2581b\u0103": 6003,
  "\u2581ergibt": 6004,
  "\u2581Besser": 6005,
  "\u2581Milch": 6006,
  "\u2581Sicherheits": 6007,
  "\u2581Zieh": 6008,
  "\u2581nh\u00e1t": 6009,
  "\u2581ruft": 6010,
  "\u2581tr\u1eafc": 6011,
  "\u2581zulassen": 6012,
  "\u2581Bi\u1ebfn": 6013,
  "\u2581Phil": 6014,
  "\u2581S\u00fc\u00dfe": 6015,
  "\u2581auferweckt": 6016,
  "\u2581fliehen": 6017,
  "\u2581gekauft": 6018,
  "\u2581ti\u00eam": 6019,
  "\u2581*.": 6020,
  "\u2581Bev\u00f6lkerung": 6021,
  "\u2581gesamten": 6022,
  "\u2581vorne": 6023,
  "\u2581Zuerst": 6024,
  "\u2581erneut": 6025,
  "\u2581Fe": 6026,
  "\u2581F\u00fcrsten": 6027,
  "\u2581Th\u01b0\u1eddng": 6028,
  "\u2581hi\u00ea": 6029,
  "\u2581liebevoll": 6030,
  "\u2581Ged\u00e4chtnis": 6031,
  "\u2581Gi\u00e1": 6032,
  "\u2581Held": 6033,
  "\u2581Rand": 6034,
  "\u2581William": 6035,
  "\u2581schafft": 6036,
  "\u2581Ehepartner": 6037,
  "\u2581behaupten": 6038,
  "\u2581t\u1ef1a": 6039,
  "\u2581wof\u00fcr": 6040,
  "bild": 6041,
  "\u0111i": 6042,
  "\u2581Wut": 6043,
  "\u2581ch": 6044,
  "\u2581ch\u0103": 6045,
  "acht": 6046,
  "\u2581Bestimmt": 6047,
  "\u2581World": 6048,
  "\u2581b\u1ed1c": 6049,
  "\u2581Autos": 6050,
  "\u2581Frankreich": 6051,
  "\u2581R\u1eb1ng": 6052,
  "\u2581Wahnsinn": 6053,
  "\u2581vereint": 6054,
  "ach": 6055,
  "\u2581Ngh\u0129": 6056,
  "\u2581g\u00e4be": 6057,
  "\u2581h\u00f6rst": 6058,
  "sie": 6059,
  "\u2581Arbeits": 6060,
  "\u2581gi\u1eadt": 6061,
  "\u2581ong": 6062,
  "\u2581verboten": 6063,
  "\u00e4u": 6064,
  "\u2581Lohn": 6065,
  "\u2581L\u00f9i": 6066,
  "\u2581Paar": 6067,
  "\u2581erscheint": 6068,
  "\u2581trinh": 6069,
  "len": 6070,
  "\u2581Pionier": 6071,
  "\u2581Studenten": 6072,
  "\u2581V\u00f6gel": 6073,
  "\u2581angenommen": 6074,
  "\u258123]": 6075,
  "\u2581einzelne": 6076,
  "gg": 6077,
  "stelle": 6078,
  "ug": 6079,
  "\u2581Helden": 6080,
  "\u2581einsetzen": 6081,
  "IN": 6082,
  "V\u00ec": 6083,
  "\u2581ch\u1ee3": 6084,
  "isiert": 6085,
  "\u2581letztes": 6086,
  "\u2581oh": 6087,
  "\u2581Maul": 6088,
  "\u2581Ober": 6089,
  "\u2581V\u1eeba": 6090,
  "\u2581best\u00e4tigt": 6091,
  "\u2581S\u00fcden": 6092,
  "\u2581Ti\u1ec3u": 6093,
  "\u2581b\u1ed5n": 6094,
  "\u2581d\u1edf": 6095,
  "\u2581nh\u1ecdc": 6096,
  "\u2581\u1eeam": 6097,
  "\u258148": 6098,
  "wo": 6099,
  "\u2581Code": 6100,
  "\u2581Hitler": 6101,
  "\u2581Pharao": 6102,
  "\u2581bar": 6103,
  "\u2581d\u00ec": 6104,
  "\u2581l\u1ecbnh": 6105,
  "\u2581ph\u1ed5i": 6106,
  "\u2581tr": 6107,
  "\u2581verhalten": 6108,
  "\u2581Versteh": 6109,
  "\u2581begannen": 6110,
  "\u2581weshalb": 6111,
  "\u2581zun\u00e4chst": 6112,
  "\u2581Operation": 6113,
  "\u2581bietet": 6114,
  "\u2581d\u1ed9i": 6115,
  "\u2581freut": 6116,
  "Ng\u00e0i": 6117,
  "\u2581Kleiner": 6118,
  "\u2581Kugel": 6119,
  "\u2581Letzte": 6120,
  "\u2581Schlampe": 6121,
  "\u2581Victor": 6122,
  "\u2581Vorrecht": 6123,
  "\u2581cay": 6124,
  "\u2581th\u1eaft": 6125,
  "\u2581tia": 6126,
  "\u2581untersuchen": 6127,
  "\u2581\u00fcberlebt": 6128,
  "rn": 6129,
  "\u2581600": 6130,
  "\u2581Nie": 6131,
  "\u2581entt\u00e4uscht": 6132,
  "\u2581handelte": 6133,
  "\u2581Verlust": 6134,
  "\u2581Wa": 6135,
  "\u2581Zuneigung": 6136,
  "\u2581zweifellos": 6137,
  "(": 6138,
  "Re": 6139,
  "\u2581Vieh": 6140,
  "\u2581Zellen": 6141,
  "\u2581aufnehmen": 6142,
  "\u2581enden": 6143,
  "\u2581l\u01b0\u1ee3c": 6144,
  "\u2581samt": 6145,
  "\u2581zur\u00fcckkehren": 6146,
  "Man": 6147,
  "\u2581Gras": 6148,
  "\u2581Sagt": 6149,
  "\u2581Wolf": 6150,
  "nder": 6151,
  "schi": 6152,
  "\u1ebfm": 6153,
  "\u2581Eric": 6154,
  "\u2581Hinweis": 6155,
  "\u2581Trauer": 6156,
  "\u2581erkannte": 6157,
  "\u2581verbessern": 6158,
  "\u2581\u0111\u00f2n": 6159,
  "kon": 6160,
  "\u2581Bleiben": 6161,
  "\u2581Nachbarn": 6162,
  "\u2581V\u00f6lker": 6163,
  "\u2581b\u00e1t": 6164,
  "\u2581sp\u00fcren": 6165,
  "\u2581Karten": 6166,
  "\u2581L\u1ed1i": 6167,
  "\u2581irgend": 6168,
  "\u2581kh\u1eb3": 6169,
  "\u2581Genauso": 6170,
  "\u2581Hunde": 6171,
  "\u2581Ka": 6172,
  "\u2581Politik": 6173,
  "\u2581langer": 6174,
  "\u2581Glaubensbr\u00fcder": 6175,
  "\u2581Ihres": 6176,
  "\u2581Weltkrieg": 6177,
  "\u2581n\u1eafng": 6178,
  "\u2581positiv": 6179,
  "\u2581umgehen": 6180,
  "\u2581Gegner": 6181,
  "\u2581c\u1eebu": 6182,
  "\u2581wozu": 6183,
  "dy": 6184,
  "\u2581Ghi": 6185,
  "\u2581stelle": 6186,
  "arbeit": 6187,
  "\u2581Einmal": 6188,
  "\u2581Hatte": 6189,
  "\u2581Weihnachten": 6190,
  "\u2581dauern": 6191,
  "\u2581gi\u00e1p": 6192,
  "\u2581Qu\u00fd": 6193,
  "\u2581Schnee": 6194,
  "\u2581ernsthaft": 6195,
  "\u2581qu\u1ea5y": 6196,
  "\u2581spreche": 6197,
  "\u2581tr\u01a1": 6198,
  "\u2581\u00c4ltester": 6199,
  "\u2581khu\u1ea9n": 6200,
  "\u2581nh\u1ea1y": 6201,
  "\u2581Benjamin": 6202,
  "\u2581Ehren": 6203,
  "\u2581Schlange": 6204,
  "\u2581n\u00e3y": 6205,
  "\u2581t\u00f6tet": 6206,
  "haft": 6207,
  "\u258117,": 6208,
  "\u2581Gesalbten": 6209,
  "\u2581Gro\u00dfe": 6210,
  "\u2581Hof": 6211,
  "\u2581Ng\u01b0\u1ee3c": 6212,
  "\u2581einfache": 6213,
  "\u2581erscheinen": 6214,
  "\u2581manchen": 6215,
  "\u2581n\u1ec1": 6216,
  "\u2581vermutlich": 6217,
  "h\u00e2n": 6218,
  "ika": 6219,
  "\u2581r\u1ebb": 6220,
  "\u2581th\u00e1o": 6221,
  "\u2581\u0111\u1ed1": 6222,
  "\u2581Anteil": 6223,
  "\u2581Ph\u01b0\u01a1ng": 6224,
  "\u2581V\u0103n": 6225,
  "\u2581men": 6226,
  "\u2581r\u01b0\u1ee1i": 6227,
  "\u2581\u0111\u00e1y": 6228,
  "\u2581Long": 6229,
  "\u2581Ward": 6230,
  "\u2581ngo\u00e1i": 6231,
  "\u2581\u0111\u1eafp": 6232,
  "\u2581Hauses": 6233,
  "\u2581angegriffen": 6234,
  "\u2581befolgen": 6235,
  "\u2581bewahrt": 6236,
  "\u2581chu\u1ed7i": 6237,
  "\u2581g\u00f6ttlichen": 6238,
  "\u2581\u00e4ndert": 6239,
  "\u2581\u0111\u00e0": 6240,
  "\u2581Emma": 6241,
  "\u2581Meilen": 6242,
  "\u2581Ph\u1ee5": 6243,
  "\u2581erwiesen": 6244,
  "\u2581f": 6245,
  "\u2581Knochen": 6246,
  "\u2581glaubte": 6247,
  "\u2581heo": 6248,
  "\u2581lebten": 6249,
  "\u2581s\u00f9ng": 6250,
  "\u2581B\u00e4ume": 6251,
  "\u2581Prinzessin": 6252,
  "\u2581Realit\u00e4t": 6253,
  "\u2581d\u1ea1": 6254,
  "\u2581heilen": 6255,
  "\u2581\u00e1i": 6256,
  "tausend": 6257,
  "\u2581Bethel": 6258,
  "\u2581Knie": 6259,
  "\u2581fr\u00fcheren": 6260,
  "\u2581qu\u00e9t": 6261,
  "\u2581Stand": 6262,
  "\u2581Tr\u00e4ume": 6263,
  "\u2581Wetter": 6264,
  "\u2581angetan": 6265,
  "\u2581Street": 6266,
  "\u2581c\u00f4n": 6267,
  "\u2581singen": 6268,
  "\u2581z\u00e4hlt": 6269,
  "\u2581Vincent": 6270,
  "\u2581Whoa": 6271,
  "\u2581schenken": 6272,
  "\u2581witzig": 6273,
  "ov": 6274,
  "\u2581Mitarbeiter": 6275,
  "\u2581genaue": 6276,
  "\u2581ho\u00e0i": 6277,
  "\u2581kostet": 6278,
  "\u2581m\u1ee5": 6279,
  "f\u00fchren": 6280,
  "nicht": 6281,
  "tro": 6282,
  "\u2581Pl\u00e4ne": 6283,
  "\u2581Psalmist": 6284,
  "\u2581herab": 6285,
  "):": 6286,
  "\u2581U\u1ed1ng": 6287,
  "\u2581bu\u00f4ng": 6288,
  "\u2581einzu": 6289,
  "\u2581tr\u1eadt": 6290,
  "\u2581\u0110\u00f4": 6291,
  "ban": 6292,
  "\u2581Br\u00fccke": 6293,
  "\u2581Hingabe": 6294,
  "\u2581Linda": 6295,
  "\u2581j\u00fcdischen": 6296,
  "\u2581wichtigen": 6297,
  "\u2581yeah": 6298,
  "\u2581\u0111\u1ea3ng": 6299,
  "\u2581Blumen": 6300,
  "\u2581d\u1eadt": 6301,
  "\u2581van": 6302,
  "\u2581\u0111o\u1ea1t": 6303,
  "\u2581L\u0169": 6304,
  "\u2581Markt": 6305,
  "\u2581geduldig": 6306,
  "\u2581kontrollieren": 6307,
  "\u2581n\u00e4chstes": 6308,
  "system": 6309,
  "ub": 6310,
  "\u258115]": 6311,
  "\u2581Che": 6312,
  "\u2581Interessen": 6313,
  "\u2581Missionare": 6314,
  "\u2581Ngo\u1ea1i": 6315,
  "\u2581Pr\u00fcfung": 6316,
  "\u2581Sal": 6317,
  "\u2581ki\u1ec7t": 6318,
  "\u2581suchte": 6319,
  "\u2581tr\u00e0o": 6320,
  "schlagen": 6321,
  "\u2581Gh\u00ea": 6322,
  "\u2581Ju": 6323,
  "\u2581Tra": 6324,
  "\u2581c\u1ed7": 6325,
  "\u2581nh\u1ecbp": 6326,
  "kraft": 6327,
  "\u2581fassen": 6328,
  "kam": 6329,
  "vi\u1ec7c": 6330,
  "\u2581Gen": 6331,
  "\u2581Jugendliche": 6332,
  "\u2581Werte": 6333,
  "\u2581ausgehen": 6334,
  "\u2581dieselbe": 6335,
  "Em": 6336,
  "\u2581Chicago": 6337,
  "\u2581Holmes": 6338,
  "\u2581Pflicht": 6339,
  "\u2581bleibst": 6340,
  "\u2581ng": 6341,
  "\u2581schlechter": 6342,
  "\u2581Standard": 6343,
  "\u2581schweren": 6344,
  "\u2581unternehmen": 6345,
  "\u2581Carter": 6346,
  "\u2581Ch\u1ecdn": 6347,
  "\u2581T\u00fcren": 6348,
  "\u2581erschossen": 6349,
  "\u2581ge\u00f6ffnet": 6350,
  "\u2581verk\u00fcndigen": 6351,
  "\u2581Ki\u1ec3u": 6352,
  "\u2581Tal": 6353,
  "\u2581km": 6354,
  "\u2581san": 6355,
  "AL": 6356,
  "\u2581Gi\u00e1m": 6357,
  "\u2581Kreuz": 6358,
  "\u2581Majest\u00e4t": 6359,
  "\u2581Ryan": 6360,
  "\u2581ch\u1ee5c": 6361,
  "\u2581herrschen": 6362,
  "res": 6363,
  "\u2581Kommunikation": 6364,
  "\u2581Th\u1ed1ng": 6365,
  "\u2581Zehn": 6366,
  "\u2581einiges": 6367,
  "\u2581gespielt": 6368,
  "\u2581zeige": 6369,
  "\u2581Angelegenheit": 6370,
  "\u2581Flucht": 6371,
  "\u2581Sinne": 6372,
  "\u2581Hinter": 6373,
  "\u2581Predigtwerk": 6374,
  "\u2581gewusst": 6375,
  "\u2581scheinen": 6376,
  "\u2581thu\u1eabn": 6377,
  "\u2581umher": 6378,
  "\u2581Bringen": 6379,
  "\u2581Eindruck": 6380,
  "\u2581L\u00f6segeld": 6381,
  "\u2581th\u1ed1i": 6382,
  "\u2581t\u00e2": 6383,
  "\u2581verlor": 6384,
  "\u2581weiteres": 6385,
  "\u2581Schuss": 6386,
  "\u2581ch\u1ea5n": 6387,
  "\u2581nh\u00e0ng": 6388,
  "\u2581n\u1ea1": 6389,
  "\u2581n\u1ee5": 6390,
  "kel": 6391,
  "\u2581Quy\u1ec1n": 6392,
  "\u2581b\u00e1": 6393,
  "druck": 6394,
  "weise": 6395,
  "\u2581Khu": 6396,
  "\u2581Taxi": 6397,
  "\u2581Umwelt": 6398,
  "\u2581b\u1ed3": 6399,
  "\u2581rau": 6400,
  "Und": 6401,
  "\u2581Bay": 6402,
  "\u2581Ke": 6403,
  "\u2581einfacher": 6404,
  "\u2581hohe": 6405,
  "\u2581l\u00e4ngst": 6406,
  "\u2581t\u00fang": 6407,
  "\u2581Armut": 6408,
  "\u2581Frei": 6409,
  "\u2581Leiden": 6410,
  "\u2581L\u00fcge": 6411,
  "\u2581Stell": 6412,
  "\u2581Sterne": 6413,
  "\u2581ng\u1eabu": 6414,
  "\u2581Bundes": 6415,
  "\u2581Waren": 6416,
  "\u2581erschien": 6417,
  "\u2581sauer": 6418,
  "\u2581\u00fcben": 6419,
  "\u2581Anbeter": 6420,
  "\u2581D\u1ea1": 6421,
  "\u2581Hannah": 6422,
  "\u2581IN": 6423,
  "\u2581echter": 6424,
  "ER": 6425,
  "\u2581Gary": 6426,
  "\u2581Schande": 6427,
  "\u2581bestand": 6428,
  "\u2581c\u1edbm": 6429,
  "\u2581thu\u1ea7n": 6430,
  "\u2581Krieger": 6431,
  "\u2581sagtest": 6432,
  "v\u1eady": 6433,
  "\u2581T\u1ea1": 6434,
  "\u2581Underwood": 6435,
  "\u2581besuchte": 6436,
  "\u2581geplant": 6437,
  "\u2581starken": 6438,
  "\u2581wundersch\u00f6n": 6439,
  "\u2581\u0111ai": 6440,
  "\u2581Drachen": 6441,
  "\u2581Gift": 6442,
  "\u2581Himmels": 6443,
  "\u2581Schuhe": 6444,
  "\u2581ro": 6445,
  "\u2581Bereit": 6446,
  "\u2581Ch\u1ea3": 6447,
  "\u2581Gast": 6448,
  "\u2581Wof\u00fcr": 6449,
  "\u2581kh\u1edbp": 6450,
  "\u2581Beth": 6451,
  "\u2581eifrig": 6452,
  "\u2581kh\u00f9ng": 6453,
  "\u2581li\u1ec5u": 6454,
  "\u2581Erinner": 6455,
  "\u2581Rechts": 6456,
  "\u2581l\u00e2m": 6457,
  "\u2581verdammten": 6458,
  "mer": 6459,
  "sel": 6460,
  "\u2581Fernsehen": 6461,
  "\u2581Victoria": 6462,
  "\u2581n\u00e9t": 6463,
  "\u2581wovon": 6464,
  "\u2581liebst": 6465,
  "\u2581\u1ee6": 6466,
  "\u2581Gunst": 6467,
  "\u2581Setzen": 6468,
  "\u2581notwendig": 6469,
  "\u2581tanzen": 6470,
  "\u2581\u0111\u1eaft": 6471,
  "\u2581Y\u00eau": 6472,
  "\u2581erkannt": 6473,
  "\u2581geworfen": 6474,
  "\u2581ru\u1ed9ng": 6475,
  "\u2581weltliche": 6476,
  "\u2581Bringt": 6477,
  "\u2581Mag": 6478,
  "\u2581Ng\u1ee7": 6479,
  "\u2581Rick": 6480,
  "\u2581Studien": 6481,
  "\u2581k\u00e8m": 6482,
  "\u2581Geister": 6483,
  "\u2581Mat": 6484,
  "\u2581Sklave": 6485,
  "\u2581opfern": 6486,
  "\u2581\u0111\u1ea7n": 6487,
  "\u2581\u0111\u1eb3ng": 6488,
  "\u2581\u0301": 6489,
  "9": 6490,
  "RE": 6491,
  "ch\u00fang": 6492,
  "\u2581Abendessen": 6493,
  "\u2581H\u1eb9n": 6494,
  "\u2581th\u00e0": 6495,
  "\u2581\u2019,": 6496,
  "feld": 6497,
  "ram": 6498,
  "test": 6499,
  "\u2581Muster": 6500,
  "\u2581Punkte": 6501,
  "\u2581Zufall": 6502,
  "reich": 6503,
  "voll": 6504,
  "\u2581Ch\u1ed3ng": 6505,
  "\u2581c\u1ea1n": 6506,
  "\u2581drehen": 6507,
  "\u2581\u00f6ffentlichen": 6508,
  "\u2581Literatur": 6509,
  "\u2581Vergebung": 6510,
  "\u2581ch\u00e9n": 6511,
  "\u2581gewi\u00df": 6512,
  "\u2581n\u1ed3ng": 6513,
  "bt": 6514,
  "\u2581Erinnerungen": 6515,
  "\u2581Handlungen": 6516,
  "\u2581bewirkt": 6517,
  "\u2581d\u1ea5y": 6518,
  "\u2581wunderbaren": 6519,
  "ita": 6520,
  "\u258165": 6521,
  "\u2581Begriff": 6522,
  "\u2581L\u00e3o": 6523,
  "\u2581jagen": 6524,
  "sse": 6525,
  "\u2581Solange": 6526,
  "\u2581sozusagen": 6527,
  "\u2581\u00e4lteren": 6528,
  "\u2581\u1ed3n": 6529,
  "\u2581Ernte": 6530,
  "\u2581M\u01b0\u1eddi": 6531,
  "\u2581Tr\u00ecnh": 6532,
  "\u2581White": 6533,
  "\u2581h\u00fcten": 6534,
  "\u2581\u2019?": 6535,
  "\u2581Thu": 6536,
  "\u2581extrem": 6537,
  "\u2581verh\u00e4lt": 6538,
  "\u2581\u0111i\u1ec1m": 6539,
  "\u2581\u0111\u00e0y": 6540,
  "\u2581Allein": 6541,
  "\u2581Geheimnisse": 6542,
  "\u2581Jean": 6543,
  "\u2581b\u00e1ch": 6544,
  "\u2581nh\u1ea1o": 6545,
  "lass": 6546,
  "\u2581Johnny": 6547,
  "\u2581Selbstmord": 6548,
  "\u1ee9c": 6549,
  "\u2581Ellen": 6550,
  "\u2581Japan": 6551,
  "\u2581Leviten": 6552,
  "\u2581S\u1ed1ng": 6553,
  "\u2581Doc": 6554,
  "\u2581Harold": 6555,
  "\u2581Keller": 6556,
  "\u2581Tr\u1edf": 6557,
  "\u2581drinnen": 6558,
  "\u2581nh\u1eadm": 6559,
  "AN": 6560,
  "\u2581Brian": 6561,
  "\u2581Klingt": 6562,
  "\u2581beteiligen": 6563,
  "\u2581mu\u00dften": 6564,
  "\u2581weiss": 6565,
  "ath": 6566,
  "ci": 6567,
  "\u2581Amanda": 6568,
  "\u2581Cal": 6569,
  "\u2581Sheriff": 6570,
  "\u2581Judas": 6571,
  "\u2581Ti\u00ean": 6572,
  "\u2581aktiv": 6573,
  "\u2581aufzu": 6574,
  "\u2581einiger": 6575,
  "\u2581fahre": 6576,
  "\u2581nh\u1ed1t": 6577,
  "\u2581run": 6578,
  "\u2581stammt": 6579,
  "\u2581studiert": 6580,
  "TE": 6581,
  "\u2581Pflanzen": 6582,
  "\u2581R\u00fcck": 6583,
  "\u2581Steuer": 6584,
  "\u2581darunter": 6585,
  "\u2581nerv\u00f6s": 6586,
  "\u2581n\u1edf": 6587,
  "\u2581r\u1ec5": 6588,
  "\u2581Bi\u1ec3n": 6589,
  "\u2581Lippen": 6590,
  "\u2581derselben": 6591,
  "\u2581freue": 6592,
  "\u2581soweit": 6593,
  "ball": 6594,
  "\u00e1p": 6595,
  "\u258142": 6596,
  "\u2581daselbst": 6597,
  "\u2581solcher": 6598,
  "\u2581tolle": 6599,
  "gang": 6600,
  "l\u00f4n": 6601,
  "tet": 6602,
  "\u2581Bible": 6603,
  "\u2581Ku": 6604,
  "\u2581St\u00e4tte": 6605,
  "\u2581d\u00e0n": 6606,
  "\u2581g\u1ea5u": 6607,
  "gu": 6608,
  "\u2581Carrie": 6609,
  "\u2581getauft": 6610,
  "\u2581seh": 6611,
  "\u2581Andy": 6612,
  "\u2581Bi": 6613,
  "\u2581C\u1eeda": 6614,
  "\u2581Dar\u00fcber": 6615,
  "gebracht": 6616,
  "kho\u1ea3nh": 6617,
  "\u2581F\u00fclle": 6618,
  "\u2581Knechte": 6619,
  "\u2581Qu\u1ef7": 6620,
  "\u2581gewissen": 6621,
  "\u2581hasst": 6622,
  "\u2581h\u1eb9p": 6623,
  "\u2581l\u1eadt": 6624,
  "\u2581starke": 6625,
  "ap": 6626,
  "\u2581bekomme": 6627,
  "\u2581erfuhr": 6628,
  "\u2581nachgedacht": 6629,
  "v\u1ec1": 6630,
  "\u2581Gehorsam": 6631,
  "\u2581HIV": 6632,
  "\u2581Russell": 6633,
  "\u2581besch\u00fctzt": 6634,
  "\u2581ch\u00e1nh": 6635,
  "\u2581normalerweise": 6636,
  "\u2581tiefer": 6637,
  "\u0111\u01b0\u1ee3c": 6638,
  "\u2581Befehle": 6639,
  "\u2581Testament": 6640,
  "\u2581durfte": 6641,
  "\u2581k\u1ef5": 6642,
  "fahrt": 6643,
  "\u00f6ffentlichungen": 6644,
  "\u2581Edward": 6645,
  "\u2581Finch": 6646,
  "\u2581Neu": 6647,
  "oth": 6648,
  "\u2581d\u1ed3i": 6649,
  "\u2581\u00fcberzeugen": 6650,
  "nehmen": 6651,
  "ot": 6652,
  "sverk\u00fcndiger": 6653,
  "weg": 6654,
  "\u2581\u00dac": 6655,
  "hai": 6656,
  "\u2581Dankbarkeit": 6657,
  "\u2581Evan": 6658,
  "\u2581Th\u1ee5": 6659,
  "\u2581w\u00fcnscht": 6660,
  "\u2581\u0110i\u1ec7n": 6661,
  "st\u00fcck": 6662,
  "\u258110]": 6663,
  "\u2581Medien": 6664,
  "\u2581Per": 6665,
  "\u2581bu\u00fdt": 6666,
  "\u2581b\u1ea1ch": 6667,
  "\u2581ph\u00e1o": 6668,
  "\u2581Staat": 6669,
  "\u2581auseinander": 6670,
  "\u2581c\u1ea3ng": 6671,
  "\u2581kem": 6672,
  "iv": 6673,
  "ris": 6674,
  "von": 6675,
  "\u2581Absicht": 6676,
  "\u2581Kindes": 6677,
  "\u2581Tr\u00f2": 6678,
  "\u2581Wartet": 6679,
  "\u2581kh\u00f4i": 6680,
  "gleich": 6681,
  "uck": 6682,
  "\u258112,": 6683,
  "\u2581Deutschland": 6684,
  "\u2581Haltung": 6685,
  "\u2581H\u1ec7": 6686,
  "\u2581Louis": 6687,
  "\u2581Prediger": 6688,
  "\u2581S\u1eafp": 6689,
  "\u2581Th\u1ee7": 6690,
  "\u2581g\u00f6ttliche": 6691,
  "\u2581tr\u00f3i": 6692,
  "\u2581v\u1edf": 6693,
  "],": 6694,
  "\u2581Berichte": 6695,
  "\u2581Gro\u00dfen": 6696,
  "\u2581H\u1eadu": 6697,
  "\u2581bereitwillig": 6698,
  "\u2581herrscht": 6699,
  "\u2581nh\u1ee9t": 6700,
  "port": 6701,
  "\u2581gew\u00f6hnlich": 6702,
  "\u2581haupts\u00e4chlich": 6703,
  "\u2581hinterlassen": 6704,
  "\u2581hu\u1ec7": 6705,
  "\u2581irgendeine": 6706,
  "\u2581langweilig": 6707,
  "\u00f6l": 6708,
  "\u2581Gas": 6709,
  "\u2581jenem": 6710,
  "Cha": 6711,
  "Nh\u01b0ng": 6712,
  "halten": 6713,
  "ide": 6714,
  "mu": 6715,
  "\u2581D\u1ea7u": 6716,
  "\u2581Ganze": 6717,
  "\u2581Geschlecht": 6718,
  "\u2581Tante": 6719,
  "\u2581besonderen": 6720,
  "\u2581go": 6721,
  "ding": 6722,
  "\u2581Ausharren": 6723,
  "\u2581K\u00fcche": 6724,
  "\u2581Mexiko": 6725,
  "\u2581Unternehmen": 6726,
  "\u2581Version": 6727,
  "\u2581gr\u00f6\u00dferen": 6728,
  "\u2581kriege": 6729,
  "\u25811000": 6730,
  "\u2581Arbeiter": 6731,
  "\u2581F\u00e4llen": 6732,
  "\u2581Jonathan": 6733,
  "\u2581Vergiss": 6734,
  "\u2581r\u00e2": 6735,
  "\u2581Befreiung": 6736,
  "\u2581Brust": 6737,
  "\u2581D\u1ecbch": 6738,
  "\u2581Gerade": 6739,
  "\u2581Staats": 6740,
  "\u2581Witwe": 6741,
  "\u2581Wochenende": 6742,
  "\u2581l\u1ea5p": 6743,
  "ana": 6744,
  "\u2581Angelegenheiten": 6745,
  "\u2581Roman": 6746,
  "\u2581Sechs": 6747,
  "\u2581Sollten": 6748,
  "\u2581Yu": 6749,
  "\u2581chu\u1ed9ng": 6750,
  "\u2581verbreitet": 6751,
  "tsch": 6752,
  "\u2581C\u00e1": 6753,
  "\u2581angebracht": 6754,
  "\u2581gi": 6755,
  "jo": 6756,
  "\u2581Pablo": 6757,
  "\u2581m\u00f2n": 6758,
  "\u2581s\u01a1n": 6759,
  "don": 6760,
  "\u25811919": 6761,
  "\u2581vermitteln": 6762,
  "\u2581\u0110\u1eb9p": 6763,
  "sinn": 6764,
  "\u2581Brand": 6765,
  "\u2581Gr\u00fcnden": 6766,
  "\u2581Ihm": 6767,
  "\u2581Karriere": 6768,
  "\u2581bewirken": 6769,
  "\u2581chinh": 6770,
  "\u2581durchs": 6771,
  "\u2581geschlafen": 6772,
  "\u2581h\u00f2m": 6773,
  "\u2581Andrew": 6774,
  "\u2581Sp": 6775,
  "\u2581erm\u00f6glicht": 6776,
  "Xin": 6777,
  "geben": 6778,
  "nie": 6779,
  "vo": 6780,
  "\u2581College": 6781,
  "\u2581Google": 6782,
  "\u2581H\u1ea3i": 6783,
  "\u2581Th\u00e1ng": 6784,
  "\u2581w\u00fcsste": 6785,
  "c\u00f9ng": 6786,
  "\u2581Bem\u00fchungen": 6787,
  "\u2581Moral": 6788,
  "\u2581Pharis\u00e4er": 6789,
  "\u2581nachahmen": 6790,
  "\u2581regieren": 6791,
  "\u2581verletzen": 6792,
  "je": 6793,
  "tu": 6794,
  "\u2581Million": 6795,
  "\u2581vieles": 6796,
  "\u2581Erwachet": 6797,
  "\u2581Feier": 6798,
  "\u2581Jones": 6799,
  "\u2581Liebes": 6800,
  "\u2581akzeptieren": 6801,
  "\u2581halbe": 6802,
  "\u2581khoang": 6803,
  "\u2581robot": 6804,
  "\u2581Erz\u00e4hl": 6805,
  "\u2581Kriege": 6806,
  "\u2581Marcus": 6807,
  "\u2581Zusammenhang": 6808,
  "\u2581gi\u1eb7t": 6809,
  "\u2581tr\u00f9m": 6810,
  "\u2581\u00e1ch": 6811,
  "gestellt": 6812,
  "schule": 6813,
  "\u2581Ch\u01b0\u01a1ng": 6814,
  "\u2581Fahrt": 6815,
  "\u2581Tanz": 6816,
  "\u2581gibst": 6817,
  "\u2581heutige": 6818,
  "\u2581kennenlernen": 6819,
  "ac": 6820,
  "\u2581aufrichtig": 6821,
  "\u2581begraben": 6822,
  "\u2581besitzt": 6823,
  "\u2581kh\u00e1n": 6824,
  "\u2581ki\u1ec1m": 6825,
  "\u2581n\u00e1u": 6826,
  "ress": 6827,
  "\u2581Hirn": 6828,
  "\u2581Hi\u1ec3": 6829,
  "\u2581N\u00e4chsten": 6830,
  "\u2581Probe": 6831,
  "\u2581genauer": 6832,
  "\u2581knapp": 6833,
  "\u2581x\u0103ng": 6834,
  "\u2581\u00fcberpr\u00fcfen": 6835,
  "\u2581Rein": 6836,
  "\u2581brach": 6837,
  "\u2581merken": 6838,
  "\u2581mu\u1ed1i": 6839,
  "\u2581r\u1ee1": 6840,
  "\u2581Bullen": 6841,
  "\u2581H\u1ee9a": 6842,
  "\u2581V\u01b0\u1ee3t": 6843,
  "\u2581c\u01b0\u1ee3c": 6844,
  "\u2581gelangen": 6845,
  "\u2581kho\u00e1c": 6846,
  "\u2581nh\u00e3": 6847,
  "ip": 6848,
  "ord": 6849,
  "verst\u00e4ndlich": 6850,
  "\u2581Religionen": 6851,
  "\u2581V\u0169": 6852,
  "\u2581ng\u1ecdc": 6853,
  "\u2581nhi\u00ea": 6854,
  "fa": 6855,
  "\u2581Society": 6856,
  "\u2581gay": 6857,
  "lang": 6858,
  "\u2581Bobby": 6859,
  "\u2581Material": 6860,
  "\u2581beendet": 6861,
  "\u2581erfunden": 6862,
  "\u2581h\u00f6chst": 6863,
  "\u2581l\u1ed9t": 6864,
  "\u2581umsonst": 6865,
  "\u2581wiederum": 6866,
  "50": 6867,
  "elle": 6868,
  "\u2581Gefahren": 6869,
  "\u2581Verwandten": 6870,
  "\u2581Zelle": 6871,
  "\u2581nh\u1eb7t": 6872,
  "c\u00e1i": 6873,
  "tieren": 6874,
  "\u2581F\u00fc\u00dfen": 6875,
  "\u2581fordert": 6876,
  "wort": 6877,
  "\u00d0\u1ee9c": 6878,
  "\u2581B\u00e1": 6879,
  "\u2581gezwungen": 6880,
  "\u2581h\u0103ng": 6881,
  "\u0110\u1eebng": 6882,
  "\u2581Ch\u01a1i": 6883,
  "\u2581Nord": 6884,
  "\u2581S\u1eed": 6885,
  "\u2581beachten": 6886,
  "\u2581worauf": 6887,
  "programm": 6888,
  "\u2581Pionierdienst": 6889,
  "\u2581beeinflussen": 6890,
  "\u2581etliche": 6891,
  "\u2581schickte": 6892,
  "\u2581\u0111\u1eadm": 6893,
  "\u2581Mittag": 6894,
  "\u2581St\u00e4dten": 6895,
  "\u2581\u00fcbrigens": 6896,
  "\u2581\u0111\u01a1": 6897,
  "\u2581Heil": 6898,
  "\u2581betrunken": 6899,
  "\u2581blieben": 6900,
  "\u2581he": 6901,
  "\u2581v\u1ea5p": 6902,
  "\u2581\u0111\u00f4n": 6903,
  "ette": 6904,
  "\u2581Erfahrungen": 6905,
  "\u2581l\u1ea7u": 6906,
  "dig": 6907,
  "line": 6908,
  "pro": 6909,
  "\u2581ch\u00f3c": 6910,
  "\u2581Briefe": 6911,
  "\u2581Wichser": 6912,
  "\u2581fair": 6913,
  "\u2581helfe": 6914,
  "\u2581kriegst": 6915,
  "\u2581wenigen": 6916,
  "\u2581Ch\u00e0ng": 6917,
  "\u2581Malcolm": 6918,
  "\u2581Times": 6919,
  "\u2581ehe": 6920,
  "\u2581entfernen": 6921,
  "\u2581l\u1ecfng": 6922,
  "Warum": 6923,
  "satz": 6924,
  "zo": 6925,
  "\u2581Ad": 6926,
  "\u2581Canada": 6927,
  "\u2581Identit\u00e4t": 6928,
  "\u2581Mitglieder": 6929,
  "\u2581\u0111\u1eafng": 6930,
  "ji": 6931,
  "\u2581Bewohner": 6932,
  "\u2581Kunden": 6933,
  "\u2581bewiesen": 6934,
  "\u2581dreht": 6935,
  "\u2581\u1ea2": 6936,
  "\u258117]": 6937,
  "\u2581Bauch": 6938,
  "\u2581G\u00e4ste": 6939,
  "\u2581Pe": 6940,
  "\u2581Show": 6941,
  "\u2581beeindruckt": 6942,
  "\u2581gewartet": 6943,
  "\u2581gh\u00e9p": 6944,
  "\u2581verteidigen": 6945,
  "\u2581Gewicht": 6946,
  "\u2581furchtbar": 6947,
  "v\u00ec": 6948,
  "\u2581Ehrlich": 6949,
  "\u2581Ma\u00df": 6950,
  "\u2581Schwein": 6951,
  "\u2581Steh": 6952,
  "\u2581h\u01b0u": 6953,
  "RA": 6954,
  "ria": 6955,
  "\u2581Gleiche": 6956,
  "\u2581Haltet": 6957,
  "\u2581Jackson": 6958,
  "\u2581K\u00ea": 6959,
  "\u2581Lebensmittel": 6960,
  "\u2581diesmal": 6961,
  "\u2581nachts": 6962,
  "\u2581Betrachten": 6963,
  "\u2581Pause": 6964,
  "\u2581C\u00e2m": 6965,
  "\u2581S\u00fcd": 6966,
  "\u2581b\u00fat": 6967,
  "\u2581su\u00fdt": 6968,
  "chte": 6969,
  "ven": 6970,
  "\u2581Heim": 6971,
  "\u2581solltet": 6972,
  "\u2581treiben": 6973,
  "\u2581vielmehr": 6974,
  "schein": 6975,
  "\u2581Au": 6976,
  "\u2581Felicity": 6977,
  "\u2581Nh\u1ea5t": 6978,
  "\u2581S\u00e1u": 6979,
  "\u2581l\u01b0\u1ee1ng": 6980,
  "\u2581melden": 6981,
  "\u2581r\u1ed7ng": 6982,
  "\u2581sammeln": 6983,
  "\u2581Post": 6984,
  "\u2581Vi\u00ean": 6985,
  "\u2581c\u1eafm": 6986,
  "\u2581l\u00fcgen": 6987,
  "\u2581stehlen": 6988,
  "15": 6989,
  "\u2581Coulson": 6990,
  "\u2581Ergebnisse": 6991,
  "\u2581Gro\u00dfvater": 6992,
  "\u2581KINH": 6993,
  "\u2581Niemals": 6994,
  "\u2581derjenige": 6995,
  "\u2581sch\u00f6ner": 6996,
  "fach": 6997,
  "heim": 6998,
  "sverm\u00f6gen": 6999,
  "zeichen": 7000,
  "\u258175": 7001,
  "\u2581C\u00e2y": 7002,
  "\u2581T\u1ed9i": 7003,
  "\u2581Zweigb\u00fcro": 7004,
  "\u2581beteiligt": 7005,
  "\u2581cu\u00f4": 7006,
  "\u2581ki\u00eang": 7007,
  "\u2581lernt": 7008,
  "\u2581verpasst": 7009,
  "ty": 7010,
  "\u2581C\u1ea7m": 7011,
  "\u2581Leichen": 7012,
  "\u2581Offensichtlich": 7013,
  "\u2581Tyler": 7014,
  "\u2581Woran": 7015,
  "\u2581best\u00e4tigen": 7016,
  "\u2581gew\u00e4hlt": 7017,
  "\u2581khao": 7018,
  "\u2581starben": 7019,
  "\u2581Carol": 7020,
  "\u2581gelehrt": 7021,
  "\u2581vermittelt": 7022,
  "\u2581zweimal": 7023,
  "ischer": 7024,
  "\u2581erkennt": 7025,
  "\u2581vieler": 7026,
  "\u2581\u00e4lter": 7027,
  "\u2581\u1eeb": 7028,
  "\u2581Hass": 7029,
  "\u2581Mitmenschen": 7030,
  "\u2581widerstehen": 7031,
  "\u2581w\u00fcrdig": 7032,
  "\u2581\u0110\u1ee9": 7033,
  "platz": 7034,
  "\u2581Abrahams": 7035,
  "\u2581Raymond": 7036,
  "\u2581Z\u00e4hne": 7037,
  "\u2581chi\u00eam": 7038,
  "\u2581irre": 7039,
  "\u2581l\u0103n": 7040,
  "\u2581politischen": 7041,
  "wagen": 7042,
  "\u258118]": 7043,
  "\u2581f\u00fchlst": 7044,
  "\u2581thi\u1ec3u": 7045,
  "\u2581Han": 7046,
  "\u2581Scheidung": 7047,
  "\u2581Toll": 7048,
  "\u2581ewige": 7049,
  "\u2581gr\u00fcndlich": 7050,
  "Ha": 7051,
  "beherrschung": 7052,
  "ierten": 7053,
  "isieren": 7054,
  "\u258155": 7055,
  "\u2581Ger\u00e4t": 7056,
  "\u2581Seien": 7057,
  "\u2581Ver\u00e4nderungen": 7058,
  "\u2581besseren": 7059,
  "\u2581durchaus": 7060,
  "\u258138": 7061,
  "\u2581Afghanistan": 7062,
  "\u2581Alexander": 7063,
  "\u2581Nh\u1eadn": 7064,
  "\u2581Thi\u1ebfu": 7065,
  "\u2581besch\u00e4ftigen": 7066,
  "\u2581geb": 7067,
  "\u2581hu": 7068,
  "\u2581kennengelernt": 7069,
  "\u2581v\u00e1y": 7070,
  "scht": 7071,
  "\u2581Erdbeben": 7072,
  "\u2581Pan": 7073,
  "\u2581biblischer": 7074,
  "\u2581chu\u00f4ng": 7075,
  "\u2581l\u1ec1u": 7076,
  "\u00dc": 7077,
  "\u2581Gl\u00fcckwunsch": 7078,
  "\u2581Ron": 7079,
  "\u2581Signal": 7080,
  "\u2581griechischen": 7081,
  "\u2581harte": 7082,
  "\u2581l\u00e2y": 7083,
  "\u2581wu\u00dfte": 7084,
  "\u2581\u25cf": 7085,
  "\u2581Braut": 7086,
  "\u2581Verlangen": 7087,
  "\u2581tr\u01b0\u01a1ng": 7088,
  "unter": 7089,
  "\u2581Acht": 7090,
  "\u2581Wirkung": 7091,
  "\u2581mitnehmen": 7092,
  "\u2581trennen": 7093,
  "\u2581\u00d6ffentlichkeit": 7094,
  "l\u00f6": 7095,
  "tik": 7096,
  "\u0111\u00ea": 7097,
  "\u2581Hintergrund": 7098,
  "\u2581Kreis": 7099,
  "\u2581b\u00f9ng": 7100,
  "\u2581erstes": 7101,
  "\u2581Funktion": 7102,
  "\u2581Juli": 7103,
  "\u2581Spiegel": 7104,
  "\u2581Susan": 7105,
  "\u2581gelebt": 7106,
  "\u2581lauter": 7107,
  "\u2581ng\u1ea9n": 7108,
  "fo": 7109,
  "\u2581angeht": 7110,
  "\u2581besprechen": 7111,
  "\u2581k\u1eb9o": 7112,
  "\u2581l\u00f3t": 7113,
  "\u2581ti\u1ec5n": 7114,
  "\u2581vay": 7115,
  "\u2581verlie\u00df": 7116,
  "\u2581zurecht": 7117,
  "cHFF": 7118,
  "c\u00f4": 7119,
  "c\u1ed1p": 7120,
  "\u2581Beide": 7121,
  "\u2581Fort": 7122,
  "\u2581Isaak": 7123,
  "\u2581M\u00fcll": 7124,
  "\u2581erwachsen": 7125,
  "\u2581warf": 7126,
  "\u2581Bleibt": 7127,
  "\u2581Wahrheiten": 7128,
  "\u2581c\u1ed1ng": 7129,
  "\u2581stellten": 7130,
  "gibt": 7131,
  "\u2581Besucher": 7132,
  "\u2581b\u1ec7": 7133,
  "\u2581Eisen": 7134,
  "\u2581berichten": 7135,
  "\u2581b\u1eafp": 7136,
  "\u2581passierte": 7137,
  "\u2581Beeil": 7138,
  "\u2581Berlin": 7139,
  "\u2581Pu": 7140,
  "\u2581h\u1ec5": 7141,
  "\u2581th\u1ea1ch": 7142,
  "sam": 7143,
  "\u2581Can": 7144,
  "\u2581Erziehung": 7145,
  "\u2581Fl\u00fcgel": 7146,
  "\u2581GE": 7147,
  "\u2581Hmm": 7148,
  "\u2581Jahrhunderte": 7149,
  "\u2581diente": 7150,
  "\u2581magst": 7151,
  "\u2581m\u00e2": 7152,
  "Ba": 7153,
  "ju": 7154,
  "wohl": 7155,
  "\u2581Grayson": 7156,
  "\u2581Regierungen": 7157,
  "\u2581S\u00fcnder": 7158,
  "\u2581T\u00ea": 7159,
  "\u2581Zeugin": 7160,
  "\u2581s\u00e9t": 7161,
  "\u2581\u0111\u1ea1c": 7162,
  "nis": 7163,
  "wand": 7164,
  "\u2581Existenz": 7165,
  "\u2581angegeben": 7166,
  "\u2581hinab": 7167,
  "\u2581tr\u01b0\u01a1": 7168,
  "\u02b9": 7169,
  "\u2581Leser": 7170,
  "\u2581Wells": 7171,
  "\u2581b\u1ec3": 7172,
  "\u2581liest": 7173,
  "\u2581weiterer": 7174,
  "\u2581Fu": 7175,
  "\u2581Schulter": 7176,
  "\u2581Stock": 7177,
  "\u2581beschreibt": 7178,
  "\u2581l\u00e4cherlich": 7179,
  "\u2581Jason": 7180,
  "\u2581khuy\u1ebft": 7181,
  "\u2581qu": 7182,
  "\u2581v\u1ee9t": 7183,
  "t\u00fcr": 7184,
  "\u2581Lob": 7185,
  "\u2581L\u00fcgner": 7186,
  "\u2581Presse": 7187,
  "\u2581Vom": 7188,
  "\u2581X\u00e9t": 7189,
  "\u2581erfreut": 7190,
  "\u2581streng": 7191,
  "\u2581B\u1ed1n": 7192,
  "\u2581Gefangenen": 7193,
  "\u2581f\u00fchrten": 7194,
  "\u2581L\u00f6wen": 7195,
  "\u2581Vollzeitdienst": 7196,
  "\u2581geglaubt": 7197,
  "\u2581h\u1ed1": 7198,
  "\u2581tiefe": 7199,
  "0.000": 7200,
  "\u00d4ng": 7201,
  "\u2581April": 7202,
  "\u2581Leo": 7203,
  "\u2581Q": 7204,
  "\u2581Suy": 7205,
  "\u2581nh\u01a1": 7206,
  "\u2581wandte": 7207,
  "\u2581Allen": 7208,
  "\u2581Bestes": 7209,
  "\u2581Design": 7210,
  "\u2581Gewinn": 7211,
  "\u2581Helen": 7212,
  "\u2581d\u01b0\u1ee3c": 7213,
  "\u2581ho\u00e3n": 7214,
  "xi": 7215,
  "\u2581Brody": 7216,
  "\u2581TH\u00c1NH": 7217,
  "\u2581spielte": 7218,
  "dienst": 7219,
  "\u2581Dreck": 7220,
  "\u2581Einklang": 7221,
  "\u2581Gesch\u00e4fte": 7222,
  "\u2581H\u1ed3ng": 7223,
  "\u2581schwierigen": 7224,
  "\u2581starten": 7225,
  "10": 7226,
  "d\u00edp": 7227,
  "\u2581Fahren": 7228,
  "\u2581Mer": 7229,
  "\u2581W\u00f6rter": 7230,
  "\u2581\u00fcberwinden": 7231,
  "US": 7232,
  "\u2581Ereignis": 7233,
  "\u2581Etwa": 7234,
  "\u2581M\u1ea5t": 7235,
  "\u2581Wal": 7236,
  "\u2581aufge": 7237,
  "\u2581d\u1eddi": 7238,
  "\u2581kurze": 7239,
  "ish": 7240,
  "\u2581Charlotte": 7241,
  "\u2581God": 7242,
  "\u2581Gro\u00dfmutter": 7243,
  "\u2581G\u00f6ttern": 7244,
  "\u2581verpflichtet": 7245,
  "\u2581\u0111\u00edt": 7246,
  "lon": 7247,
  "\u2581Ebene": 7248,
  "\u2581Mitternacht": 7249,
  "\u2581k\u00fcmmere": 7250,
  "\u2581m\u00e0ng": 7251,
  "lan": 7252,
  "\u2581Amen": 7253,
  "\u2581Fitz": 7254,
  "\u2581Namens": 7255,
  "\u2581ewigen": 7256,
  "\u2581l\u01b0\u1eddng": 7257,
  "\u2581passen": 7258,
  "\u2581plus": 7259,
  "\u2581Amt": 7260,
  "\u2581Fr\u00fchst\u00fcck": 7261,
  "\u2581Hunderte": 7262,
  "\u2581g\u1ee5c": 7263,
  "\u2581khe": 7264,
  "\u2581steigen": 7265,
  "\u2581zuh\u00f6ren": 7266,
  "\u2581B\u01b0\u1edbc": 7267,
  "\u2581Fick": 7268,
  "\u2581Voll": 7269,
  "fallen": 7270,
  "f\u00fcr": 7271,
  "\u258123:": 7272,
  "\u2581Adams": 7273,
  "\u2581Rot": 7274,
  "\u2581Zauber": 7275,
  "\u2581Zucht": 7276,
  "\u2581anzeigen": 7277,
  "\u2581begangen": 7278,
  "\u2581m\u00fcssten": 7279,
  "\u2581th\u1ee5c": 7280,
  "\u2581t\u1ecfa": 7281,
  "\u2581wette": 7282,
  "\u2581\u0110\u1eddi": 7283,
  "C\u00f4": 7284,
  "han": 7285,
  "\u2581Auswirkungen": 7286,
  "\u2581Eden": 7287,
  "\u2581Gideon": 7288,
  "\u2581Philister": 7289,
  "\u2581d\u00e3y": 7290,
  "\u2581entstehen": 7291,
  "\u2581schwerer": 7292,
  "1000}": 7293,
  "mittel": 7294,
  "xa": 7295,
  "\u2581B\u1ea3y": 7296,
  "\u2581best\u00e4ndig": 7297,
  "\u2581b\u1ecd": 7298,
  "\u2581reagiert": 7299,
  "\u2581v\u1ea1ch": 7300,
  "\u2581\u0110\u00f3ng": 7301,
  "log": 7302,
  "tun": 7303,
  "\u2581Ausbildung": 7304,
  "\u2581Besonders": 7305,
  "\u2581Fortschritt": 7306,
  "\u2581Gilead": 7307,
  "\u2581K\u00f6nnten": 7308,
  "\u2581Lot": 7309,
  "\u2581Mu": 7310,
  "\u2581Teufels": 7311,
  "\u2581Tieren": 7312,
  "\u2581Virus": 7313,
  "\u2581erheben": 7314,
  "\u2581versagt": 7315,
  "\u0111\u00e3": 7316,
  "\u2581Steine": 7317,
  "\u2581th\u00e2m": 7318,
  "seite": 7319,
  "\u2581Min": 7320,
  "\u2581tuy\u1ec3n": 7321,
  "\u2581\u0111\u01b0": 7322,
  "V\u1eady": 7323,
  "lassen": 7324,
  "misch": 7325,
  "tur": 7326,
  "\u2581End": 7327,
  "\u2581Nerven": 7328,
  "\u2581Ph\u00ea": 7329,
  "\u2581Seth": 7330,
  "\u2581greifen": 7331,
  "hy": 7332,
  "pen": 7333,
  "rad": 7334,
  "\u2581Arbeiten": 7335,
  "\u2581Medikamente": 7336,
  "\u2581Neben": 7337,
  "\u2581Ungerechtigkeit": 7338,
  "\u2581preisen": 7339,
  "\u2581Volks": 7340,
  "\u2581ausgew\u00e4hlt": 7341,
  "\u2581endet": 7342,
  "\u2581irdischen": 7343,
  "\u2581l\u1eafp": 7344,
  "\u2581m\u00f3ng": 7345,
  "\u2581v\u1ea5": 7346,
  "\u2581ch\u00e0": 7347,
  "\u2581si\u00eang": 7348,
  "\u2581w\u00e4chst": 7349,
  "all": 7350,
  "\u2581120": 7351,
  "\u2581Holt": 7352,
  "\u2581Mistkerl": 7353,
  "\u2581Theorie": 7354,
  "\u2581Zion": 7355,
  "\u2581anscheinend": 7356,
  "\u2581auswirken": 7357,
  "\u2581einsam": 7358,
  "\u2581kh\u1ea5u": 7359,
  "\u2581l\u1ee3n": 7360,
  "\u2581ng\u1edb": 7361,
  "\u2581verliert": 7362,
  "steht": 7363,
  "\u2581B\u00fchne": 7364,
  "\u2581Rechten": 7365,
  "\u2581Witze": 7366,
  "\u2581bedroht": 7367,
  "\u2581kh\u00fac": 7368,
  "\u2581liebevolle": 7369,
  "CH": 7370,
  "\u2581T\u00e0i": 7371,
  "\u2581Vergessen": 7372,
  "\u2581anstatt": 7373,
  "\u2581bem\u00fcht": 7374,
  "\u2581brauch": 7375,
  "\u2581b\u00f9": 7376,
  "\u2581erfreuen": 7377,
  "\u2581f\u00f6rdern": 7378,
  "\u2581k\u00eanh": 7379,
  "\u2581r\u00e2u": 7380,
  "\u2581schl\u00e4gt": 7381,
  "\u2581weinen": 7382,
  "losigkeit": 7383,
  "\u00e1": 7384,
  "\u2581G\u00f6tzen": 7385,
  "\u2581Hau": 7386,
  "\u2581Radio": 7387,
  "\u2581bereiten": 7388,
  "\u2581beschlossen": 7389,
  "\u2581r\u0103": 7390,
  "\u2581Anzug": 7391,
  "\u2581M\u1eaft": 7392,
  "\u2581Teilen": 7393,
  "\u2581anzunehmen": 7394,
  "\u2581pa": 7395,
  "\u2581reine": 7396,
  "\u2581sexuelle": 7397,
  "hl": 7398,
  "lia": 7399,
  "\u2581Cat": 7400,
  "\u2581Nehmt": 7401,
  "\u2581c\u1ee5m": 7402,
  "\u2581ph\u00e0n": 7403,
  "ld": 7404,
  "\u2581Ansichten": 7405,
  "\u2581K\u00e9o": 7406,
  "\u2581Mc": 7407,
  "\u2581Qu\u00ean": 7408,
  "\u2581Stern": 7409,
  "\u2581h\u01b0\u1edbc": 7410,
  "l\u00ea": 7411,
  "\u2581Gern": 7412,
  "\u2581Jon": 7413,
  "\u2581M\u1ea1ng": 7414,
  "\u2581Ost": 7415,
  "\u2581belohnt": 7416,
  "\u00f6h": 7417,
  "\u2581Erstens": 7418,
  "\u2581Fluch": 7419,
  "\u2581Mm": 7420,
  "\u2581Strand": 7421,
  "\u2581Symbol": 7422,
  "\u2581streiten": 7423,
  "\u2581wiederholt": 7424,
  "\u2581\u0111\u1eafm": 7425,
  "\u2581En": 7426,
  "\u2581Kollegen": 7427,
  "\u2581September": 7428,
  "\u2581l\u00e9n": 7429,
  "\u2581Anf\u00fchrer": 7430,
  "\u2581Neuigkeiten": 7431,
  "\u2581Stoff": 7432,
  "\u2581Versuchen": 7433,
  "\u2581feststellen": 7434,
  "\u2581fr\u00f6hlich": 7435,
  "\u2581hilf": 7436,
  "\u2581interessieren": 7437,
  "\u2581th\u1ecd": 7438,
  "\u2581t\u00f4ng": 7439,
  "\u2581you": 7440,
  "\u2581\u0110\u00e1m": 7441,
  "ti\u1ebfng": 7442,
  "\u25811.000": 7443,
  "\u2581Bond": 7444,
  "\u2581Ch\u00e2n": 7445,
  "\u2581Ethan": 7446,
  "\u2581Spitze": 7447,
  "\u2581durchgef\u00fchrt": 7448,
  "\u2581k\u00e8n": 7449,
  "\u2581schlau": 7450,
  "\u2581Colonel": 7451,
  "\u2581Kindheit": 7452,
  "\u2581Markus": 7453,
  "\u2581Polizisten": 7454,
  "\u2581Technik": 7455,
  "\u2581dank": 7456,
  "\u2581n\u1ea1p": 7457,
  "\u2581\u01b0\u1edbt": 7458,
  "\u2581Cor": 7459,
  "\u2581Geschwindigkeit": 7460,
  "\u2581schl\u00e4ft": 7461,
  "\u2581sch\u00f6nes": 7462,
  "\u2581vorausgesagt": 7463,
  "\u2581v\u00e1n": 7464,
  "\u2581wahrer": 7465,
  "treten": 7466,
  "yl": 7467,
  "\u2581Chuy\u1ec3n": 7468,
  "\u2581Karen": 7469,
  "\u2581Versuchung": 7470,
  "\u2581h\u0103": 7471,
  "\u2581r\u1ee7i": 7472,
  "\u2581Hin": 7473,
  "\u2581Jay": 7474,
  "\u2581Krone": 7475,
  "\u2581S\u00f6hnen": 7476,
  "\u2581Verhei\u00dfungen": 7477,
  "\u2581Wurde": 7478,
  "\u2581d\u1ed1c": 7479,
  "\u2581politische": 7480,
  "\u2581segnen": 7481,
  "\u2581unterscheiden": 7482,
  "sk": 7483,
  "\u0110\u1ea5ng": 7484,
  "\u258143": 7485,
  "\u2581Fang": 7486,
  "\u2581Souver\u00e4nit\u00e4t": 7487,
  "\u2581beweist": 7488,
  "\u2581khi\u1ebft": 7489,
  "\u2581\u0111\u00e0m": 7490,
  "gezogen": 7491,
  "kar": 7492,
  "liste": 7493,
  "wasser": 7494,
  "\u2581C\u00e0ng": 7495,
  "\u2581Kh\u1ea3": 7496,
  "\u2581Schild": 7497,
  "\u2581Vi\u1ec7n": 7498,
  "\u2581besorgen": 7499,
  "\u2581bleib": 7500,
  "\u2581fr\u00fchen": 7501,
  "\u2581qu\u00e3ng": 7502,
  "*": 7503,
  "ank": 7504,
  "\u2581Details": 7505,
  "\u2581Meeres": 7506,
  "\u2581R\u00fcckkehr": 7507,
  "\u2581entf\u00fchrt": 7508,
  "\u2581n\u00f3c": 7509,
  "\u2581s\u1ed1c": 7510,
  "\u0111\u1eddi": 7511,
  "\u2581Geschmack": 7512,
  "\u2581Sabbat": 7513,
  "\u2581Ver\u00e4nderung": 7514,
  "\u2581l\u1ebb": 7515,
  "\u2581\u00e2u": 7516,
  "van": 7517,
  "\u2581Lucy": 7518,
  "\u2581f\u00e4ngt": 7519,
  "IE": 7520,
  "\u2581Matthew": 7521,
  "\u2581Verr\u00e4ter": 7522,
  "\u2581arme": 7523,
  "\u2581nimmst": 7524,
  "\u2581rauf": 7525,
  "band": 7526,
  "nde": 7527,
  "well": 7528,
  "\u2581Bad": 7529,
  "\u2581Brown": 7530,
  "\u2581Giao": 7531,
  "\u2581Jeden": 7532,
  "\u2581herausgegeben": 7533,
  "\u2581m\u00e1": 7534,
  "\u2581v\u00e1c": 7535,
  "\u2581Besonderes": 7536,
  "\u2581Gespr\u00e4che": 7537,
  "\u2581T\u00f9y": 7538,
  "\u2581kho\u00e1": 7539,
  "\u2581peinlich": 7540,
  "\u2581s\u00e1c": 7541,
  "\u2581verzweifelt": 7542,
  "\u2581wobei": 7543,
  "\u2581Einflu\u00df": 7544,
  "\u2581buchst\u00e4blich": 7545,
  "\u2581gegr\u00fcndet": 7546,
  "\u2581wodurch": 7547,
  "sucht": 7548,
  "tische": 7549,
  "\u2581Beruf": 7550,
  "\u2581Mitleid": 7551,
  "\u2581senden": 7552,
  "\u2581th\u1eafn": 7553,
  "\u2581vergleichen": 7554,
  "\u2581vorn": 7555,
  "\u2581v\u00e1ch": 7556,
  "\u2581\u00c4nderungen": 7557,
  "\u2581Abschluss": 7558,
  "\u2581Leiter": 7559,
  "\u2581b\u1ebfn": 7560,
  "\u2581l\u00e1ng": 7561,
  "\u2581m\u00e2u": 7562,
  "ete": 7563,
  "\u2581Bedrohung": 7564,
  "\u2581Handeln": 7565,
  "\u2581Zerst\u00f6rung": 7566,
  "\u2581dunkel": 7567,
  "\u2581erh\u00e4lt": 7568,
  "\u2581r\u00f6mischen": 7569,
  "Christ": 7570,
  "\u2581Netz": 7571,
  "\u2581Wohn": 7572,
  "\u2581ausgesetzt": 7573,
  "\u2581gi\u1ee1n": 7574,
  "\u2581qui": 7575,
  "laufen": 7576,
  "scha": 7577,
  "\u2581Club": 7578,
  "\u2581Hoheit": 7579,
  "\u2581Spuren": 7580,
  "\u2581freiwillig": 7581,
  "zugehen": 7582,
  "\u00ed": 7583,
  "\u2581B\u00f6ses": 7584,
  "\u2581Fahrer": 7585,
  "\u2581Gu": 7586,
  "\u2581H\u00f6rst": 7587,
  "\u2581Wisst": 7588,
  "\u2581dinh": 7589,
  "\u2581inzwischen": 7590,
  "\u2581kh": 7591,
  "\u2581t\u00f6tete": 7592,
  "\u2581v\u00fa": 7593,
  "\u2581\u00f6fter": 7594,
  "lt": 7595,
  "\u2581Endlich": 7596,
  "\u2581Magie": 7597,
  "\u2581Tr\u1eafng": 7598,
  "\u2581baute": 7599,
  "\u2581begegnet": 7600,
  "\u2581gi\u1ecdt": 7601,
  "\u2581lhr": 7602,
  "zahl": 7603,
  "\u2581B\u1eefa": 7604,
  "\u2581Shaw": 7605,
  "\u2581Verbrecher": 7606,
  "\u2581beherrschen": 7607,
  "\u2581b\u1ed3n": 7608,
  "\u2581c\u1ee5t": 7609,
  "\u2581c\u1ee9t": 7610,
  "\u2581jeglicher": 7611,
  "\u2581Lily": 7612,
  "\u2581Verm\u00f6gen": 7613,
  "\u2581Zeitschriften": 7614,
  "\u2581kho\u1ebb": 7615,
  "\u2581ranh": 7616,
  "\u2581\u00f6ffentlich": 7617,
  "tat": 7618,
  "tritt": 7619,
  "\u2581H\u00e0": 7620,
  "\u2581M\u00f4n": 7621,
  "\u2581Wach": 7622,
  "\u2581anbeten": 7623,
  "\u2581freien": 7624,
  "\u2581h\u00edt": 7625,
  "\u2581m\u1ef9": 7626,
  "\u2581nh\u1ecb": 7627,
  "\u2060": 7628,
  "\u2581Drink": 7629,
  "\u2581M\u00e0u": 7630,
  "\u2581Pfad": 7631,
  "\u2581n\u00f4n": 7632,
  "\u2581sorgf\u00e4ltig": 7633,
  "NG": 7634,
  "arbeiten": 7635,
  "low": 7636,
  "\u2581Bro": 7637,
  "\u2581B\u00fcrgermeister": 7638,
  "\u2581Glieder": 7639,
  "\u2581Lade": 7640,
  "\u2581N\u00e4chstes": 7641,
  "\u2581Reg": 7642,
  "\u2581Tai": 7643,
  "\u2581ch\u1ed1n": 7644,
  "\u2581m\u1ee1": 7645,
  "\u2581reisen": 7646,
  "punkt": 7647,
  "\u2581Anerkennung": 7648,
  "\u2581T\u00e0u": 7649,
  "\u2581k\u1ec7": 7650,
  "tum": 7651,
  "\u2581Christian": 7652,
  "\u2581Fr\u00fcchte": 7653,
  "\u2581Hure": 7654,
  "\u2581s\u1eebng": 7655,
  "La": 7656,
  "bare": 7657,
  "ort": 7658,
  "sha": 7659,
  "\u2581Bu": 7660,
  "\u2581Lester": 7661,
  "\u2581Ph\u00e1t": 7662,
  "\u2581Scherz": 7663,
  "\u2581angesichts": 7664,
  "\u2581bringst": 7665,
  "\u2581b\u00eanh": 7666,
  "\u2581gro\u00dfz\u00fcgig": 7667,
  "\u2581k\u1ec1": 7668,
  "\u2581s\u00fcndigen": 7669,
  "\u2581D\u1ec5": 7670,
  "\u2581Maschinen": 7671,
  "\u2581Trick": 7672,
  "\u2581nh\u00ec": 7673,
  "\u2581D\u00f2ng": 7674,
  "\u2581Mangel": 7675,
  "\u2581Studie": 7676,
  "\u2581entstanden": 7677,
  "\u2581h\u1ec7t": 7678,
  "\u2581x\u00ed": 7679,
  "20": 7680,
  "V\u1ed7": 7681,
  "h\u1ec9nh": 7682,
  "\u2581hell": 7683,
  "chi\u00ean": 7684,
  "\u2581Chaos": 7685,
  "\u2581Flash": 7686,
  "\u2581Inhalt": 7687,
  "\u2581Roger": 7688,
  "\u2581erschie\u00dfen": 7689,
  "\u2581gebrauchte": 7690,
  "\u2581kompliziert": 7691,
  "\u2581prophetische": 7692,
  "\u2581xu\u00e2n": 7693,
  "\u2581\u1ea5u": 7694,
  "durch": 7695,
  "\u2581Fertig": 7696,
  "\u2581Fu\u00dfnoten": 7697,
  "\u2581Jedenfalls": 7698,
  "\u2581Meinen": 7699,
  "\u2581m\u0103": 7700,
  "\u2581per": 7701,
  "\u2581unschuldig": 7702,
  "\u2581Angeles": 7703,
  "\u2581Schreib": 7704,
  "\u2581Schwarz": 7705,
  "\u2581m\u00f6glichen": 7706,
  "\u2581non": 7707,
  "\u2581offiziell": 7708,
  "\u2581ruf": 7709,
  "=": 7710,
  "gar": 7711,
  "zieht": 7712,
  "\u2581Bibelbuch": 7713,
  "\u2581Mitglied": 7714,
  "\u2581Neuen": 7715,
  "\u2581Smith": 7716,
  "\u2581Thu\u1ed1c": 7717,
  "\u2581Watch": 7718,
  "\u2581erh\u00f6ht": 7719,
  "\u2581la\u00df": 7720,
  "\u2581sprichst": 7721,
  "\u2581wurdest": 7722,
  "\u2581\u0110\u01a1n": 7723,
  "io": 7724,
  "n\u00ean": 7725,
  "uk": 7726,
  "\u2581Atmosph\u00e4re": 7727,
  "\u2581Auswahl": 7728,
  "\u2581CO": 7729,
  "\u2581Dunkelheit": 7730,
  "\u2581Hall": 7731,
  "\u2581Kit": 7732,
  "\u2581Mauern": 7733,
  "\u2581Polizist": 7734,
  "\u2581Prinz": 7735,
  "\u2581c\u1ed1i": 7736,
  "\u2581gewinnt": 7737,
  "\u2581l\u00e9o": 7738,
  "\u2581ng\u00e0o": 7739,
  "\u2581rung": 7740,
  "\u2581worum": 7741,
  "f\u00fchrer": 7742,
  "nach": 7743,
  "ob": 7744,
  "pt": 7745,
  "\u0111\u1ed3": 7746,
  "\u2581Schulen": 7747,
  "\u2581Sergeant": 7748,
  "\u2581T\u1ec7": 7749,
  "\u2581einfachen": 7750,
  "\u2581gelaufen": 7751,
  "gro\u00dfe": 7752,
  "\u2581Autor": 7753,
  "\u2581Eigenschaft": 7754,
  "\u2581R\u00e4tsel": 7755,
  "\u2581Urlaub": 7756,
  "\u2581getrunken": 7757,
  "\u258120,": 7758,
  "\u2581Fett": 7759,
  "\u2581Nachmittag": 7760,
  "\u2581Zucker": 7761,
  "\u2581gerufen": 7762,
  "\u2581glaubten": 7763,
  "\u2581gro\u00dfartige": 7764,
  "\u2581rot": 7765,
  "ari": 7766,
  "ierst": 7767,
  "\u2581Belohnung": 7768,
  "\u2581Deckung": 7769,
  "\u2581Grundsatz": 7770,
  "\u2581Wildnis": 7771,
  "frei": 7772,
  "\u2581Cole": 7773,
  "\u2581Fische": 7774,
  "\u2581Flut": 7775,
  "\u2581Ms": 7776,
  "\u2581Worum": 7777,
  "\u2581bekommst": 7778,
  "\u2581einverstanden": 7779,
  "\u2581gefahren": 7780,
  "\u2581h\u1edf": 7781,
  "\u2581ph\u00e0m": 7782,
  "Zu": 7783,
  "alle": 7784,
  "ive": 7785,
  "\u2581Beschreibung": 7786,
  "\u2581Gottergebenheit": 7787,
  "\u2581Qu": 7788,
  "\u2581m\u1ed5": 7789,
  "\u2581relativ": 7790,
  "\u2581\u0111\u1ed7": 7791,
  "th\u1ec3": 7792,
  "\u2581Green": 7793,
  "\u2581Soldat": 7794,
  "\u2581hingehen": 7795,
  "\u2581l\u1ec7ch": 7796,
  "\u2581\u00fcblich": 7797,
  "\u2581Ana": 7798,
  "\u2581Howard": 7799,
  "\u2581K\u00fcnstler": 7800,
  "\u2581L\u00e2u": 7801,
  "\u2581Netzwerk": 7802,
  "\u2581c\u00e2m": 7803,
  "\u2581khu\u1ea5t": 7804,
  "Mein": 7805,
  "\u2581Laufe": 7806,
  "\u2581Miller": 7807,
  "\u2581Notfall": 7808,
  "\u2581Spartacus": 7809,
  "\u2581Spielen": 7810,
  "\u2581entspricht": 7811,
  "Aus": 7812,
  "macht": 7813,
  "sprache": 7814,
  "\u2581Bedingungen": 7815,
  "\u2581Big": 7816,
  "\u2581Ehepaar": 7817,
  "\u2581Felsen": 7818,
  "\u2581Hill": 7819,
  "\u2581H\u1ecfi": 7820,
  "\u2581Stress": 7821,
  "\u2581T\u01b0\u1edbng": 7822,
  "\u2581th\u1ed1n": 7823,
  "\u258146": 7824,
  "\u2581Bewusstsein": 7825,
  "\u2581C\u0103n": 7826,
  "\u2581Dick": 7827,
  "\u2581Felix": 7828,
  "\u2581c\u00f5i": 7829,
  "\u2581c\u1ef1u": 7830,
  "\u2581morgens": 7831,
  "\u2581tr\u00e1ng": 7832,
  "\u2581ver\u00f6ffentlicht": 7833,
  "\u2581\u0110\u01b0": 7834,
  "\u2581Endes": 7835,
  "\u2581Fast": 7836,
  "\u2581Naja": 7837,
  "\u2581Reiter": 7838,
  "\u2581Spenden": 7839,
  "\u2581T\u00f4": 7840,
  "\u2581gesorgt": 7841,
  "\u2581kon": 7842,
  "B\u1ea1n": 7843,
  "erei": 7844,
  "gn": 7845,
  "handel": 7846,
  "\u2581Babel": 7847,
  "\u2581Katze": 7848,
  "\u2581Xu\u1ed1ng": 7849,
  "\u2581aufpassen": 7850,
  "\u2581gesch": 7851,
  "\u2581irgendjemand": 7852,
  "\u2581s\u01b0u": 7853,
  "h\u00e4lt": 7854,
  "licht": 7855,
  "sch\u00e4": 7856,
  "\u0110\u00f3": 7857,
  "\u2581Killer": 7858,
  "\u2581automatisch": 7859,
  "\u2581ch\u1eb1m": 7860,
  "\u2581m\u00faa": 7861,
  "\u2581\u0110\u1ed9ng": 7862,
  "Kennst": 7863,
  "\u2581Gotham": 7864,
  "\u2581Tr\u01b0\u1edfng": 7865,
  "\u2581schwarze": 7866,
  "\u2581\u00c9p": 7867,
  "\u2581\u0111\u1ee9t": 7868,
  "yn": 7869,
  "\u2581H\u00e0n": 7870,
  "\u2581Kara": 7871,
  "\u2581d\u01a1": 7872,
  "\u2581x\u00e0": 7873,
  "wir": 7874,
  "\u258123.": 7875,
  "\u2581Chase": 7876,
  "\u2581Gro\u00dfartig": 7877,
  "\u2581Kapit\u00e4n": 7878,
  "\u2581Oktober": 7879,
  "\u2581allzu": 7880,
  "\u2581barmherzig": 7881,
  "\u2581bot": 7882,
  "\u2581m\u1ebb": 7883,
  "g\u00e1i": 7884,
  "ny": 7885,
  "\u2581Alan": 7886,
  "\u2581T\u1eed": 7887,
  "\u2581Wolken": 7888,
  "\u2581cong": 7889,
  "\u2581gepredigt": 7890,
  "\u2581lachen": 7891,
  "\u2581untersucht": 7892,
  "40": 7893,
  "k\u1ebb": 7894,
  "\u2581BIBEL": 7895,
  "\u2581B\u00ed": 7896,
  "\u2581Julia": 7897,
  "\u2581Modell": 7898,
  "\u2581Orten": 7899,
  "\u2581Wandel": 7900,
  "\u2581folgendes": 7901,
  "\u2581r\u1ec3": 7902,
  "\u2581vertreten": 7903,
  "\u2581v\u00e3i": 7904,
  "V\u00e0": 7905,
  "opfer": 7906,
  "\u2581Ausland": 7907,
  "\u2581Date": 7908,
  "\u2581Einzelheiten": 7909,
  "\u2581Spiele": 7910,
  "\u2581ng\u1ed9": 7911,
  "\u2581nh\u1ea3m": 7912,
  "\u2581stimmen": 7913,
  "\u2581zuletzt": 7914,
  "ay": 7915,
  "cher": 7916,
  "\u2581Fr\u00fcher": 7917,
  "\u2581Harvey": 7918,
  "\u2581Truppen": 7919,
  "\u2581Web": 7920,
  "\u2581Wirtschaft": 7921,
  "\u2581gemein": 7922,
  "\u2581h\u1ee1i": 7923,
  "\u2581innere": 7924,
  "\u2581ng\u01b0": 7925,
  "\u2581wei\u00dfen": 7926,
  "\u2581\u0110i\u1ec3m": 7927,
  "ack": 7928,
  "\u2581Florida": 7929,
  "\u2581Untersuchung": 7930,
  "\u2581beseitigen": 7931,
  "\u2581empfinden": 7932,
  "\u2581m\u00f6ge": 7933,
  "\u2581nackt": 7934,
  "welt": 7935,
  "\u2581Charakter": 7936,
  "\u2581F\u00e4lle": 7937,
  "\u2581dr\u00fccken": 7938,
  "\u2581offenbart": 7939,
  "\u2581vorgesehen": 7940,
  "\u2581\u01a0": 7941,
  "ep": 7942,
  "oder": 7943,
  "\u2581Babys": 7944,
  "\u2581Information": 7945,
  "\u2581X\u00f4": 7946,
  "\u2581gelogen": 7947,
  "\u2581l\u00edu": 7948,
  "\u2581versuchten": 7949,
  "enz": 7950,
  "\u2581heutzutage": 7951,
  "\u2581satt": 7952,
  "Mann": 7953,
  "feuer": 7954,
  "\u2581Finde": 7955,
  "\u2581Iris": 7956,
  "\u2581Wild": 7957,
  "\u2581g\u1ea1ch": 7958,
  "\u2581herunter": 7959,
  "\u2581v\u1eb7t": 7960,
  "\u2581California": 7961,
  "\u2581Christliche": 7962,
  "\u2581La\u00df": 7963,
  "\u2581Sch\u00e4tze": 7964,
  "\u2581erh\u00f6rt": 7965,
  "\u2581gew\u00e4hrt": 7966,
  "\u2581liebevollen": 7967,
  "\u2581l\u0169ng": 7968,
  "\u2581\u00fcberlassen": 7969,
  "\u2581\u0110\u1ecf": 7970,
  "\u2581\u0111\u00e8": 7971,
  "shi": 7972,
  "vier": 7973,
  "\u2581National": 7974,
  "\u2581Publikum": 7975,
  "\u2581Sha": 7976,
  "\u2581Sprich": 7977,
  "\u2581gerechten": 7978,
  "\u2581ki\u00ea": 7979,
  "\u2581l\u0103ng": 7980,
  "\u2581teuer": 7981,
  "\u2581wart": 7982,
  "\u2581\u00dcberrest": 7983,
  "IG": 7984,
  "V\u00e2ng": 7985,
  "eren": 7986,
  "\u2581Davon": 7987,
  "\u2581Panik": 7988,
  "\u2581c\u1ea1o": 7989,
  "\u2581erf\u00fcllte": 7990,
  "\u2581versprach": 7991,
  "nte": 7992,
  "\u2581Basis": 7993,
  "\u2581B\u1ebft": 7994,
  "\u2581Satz": 7995,
  "\u2581Verlauf": 7996,
  "\u2581Wachstum": 7997,
  "\u2581bemerkte": 7998,
  "\u2581chi\u00ea": 7999,
  "Do": 8000,
  "ski": 8001,
  "\u2581Diesen": 8002,
  "\u2581Fremden": 8003,
  "\u2581Potter": 8004,
  "\u2581h\u00e2m": 8005,
  "\u2581medizinische": 8006,
  "\u2581\u00f6ffentliche": 8007,
  "LE": 8008,
  "stoff": 8009,
  "\u2581August": 8010,
  "\u2581Flughafen": 8011,
  "\u2581Hinweise": 8012,
  "\u2581Hiskia": 8013,
  "\u2581Kauf": 8014,
  "\u2581Klein": 8015,
  "\u2581entschied": 8016,
  "\u2581erlauben": 8017,
  "\u2581ng\u1eaft": 8018,
  "\u2581thi\u1ebfp": 8019,
  "\u2581x\u1ebf": 8020,
  "T\u1ea1i": 8021,
  "alen": 8022,
  "lig": 8023,
  "\u2581Asche": 8024,
  "\u2581Esel": 8025,
  "\u2581Val": 8026,
  "\u2581begegnen": 8027,
  "\u2581franz\u00f6sische": 8028,
  "\u2581schickt": 8029,
  "\u2581sicherlich": 8030,
  "\u2581th\u1ecf": 8031,
  "\u2581\u00dcberleben": 8032,
  "ull": 8033,
  "\u0111\u1ea7y": 8034,
  "\u2581Fischer": 8035,
  "\u2581Justin": 8036,
  "\u2581Sitz": 8037,
  "\u2581schau": 8038,
  "\u2581v\u1ed7": 8039,
  "\u2581wichtigsten": 8040,
  "\u258141": 8041,
  "\u2581Kennen": 8042,
  "\u2581Koffer": 8043,
  "\u2581Oft": 8044,
  "\u2581Trang": 8045,
  "fu": 8046,
  "jw": 8047,
  "mel": 8048,
  "sion": 8049,
  "\u2581Cameron": 8050,
  "\u2581Teenager": 8051,
  "\u2581Verkauf": 8052,
  "\u2581Wi": 8053,
  "\u2581banh": 8054,
  "\u2581kh\u01a1i": 8055,
  "\u2581meist": 8056,
  "\u2581r\u1ea3i": 8057,
  "\u2581vergangen": 8058,
  "\u2581www": 8059,
  "ech": 8060,
  "gan": 8061,
  "\u2581Brandopfer": 8062,
  "\u2581Clark": 8063,
  "\u2581Jawohl": 8064,
  "\u2581erhielten": 8065,
  "fer": 8066,
  "haben": 8067,
  "llen": 8068,
  "sao": 8069,
  "\u258115,": 8070,
  "\u2581Fass": 8071,
  "\u2581Hose": 8072,
  "\u2581Somit": 8073,
  "\u2581jedenfalls": 8074,
  "\u2581ng\u00f3": 8075,
  "\u2581\u00fcbergeben": 8076,
  "als": 8077,
  "\u2581Buches": 8078,
  "\u2581Jagd": 8079,
  "\u2581Unglaublich": 8080,
  "\u2581k\u00f6nigliche": 8081,
  "\u2581m\u00fcsse": 8082,
  "\u2581online": 8083,
  "\u2581befassen": 8084,
  "\u2581denjenigen": 8085,
  "\u2581unverdiente": 8086,
  "\u2581\u00fcbersehen": 8087,
  "enden": 8088,
  "kor": 8089,
  "schutz": 8090,
  "\u2581Minh": 8091,
  "\u2581Sieben": 8092,
  "\u2581Tote": 8093,
  "\u2581breit": 8094,
  "\u2581weltweite": 8095,
  "\u2581w\u00fcnsche": 8096,
  "II": 8097,
  "IS": 8098,
  "mut": 8099,
  "\u2581B\u00e1nh": 8100,
  "\u2581Leber": 8101,
  "\u2581R\u00ea": 8102,
  "\u2581Stimmen": 8103,
  "\u2581b\u00e3": 8104,
  "\u2581ch\u00f3t": 8105,
  "\u2581ziehe": 8106,
  "ble": 8107,
  "hal": 8108,
  "\u2581Affen": 8109,
  "\u2581Albert": 8110,
  "\u2581Bang": 8111,
  "\u2581Glaubensbr\u00fcdern": 8112,
  "\u2581H\u1ee3p": 8113,
  "\u2581Lydia": 8114,
  "\u2581Salz": 8115,
  "\u2581Schafen": 8116,
  "\u2581pin": 8117,
  "\u2581trauen": 8118,
  "\u2581\u0111\u1ed9n": 8119,
  "nay": 8120,
  "\u2581Sauerstoff": 8121,
  "\u2581duy\u1ec7t": 8122,
  "\u2581mitgebracht": 8123,
  "fest": 8124,
  "meister": 8125,
  "\u2581Bio": 8126,
  "\u2581N\u00fai": 8127,
  "\u2581Weshalb": 8128,
  "\u2581bedeutete": 8129,
  "\u2581denselben": 8130,
  "\u2581herauf": 8131,
  "\u2581nh\u1ea1t": 8132,
  "\u2581Rauch": 8133,
  "\u2581bereuen": 8134,
  "\u2581konntest": 8135,
  "\u2581nghi\u00eang": 8136,
  "\u2581x\u00e1": 8137,
  "gst": 8138,
  "ue": 8139,
  "\u2581H\u00f2a": 8140,
  "\u2581Teddy": 8141,
  "\u2581besiegen": 8142,
  "\u2581c\u01a1m": 8143,
  "\u2581g\u00fctig": 8144,
  "\u2581wahnsinnig": 8145,
  "\u2581wichtigste": 8146,
  "\u2581wohnten": 8147,
  "tzt": 8148,
  "\u2581Evolution": 8149,
  "\u2581Formen": 8150,
  "\u2581Ng\u0169": 8151,
  "\u2581Schick": 8152,
  "\u2581Ste": 8153,
  "\u2581b\u1ecbnh": 8154,
  "\u2581f\u00e4hig": 8155,
  "\u2581schreien": 8156,
  "\u2581verbinden": 8157,
  "isches": 8158,
  "one": 8159,
  "trong": 8160,
  "\u2581Chi\u00ean": 8161,
  "\u2581Dezember": 8162,
  "\u2581Dreh": 8163,
  "\u2581Evangelium": 8164,
  "\u2581Lang": 8165,
  "\u2581c\u00fai": 8166,
  "\u2581ghi\u1ebfc": 8167,
  "\u2581n\u1ed1t": 8168,
  "\u2581weisen": 8169,
  "K\u1ebb": 8170,
  "\u00ea": 8171,
  "\u2581Freut": 8172,
  "\u2581Halte": 8173,
  "\u2581Ken": 8174,
  "\u2581Schw\u00e4che": 8175,
  "\u2581c\u00fang": 8176,
  "\u2581dargestellt": 8177,
  "\u2581nh\u01b0\u1ee3ng": 8178,
  "\u2581solle": 8179,
  "\u2581\u00e4ltere": 8180,
  "\u2581Chu": 8181,
  "\u2581Ch\u00f3": 8182,
  "\u2581Elizabeth": 8183,
  "\u2581Vi\u1ebft": 8184,
  "\u2581beitragen": 8185,
  "\u2581beschreiben": 8186,
  "\u2581demselben": 8187,
  "\u2581dicht": 8188,
  "\u2581rechte": 8189,
  "\u2581sch\u00e4tzt": 8190,
  "\u2581allgemeinen": 8191,
  "\u2581behauptet": 8192,
  "\u2581c\u01b0\u1ee1i": 8193,
  "\u2581ng\u1eedi": 8194,
  "\u2581nh\u1ee7": 8195,
  "Mo": 8196,
  "ons": 8197,
  "\u25811990": 8198,
  "\u2581>": 8199,
  "\u2581L\u00e4cheln": 8200,
  "\u2581Sonntag": 8201,
  "\u2581d\u00e1n": 8202,
  "\u2581erinnerst": 8203,
  "\u2581existieren": 8204,
  "\u2581nh\u00ed": 8205,
  "\u2581sorgte": 8206,
  "\u2581\u00e4u\u00dferte": 8207,
  "0": 8208,
  "\u258110.000": 8209,
  "\u2581Gaben": 8210,
  "\u2581Kuchen": 8211,
  "\u2581Kummer": 8212,
  "\u2581Langsam": 8213,
  "\u2581le": 8214,
  "\u2581mochte": 8215,
  "\u2581v\u01b0\u1ee3ng": 8216,
  "\u2581wechseln": 8217,
  "\u2581womit": 8218,
  "H\u1ecd": 8219,
  "\u00d6": 8220,
  "\u2581Elisa": 8221,
  "\u2581Fred": 8222,
  "\u2581Hurerei": 8223,
  "\u2581Parker": 8224,
  "\u2581Privat": 8225,
  "\u2581Revolution": 8226,
  "\u2581gefiel": 8227,
  "\u2581mosaische": 8228,
  "\u2581unmittelbar": 8229,
  "\u2581\u00c4hm": 8230,
  "eck": 8231,
  "wen": 8232,
  "w\u00e4rts": 8233,
  "\u258144": 8234,
  "\u2581Bart": 8235,
  "\u2581Rahmen": 8236,
  "\u2581Such": 8237,
  "\u2581d\u1eadp": 8238,
  "\u2581entlassen": 8239,
  "ins": 8240,
  "lose": 8241,
  "\u2581Anne": 8242,
  "\u2581Nguy\u1ec7n": 8243,
  "\u2581Schiffe": 8244,
  "\u2581Te": 8245,
  "\u2581Unsinn": 8246,
  "\u2581ch\u1ea9n": 8247,
  "\u2581c\u00f4i": 8248,
  "\u2581fragten": 8249,
  "\u2581ges\u00fcndigt": 8250,
  "\u2581nhu\u1eadn": 8251,
  "\u2581real": 8252,
  "\u2581wuchs": 8253,
  "h\u00e4": 8254,
  "\u00f4": 8255,
  "\u2581Direktor": 8256,
  "\u2581Fakten": 8257,
  "\u2581Kohle": 8258,
  "\u2581Nh\u00f3m": 8259,
  "\u2581Tre": 8260,
  "\u2581W\u00fcnsche": 8261,
  "\u2581amerikanischen": 8262,
  "\u2581jeweils": 8263,
  "\u2581reagierte": 8264,
  "fisch": 8265,
  "tt": 8266,
  "\u2581Flasche": 8267,
  "\u2581Grace": 8268,
  "\u2581High": 8269,
  "\u2581Irgendwann": 8270,
  "\u2581Lektion": 8271,
  "\u2581Milde": 8272,
  "\u2581Objekt": 8273,
  "\u2581Zelt": 8274,
  "\u2581eingehen": 8275,
  "\u2581\u00eam": 8276,
  "\u2581\u201c[": 8277,
  "\u2581Daran": 8278,
  "\u2581Feinden": 8279,
  "\u2581H\u00e4": 8280,
  "\u2581Lo\u00e0i": 8281,
  "\u2581Lucas": 8282,
  "\u2581Phong": 8283,
  "\u2581Theater": 8284,
  "\u2581Uni": 8285,
  "\u2581stoppen": 8286,
  "d\u00e2n": 8287,
  "j\u00e4hrige": 8288,
  "\u2581Francisco": 8289,
  "\u2581Gef\u00e4hrten": 8290,
  "\u2581Hebr\u00e4ischen": 8291,
  "\u2581Savage": 8292,
[...]
