{
  "</s>": 0,
  "<unk>": 1,
  ".": 2,
  ",": 3,
  "?": 4,
  "\u2581-": 5,
  "\u2581Ich": 6,
  "\u2581ist": 7,
  "\u2581Sie": 8,
  "!": 9,
  "\u2581nicht": 10,
  "\u2581ich": 11,
  "\u2581die": 12,
  "\u2581du": 13,
  "\u2581das": 14,
  "\u2581und": 15,
  "\u2581der": 16,
  "\u2581es": 17,
  "\u2581zu": 18,
  "\u2581sie": 19,
  "s": 20,
  "...": 21,
  "\u2581ein": 22,
  "\u2581in": 23,
  "\u2581Das": 24,
  "\u2581den": 25,
  "en": 26,
  "\u2581mit": 27,
  "\u2581,": 28,
  "\u2581wir": 29,
  "\u2581mir": 30,
  "\u2581auf": 31,
  "\u2581Und": 32,
  "\u2581was": 33,
  "\u2581mich": 34,
  "\u2581er": 35,
  "\u2581Was": 36,
  "\u2581Du": 37,
  "\u2581Wir": 38,
  "\u2581von": 39,
  "\u2581sind": 40,
  "e": 41,
  "\u2581eine": 42,
  "\u2581hat": 43,
  "\u2581f\u00fcr": 44,
  "\u2581haben": 45,
  "\u2581Er": 46,
  "\u2581dass": 47,
  "\u2581an": 48,
  "\u2581Es": 49,
  "\u2581so": 50,
  "\u2581dich": 51,
  "n": 52,
  "\u2581war": 53,
  "\u2581.": 54,
  "\u2581\"": 55,
  "\u2581hier": 56,
  "\u2581Ja": 57,
  "'": 58,
  "-": 59,
  "\u2581sich": 60,
  "\u2581wie": 61,
  "\u2581bin": 62,
  "\u2581habe": 63,
  "\u2581noch": 64,
  "\u2581": 65,
  "\u2581Die": 66,
  "\u2581einen": 67,
  "\u2581dir": 68,
  "\u2581ihr": 69,
  "\u2581dem": 70,
  "\u2581uns": 71,
  "\u2581aus": 72,
  "\u2581nur": 73,
  "\u2581ihn": 74,
  "\u2581Nein": 75,
  "\u2581wird": 76,
  "\u2581sein": 77,
  "\u2581da": 78,
  ":": 79,
  "\u2581wenn": 80,
  "t": 81,
  "\u2581um": 82,
  "\u2581als": 83,
  "\u2581auch": 84,
  "\u2581Aber": 85,
  "\u2581schon": 86,
  "\u2581kann": 87,
  "\u2581im": 88,
  "\u2581Wie": 89,
  "\u2581aber": 90,
  "er": 91,
  "\u2581hast": 92,
  "\u2581(": 93,
  ")": 94,
  "\u2581werden": 95,
  "\u2581mal": 96,
  "\u2581Der": 97,
  "\u2581nach": 98,
  "\u2581doch": 99,
  "\u2581Wenn": 100,
  "\u2581gut": 101,
  "\u2581wei\u00df": 102,
  "\u2581bist": 103,
  "\u2581meine": 104,
  "\u2581oder": 105,
  "\u2581jetzt": 106,
  "\u2581will": 107,
  "\u2581dann": 108,
  "\u2581euch": 109,
  "\u2581ja": 110,
  "\u2581mein": 111,
  "\u2581keine": 112,
  "\u2581vor": 113,
  "\u2581nichts": 114,
  "\u2581mehr": 115,
  "st": 116,
  "\u2581etwas": 117,
  "\u2581alles": 118,
  "\u2581geht": 119,
  "\u2581bei": 120,
  "\u2581Ihr": 121,
  "\u2581\u00fcber": 122,
  "\u2581muss": 123,
  "\u2581Oh": 124,
  "\u2581ihm": 125,
  "\u2581hab": 126,
  "\u2581Mann": 127,
  "\u2581wieder": 128,
  "\u2581immer": 129,
  "\u2581Ein": 130,
  "\u2581man": 131,
  "\u2581sagen": 132,
  "\u2581einem": 133,
  "\u2581zum": 134,
  "\u2581Ihnen": 135,
  "\u2581tun": 136,
  "\u2581machen": 137,
  "\u2581k\u00f6nnen": 138,
  "\u2581denn": 139,
  "\u2581des": 140,
  "\u2581einer": 141,
  "\u2581Ist": 142,
  "\u2581sehen": 143,
  "\u2581gibt": 144,
  "\u2581'": 145,
  "\u2581Warum": 146,
  "\u2581Gott": 147,
  "\u2581alle": 148,
  "\u2581nie": 149,
  "\u2581So": 150,
  "\u2581...": 151,
  "\u2581m\u00fcssen": 152,
  "\u2581Da": 153,
  "\u2581werde": 154,
  "\u2581Wo": 155,
  "\u2581gehen": 156,
  "\u2581sehr": 157,
  "\u2581ab": 158,
  "\u2581los": 159,
  "\u2581wissen": 160,
  "\u2581ihnen": 161,
  "\u2581soll": 162,
  "\u2581Dann": 163,
  "\u2581w\u00fcrde": 164,
  "\u2581diese": 165,
  ".\"": 166,
  "\u2581Danke": 167,
  "\u2581Zeit": 168,
  "\u2581In": 169,
  "\u2581am": 170,
  "\u2581kein": 171,
  "\u2581Also": 172,
  "\u2581bitte": 173,
  "\u2581deine": 174,
  "\u2581Wer": 175,
  "\u2581hatte": 176,
  "\u2581Komm": 177,
  "\u2581viel": 178,
  "\u2581Hier": 179,
  "r": 180,
  "\u2581einfach": 181,
  "\u2581Mr": 182,
  "\u2581zur\u00fcck": 183,
  "\u2581wurde": 184,
  "\u2581damit": 185,
  "\u2581Frau": 186,
  "es": 187,
  "\u2581gesagt": 188,
  "\u2581Leben": 189,
  "\u2581Nicht": 190,
  "\u2581wo": 191,
  "\u2581w\u00e4re": 192,
  "\u2581wollen": 193,
  "\u2581Sir": 194,
  "\u2581da\u00df": 195,
  "\u2581Na": 196,
  "\u2581wirklich": 197,
  "\u2581Mein": 198,
  "\u2581kommen": 199,
  "\u2581durch": 200,
  "\u2581wollte": 201,
  "\u2581dein": 202,
  "\u2581kommt": 203,
  "\u2581sagte": 204,
  "\u2581weg": 205,
  "\u2581Tag": 206,
  "\u2581meinen": 207,
  "\u2581Leute": 208,
  "\u2581Hey": 209,
  "\u2581zur": 210,
  "\u2581waren": 211,
  "\u2581heute": 212,
  "\u2581bis": 213,
  "d": 214,
  "\u2581seine": 215,
  "\u2581Jetzt": 216,
  "\u2581sicher": 217,
  "\u2581ihre": 218,
  "\u2581h\u00e4tte": 219,
  "\u2581lassen": 220,
  "\u2581ganz": 221,
  "\u2581Ihre": 222,
  "\u2581Hallo": 223,
  "\u2581Eine": 224,
  "\u2581Geld": 225,
  "\"": 226,
  "\u2581Gut": 227,
  "\u2581zwei": 228,
  "\u2581willst": 229,
  "\u2581macht": 230,
  "\u2581tut": 231,
  "\u2581dieser": 232,
  "\u2581Vielleicht": 233,
  "\u2581Vater": 234,
  "\u2581kannst": 235,
  "\u2581wohl": 236,
  "\u2581Hast": 237,
  "\u2581raus": 238,
  "\u2581keinen": 239,
  "\u2581!": 240,
  "\u2581gesehen": 241,
  "\u2581glaube": 242,
  "\u2581k\u00f6nnte": 243,
  "\u2581Bitte": 244,
  "\u2581her": 245,
  "\u2581Alles": 246,
  "\u2581gemacht": 247,
  "\u2581geh\u00f6rt": 248,
  "\u2581Herr": 249,
  "\u2581weil": 250,
  "\u2581gerade": 251,
  "\u2581also": 252,
  "ne": 253,
  "\u2581besser": 254,
  "\u2581Meine": 255,
  "\u2581hin": 256,
  "\u2581Auf": 257,
  "in": 258,
  "\u2581unter": 259,
  "\u2581Menschen": 260,
  "\u2581Weg": 261,
  "\u2581selbst": 262,
  "m": 263,
  "\u2581Nacht": 264,
  "\u2581Mutter": 265,
  "\u2581nein": 266,
  "\u2581~": 267,
  "\u2581anderen": 268,
  "\u2581sollte": 269,
  "\u2581vielleicht": 270,
  "\u2581Keine": 271,
  "\u2581paar": 272,
  "\u2581Nun": 273,
  "\u2581reden": 274,
  "\u2581Los": 275,
  "\u2581wer": 276,
  "\u2581diesen": 277,
  "\u2581vom": 278,
  "\u2581ob": 279,
  "\u2581m\u00f6chte": 280,
  "\u2581Ordnung": 281,
  "\u2581Nur": 282,
  "\u2581passiert": 283,
  "\u2581klar": 284,
  "\u2581ins": 285,
  "\u2581dachte": 286,
  "\u2581meinem": 287,
  "\u2581wei\u00dft": 288,
  "y": 289,
  "\u2581Mal": 290,
  "\u2581rein": 291,
  "\u2581sagt": 292,
  "\u2581wirst": 293,
  "\u2581meiner": 294,
  "\u2581unsere": 295,
  "\u2581gleich": 296,
  "\u2581finden": 297,
  "\u2581weiter": 298,
  "\u2581Welt": 299,
  "\u2581ohne": 300,
  "\u2581Man": 301,
  "\u2581gegen": 302,
  "a": 303,
  "\u2581diesem": 304,
  "\u2581lange": 305,
  "\u2581Allah": 306,
  "\u2581Lass": 307,
  "\u2581Ok": 308,
  "\u2581jemand": 309,
  "\u2581Okay": 310,
  "\u2581Mit": 311,
  "\u2581davon": 312,
  "\u2581Haben": 313,
  "\u2581Freund": 314,
  "\u2581dieses": 315,
  "\u2581leid": 316,
  "\u2581musst": 317,
  "\u2581Haus": 318,
  "\u2581helfen": 319,
  "\u2581gar": 320,
  "\u2581tot": 321,
  "\u2581genau": 322,
  "\u2581Hause": 323,
  "\u2581Als": 324,
  "\u2581deinen": 325,
  "\u2581sch\u00f6n": 326,
  "\u2581Kinder": 327,
  "\u2581Angst": 328,
  "\u2581sollten": 329,
  "\u2581geben": 330,
  "\u2581zusammen": 331,
  "\u2581sollen": 332,
  "\u2581sei": 333,
  "\u2581viele": 334,
  "\u2581Sag": 335,
  "\u2581Tut": 336,
  "\u2581dort": 337,
  "\u2581F\u00fcr": 338,
  "\u2581ver": 339,
  "\u2581Ach": 340,
  "\u2581habt": 341,
  "\u2581glauben": 342,
  "\u2581M\u00e4dchen": 343,
  "\u2581Abend": 344,
  "\u2581warum": 345,
  "\u2581getan": 346,
  "\u2581Schei\u00dfe": 347,
  "\u2581andere": 348,
  "\u2581bleiben": 349,
  "\u2581Leid": 350,
  "\u2581denke": 351,
  "\u2581Morgen": 352,
  "ung": 353,
  "\u2581Moment": 354,
  "\u2581Wieso": 355,
  "\u2581Mach": 356,
  "\u2581eines": 357,
  "\u2581steht": 358,
  "\u2581brauchen": 359,
  "\u2581h\u00f6ren": 360,
  "\u2581seid": 361,
  "\u2581daf\u00fcr": 362,
  "\u2581M\u00e4nner": 363,
  "\u2581drei": 364,
  "\u2581wegen": 365,
  "\u2581H\u00f6r": 366,
  "o": 367,
  "\u2581genug": 368,
  "\u2581seinen": 369,
  "\u2581ihren": 370,
  "\u2581Oder": 371,
  "\u2581machst": 372,
  "\u2581brauche": 373,
  "\u2581richtig": 374,
  "\u2581Weil": 375,
  "\u2581Im": 376,
  "\u2581Jahre": 377,
  "\u2581Sind": 378,
  "\u2581Bist": 379,
  "\u2581Arbeit": 380,
  "\u2581OK": 381,
  "\u2581bringen": 382,
  "\u2581Problem": 383,
  "i": 384,
  "\u2581sieht": 385,
  "\u2581Junge": 386,
  "\u2581He": 387,
  "\u2581ganze": 388,
  "\u2581hei\u00dft": 389,
  "\u2581Recht": 390,
  "\u2581Stadt": 391,
  "\u2581seit": 392,
  "\u2581Sohn": 393,
  "\u2581nun": 394,
  "\u2581An": 395,
  "\u2581Minuten": 396,
  "\u2581Diese": 397,
  "\u2581Sache": 398,
  "\u2581Wei\u00dft": 399,
  "\u2581liebe": 400,
  "te": 401,
  "\u2581schnell": 402,
  "\u2581sprechen": 403,
  "\u2581Bruder": 404,
  "\u2581unser": 405,
  "\u2581Kopf": 406,
  "\u2581O": 407,
  "\u2581Hat": 408,
  "\u2581kam": 409,
  "\u2581Dr": 410,
  "\u25812": 411,
  "\u2581nehmen": 412,
  "AH": 413,
  "\u2581hatten": 414,
  "\u2581einmal": 415,
  "\u2581Kann": 416,
  "\u2581allein": 417,
  "\u2581Wasser": 418,
  "\u2581Euch": 419,
  "\u2581Doch": 420,
  "\u2581dabei": 421,
  "\u2581komm": 422,
  "\u2581Jahren": 423,
  "\u2581morgen": 424,
  "\u2581be": 425,
  "k": 426,
  "\u2581Mir": 427,
  "\u2581Land": 428,
  "S": 429,
  "\u2581Uhr": 430,
  "\u2581ALL": 431,
  "\u2581deinem": 432,
  "\u2581denen": 433,
  "\u2581erst": 434,
  "\u2581Jack": 435,
  "\u2581Hilfe": 436,
  "\u2581Bei": 437,
  "\u2581Willst": 438,
  "\u2581konnte": 439,
  "\u2581sterben": 440,
  "\u2581Namen": 441,
  "\u2581S": 442,
  "\u2581Familie": 443,
  "\u2581Alle": 444,
  "\u2581Augen": 445,
  "\u2581Ende": 446,
  "an": 447,
  "de": 448,
  "\u2581bevor": 449,
  "\u2581Kind": 450,
  "\u2581hoch": 451,
  "\u2581wahr": 452,
  "\u2581halten": 453,
  "\u2581w\u00fcrden": 454,
  "\u2581daran": 455,
  "\u2581Um": 456,
  "\u2581eure": 457,
  "\u2581sage": 458,
  "\u2581K": 459,
  "\u2581beide": 460,
  "\u2581deiner": 461,
  "\u2581sehe": 462,
  "\u2581gefunden": 463,
  "\u2581sonst": 464,
  "\u2581seinem": 465,
  "\u2581mag": 466,
  "\u2581Geh": 467,
  "\u2581dazu": 468,
  "\u2581runter": 469,
  "\u2581fertig": 470,
  "\u2581beim": 471,
  "\u2581War": 472,
  "\u2581Guten": 473,
  "\u2581seiner": 474,
  "\u2581Dinge": 475,
  "\u2581sofort": 476,
  "\u2581gern": 477,
  "\u2581Auto": 478,
  ";": 479,
  "\u2581dar\u00fcber": 480,
  "\u2581gehe": 481,
  "\u2581Aus": 482,
  "\u2581Frauen": 483,
  "\u2581warst": 484,
  "\u2581Polizei": 485,
  "\u2581gab": 486,
  "\u2581Nat\u00fcrlich": 487,
  "\u2581Freunde": 488,
  "\u2581Nichts": 489,
  "\u2581Macht": 490,
  "\u2581komme": 491,
  "\u2581jeden": 492,
  "\u2581Genau": 493,
  "\u2581Jungs": 494,
  "\u2581Baby": 495,
  "ge": 496,
  "\u2581weit": 497,
  "\u2581Erde": 498,
  "\u2581Hand": 499,
  "\u25811": 500,
  "\u2581kennen": 501,
  "\u2581wusste": 502,
  "\u2581okay": 503,
  "\u2581Gib": 504,
  "\u2581Fall": 505,
  "\u2581t\u00f6ten": 506,
  "\u2581Halt": 507,
  "\u2581Wahrheit": 508,
  "\u2581warten": 509,
  "\u2581mache": 510,
  "\u2581vorbei": 511,
  "ten": 512,
  "\u2581gute": 513,
  "\u2581Den": 514,
  "\u2581Teufel": 515,
  "\u2581k\u00f6nnten": 516,
  "\u2581wurden": 517,
  "\u2581h\u00e4tten": 518,
  "\u2581all": 519,
  "\u2581Dank": 520,
  "\u2581Von": 521,
  "\u2581Noch": 522,
  "\u2581hinter": 523,
  "\u2581stimmt": 524,
  "\u2581Gl\u00fcck": 525,
  "\u2581etwa": 526,
  "\u2581T\u00fcr": 527,
  "\u2581Kein": 528,
  "\u2581denken": 529,
  "den": 530,
  "\u2581drin": 531,
  "\u2581recht": 532,
  "\u2581Herrn": 533,
  "\u2581Sehr": 534,
  "\u2581Zu": 535,
  "\u2581Vor": 536,
  "\u2581Nach": 537,
  "\u2581lang": 538,
  "\u2581bekommen": 539,
  "\u2581Ruhe": 540,
  "\u2581Himmel": 541,
  "\u2581dran": 542,
  "\u2581Hi": 543,
  "\u2581mach": 544,
  "Ich": 545,
  "\u2581danke": 546,
  "\u2581je": 547,
  "\u2581vergessen": 548,
  "\u2581Name": 549,
  "\u2581Soll": 550,
  "\u2581Gute": 551,
  "\u2581Wissen": 552,
  "\u2581kenne": 553,
  "\u2581verr\u00fcckt": 554,
  "\u2581Bis": 555,
  "\u2581Kommen": 556,
  "\u2581Ver": 557,
  "\u2581lieber": 558,
  "\u2581Grund": 559,
  "\u2581verloren": 560,
  "\u2581Job": 561,
  "\u2581Ganz": 562,
  "\u2581A": 563,
  "\u2581B": 564,
  "\u2581Liebe": 565,
  "\u2581leben": 566,
  "\u2581drau\u00dfen": 567,
  "\u2581fahren": 568,
  "\u2581Art": 569,
  "\u2581bald": 570,
  "\u2581bereit": 571,
  "\u2581Einen": 572,
  "\u2581ge": 573,
  "\u2581stehen": 574,
  "\u2581verstehe": 575,
  "\u2581oben": 576,
  "\u2581darauf": 577,
  "\u2581sag": 578,
  "\u2581Tod": 579,
  "\u2581liegt": 580,
  "\u25813": 581,
  "\u2581sp\u00e4ter": 582,
  "em": 583,
  "\u2581Spiel": 584,
  "T": 585,
  "be": 586,
  "\u2581Kerl": 587,
  "\u2581Sieh": 588,
  "h": 589,
  "\u2581Schon": 590,
  "\u2581ruhig": 591,
  "\u2581C": 592,
  "B": 593,
  "\u2581Warte": 594,
  "\u2581egal": 595,
  "\u2581Ahnung": 596,
  "\u2581jeder": 597,
  "\u2581bisschen": 598,
  "\u2581diejenigen": 599,
  "E": 600,
  "\u2581sah": 601,
  "\u2581ok": 602,
  "\u2581sagten": 603,
  "\u2581ganzen": 604,
  "\u2581E": 605,
  "\u2581Frage": 606,
  "\u2581letzte": 607,
  "\u2581Dein": 608,
  "\u2581Feuer": 609,
  "\u2581D": 610,
  "\u2581geh": 611,
  "\u258120": 612,
  "\u2581darf": 613,
  "\u2581Seite": 614,
  "\u2581Wirklich": 615,
  "\u2581kleine": 616,
  "\u2581gekommen": 617,
  "der": 618,
  "\u2581Jahr": 619,
  "\u2581wenig": 620,
  "\u2581ging": 621,
  "\u2581au\u00dfer": 622,
  "\u2581Wort": 623,
  "\u2581sp\u00e4t": 624,
  "I": 625,
  "\u2581Dollar": 626,
  "\u2581Verdammt": 627,
  "\u2581Deine": 628,
  "\u2581Gehen": 629,
  "\u2581Geht": 630,
  "\u2581braucht": 631,
  "\u2581Dad": 632,
  "\u2581Kommt": 633,
  "\u2581ihrer": 634,
  "\u2581Sei": 635,
  "\u2581Idee": 636,
  "F": 637,
  "N": 638,
  "\u2581ihrem": 639,
  "\u2581arbeiten": 640,
  "chen": 641,
  "g": 642,
  "\u2581jemanden": 643,
  "\u2581Krieg": 644,
  "\u2581Miss": 645,
  "\u2581bestimmt": 646,
  "\u2581essen": 647,
  "\u2581siehst": 648,
  "\u2581P": 649,
  "\u2581Tage": 650,
  "K": 651,
  "A": 652,
  "\u2581Arsch": 653,
  "\u2581John": 654,
  "\u2581Bett": 655,
  "\u2581Blut": 656,
  "\u2581Dieser": 657,
  "\u2581Ort": 658,
  "ner": 659,
  "\u2581gewesen": 660,
  "\u2581Herz": 661,
  "\u2581Woche": 662,
  "\u2581Stunden": 663,
  "\u2581gro\u00dfe": 664,
  "\u2581zwischen": 665,
  "\u2581Ihren": 666,
  "\u2581Essen": 667,
  "\u2581neue": 668,
  "\u2581frei": 669,
  "\u2581eigentlich": 670,
  "\u2581Zimmer": 671,
  "\u2581fragen": 672,
  "\u2581bedeutet": 673,
  "\u2581fast": 674,
  "\u2581solltest": 675,
  "\u2581kurz": 676,
  "\u2581Sehen": 677,
  "\u2581eins": 678,
  "\u2581gerne": 679,
  "\u2581Schei\u00df": 680,
  "\u2581meinst": 681,
  "\u2581K\u00f6nnen": 682,
  "\u2581unten": 683,
  "\u2581Ab": 684,
  "\u2581Hab": 685,
  "\u2581Typ": 686,
  "\u2581Wagen": 687,
  "\u2581schwer": 688,
  "\u2581spielen": 689,
  "\u2581Wann": 690,
  "\u2581Geschichte": 691,
  "\u2581nehme": 692,
  "\u2581Seine": 693,
  "\u2581Zeichen": 694,
  "\u2581niemand": 695,
  "\u2581l\u00e4uft": 696,
  "\u2581Ding": 697,
  "\u2581suchen": 698,
  "ig": 699,
  "\u2581Schatz": 700,
  "\u2581Nimm": 701,
  "\u2581get\u00f6tet": 702,
  "\u2581Sagen": 703,
  "nen": 704,
  "\u2581fest": 705,
  "\u2581letzten": 706,
  "\u2581Entschuldigung": 707,
  "\u2581\u00fcberhaupt": 708,
  "\u258110": 709,
  "\u2581Woher": 710,
  "\u2581I": 711,
  "\u2581All": 712,
  "\u2581hoffe": 713,
  "\u2581verlassen": 714,
  "\u2581Mensch": 715,
  "\u2581echt": 716,
  "\u2581Niemand": 717,
  "\u2581w\u00e4hrend": 718,
  "\u2581Be": 719,
  "\u2581anderes": 720,
  "ste": 721,
  "\u2581lass": 722,
  "\u2581bringt": 723,
  "\u2581Mrs": 724,
  "sch": 725,
  "\u2581versucht": 726,
  "\u2581H\u00e4nde": 727,
  "\u2581nat\u00fcrlich": 728,
  "\u2581Lassen": 729,
  "\u2581anders": 730,
  "\u2581f\u00fcnf": 731,
  "\u2581Sein": 732,
  "\u2581treffen": 733,
  "\u2581Ge": 734,
  "\u2581einzige": 735,
  "\u2581sondern": 736,
  "\u2581verstehen": 737,
  "\u2581sogar": 738,
  "\u2581dies": 739,
  "\u2581kriegen": 740,
  "\u2581unserer": 741,
  "\u2581Chance": 742,
  "l": 743,
  "\u2581sagst": 744,
  "\u2581Gesicht": 745,
  "\u2581Teil": 746,
  "\u2581allen": 747,
  "\u2581ziemlich": 748,
  "\u2581gegeben": 749,
  "ver": 750,
  "\u2581blo\u00df": 751,
  "\u2581eben": 752,
  "\u2581w\u00e4ren": 753,
  "\u2581Fragen": 754,
  "\u2581Luft": 755,
  "\u2581Buch": 756,
  "\u2581Gewi\u00df": 757,
  "lich": 758,
  "\u2581wollten": 759,
  "\u2581L": 760,
  "\u2581New": 761,
  "\u2581Am": 762,
  "\u2581Tochter": 763,
  "\u2581bleibt": 764,
  "us": 765,
  "\u2581Spa\u00df": 766,
  "\u2581toll": 767,
  "\u2581bereits": 768,
  "\u2581holen": 769,
  "re": 770,
  "\u2581drauf": 771,
  "z": 772,
  "\u2581H\u00f6ren": 773,
  "\u2581Schwester": 774,
  "\u2581Sachen": 775,
  "\u2581Mama": 776,
  "\u2581beiden": 777,
  "\u2581zeigen": 778,
  "\u2581nett": 779,
  "\u2581vier": 780,
  "\u2581finde": 781,
  "\u2581erz\u00e4hlt": 782,
  "\u2581gehst": 783,
  "\u2581schlecht": 784,
  "\u2581Eure": 785,
  "\u2581keiner": 786,
  "\u2581Heute": 787,
  "\u2581Zwei": 788,
  "\u2581Waffe": 789,
  "\"?": 790,
  "\u2581F": 791,
  "\u2581unseren": 792,
  "\u2581Dies": 793,
  "\u2581kleinen": 794,
  "\u2581voll": 795,
  "\u2581ER": 796,
  "\u2581l\u00e4sst": 797,
  "\u2581ersten": 798,
  "\u2581Dass": 799,
  "\u2581T": 800,
  "\u2581musste": 801,
  "\u2581Klar": 802,
  "\u2581alt": 803,
  "\u2581Platz": 804,
  "\u2581B\u00fcro": 805,
  "\u2581Sorgen": 806,
  "\u2581Stunde": 807,
  "\u25815": 808,
  "\u2581gef\u00e4llt": 809,
  "\u2581worden": 810,
  "\u2581werdet": 811,
  "zu": 812,
  "\u2581Ah": 813,
  "\u2581verdammt": 814,
  "\u2581Kannst": 815,
  "\u2581Film": 816,
  "\u2581Nummer": 817,
  "\u2581versuchen": 818,
  "\u2581Telefon": 819,
  "\u2581Wollen": 820,
  "\u2581kommst": 821,
  "\u2581K\u00f6nig": 822,
  "\u2581schlafen": 823,
  "\u2581Ihm": 824,
  "\u2581m\u00f6glich": 825,
  "\u2581guten": 826,
  "\u2581M": 827,
  "\u2581Darf": 828,
  "ieren": 829,
  "\u2581WIR": 830,
  "ing": 831,
  "\u2581wichtig": 832,
  "\u2581Sch\u00f6n": 833,
  "\u2581un": 834,
  "\u2581Schuld": 835,
  "\u2581mu\u00df": 836,
  "\u2581Fehler": 837,
  "--": 838,
  "\u2581warte": 839,
  "\u2581Plan": 840,
  "\u2581Ihrer": 841,
  "\u2581Mom": 842,
  "\u2581Freundin": 843,
  "\u2581\u00dcber": 844,
  "\u2581Bring": 845,
  "\u2581neuen": 846,
  "\u2581guter": 847,
  "\u2581niemals": 848,
  "\u2581w\u00e4r": 849,
  "und": 850,
  "\u2581Waffen": 851,
  "C": 852,
  "\u2581gegen\u00fcber": 853,
  "\u2581tust": 854,
  "\u2581Schau": 855,
  "et": 856,
  "\u2581R": 857,
  "\u2581erz\u00e4hlen": 858,
  "\u2581Herren": 859,
  "H": 860,
  "\u2581gedacht": 861,
  "\u2581Unsere": 862,
  "\u2581Schiff": 863,
  "\u2581darum": 864,
  "\u2581h\u00e4ttest": 865,
  "\u2581oft": 866,
  "\u2581w\u00fcrdest": 867,
  "\u2581Licht": 868,
  "\u2581erste": 869,
  "\u2581Gottes": 870,
  "\u2581Auch": 871,
  "\u2581Euer": 872,
  "\u2581Frank": 873,
  "\u2581Vielen": 874,
  "\u2581Stimmt": 875,
  "man": 876,
  "\u2581stellen": 877,
  "M": 878,
  "P": 879,
  "\u2581Ma": 880,
  "\u2581wann": 881,
  "\u2581H\u00f6lle": 882,
  "\u2581Bin": 883,
  "se": 884,
  "\u2581Millionen": 885,
  "\u2581gebe": 886,
  "\u2581Wochen": 887,
  "am": 888,
  "\u2581Denn": 889,
  "\u2581trinken": 890,
  "\u2581Damit": 891,
  "\u2581Volk": 892,
  "\u2581meines": 893,
  "\u2581gestern": 894,
  "\u00e4": 895,
  "\u2581G": 896,
  "\u2581rum": 897,
  "\u2581fr\u00fch": 898,
  "\u2581besten": 899,
  "\u2581eigenen": 900,
  "\u2581Eltern": 901,
  "\u2581Unser": 902,
  "Ja": 903,
  "\u2581hierher": 904,
  "le": 905,
  "\u2581Papa": 906,
  "ter": 907,
  "\u2581Lasst": 908,
  "\u2581Leuten": 909,
  "\u2581reicht": 910,
  "\u2581geworden": 911,
  "\u2581Jeder": 912,
  "D": 913,
  "\u2581Sicher": 914,
  "\u2581alten": 915,
  "\u2581lhr": 916,
  "\u2581gefallen": 917,
  "\u2581retten": 918,
  "\u2581Sorge": 919,
  "\u2581Stra\u00dfe": 920,
  "\u2581gro\u00dfen": 921,
  "\u2581schaffen": 922,
  ",\"": 923,
  "\u2581kleiner": 924,
  "\u2581Zum": 925,
  "\u2581allem": 926,
  "R": 927,
  "\u2581Dir": 928,
  "\u2581heraus": 929,
  "\u2581Arzt": 930,
  "\u2581glaubt": 931,
  "\u2581Jungen": 932,
  "\u2581gewi\u00df": 933,
  "\u2581Harry": 934,
  "\u2581Hund": 935,
  "\u2581Kumpel": 936,
  "\u2581endlich": 937,
  "\u2581h\u00f6r": 938,
  "\u2581Musik": 939,
  "\u2581Siehst": 940,
  "\u2581Tu": 941,
  "\u2581General": 942,
  "\u2581denkst": 943,
  "\u2581Sam": 944,
  "\u2581Jemand": 945,
  "\u258130": 946,
  "\u2581gl\u00fccklich": 947,
  "ich": 948,
  "\u2581Seit": 949,
  "\u2581Kaffee": 950,
  "G": 951,
  "\u2581scheint": 952,
  "\u2581verstanden": 953,
  "\u2581Doktor": 954,
  "\u2581alte": 955,
  "\u2581wen": 956,
  "\u2581Onkel": 957,
  "\u2581welche": 958,
  "\u2581Kampf": 959,
  "\u2581wollt": 960,
  "\u2581sechs": 961,
  "\u2581Ihrem": 962,
  "\u2581Schl\u00fcssel": 963,
  "\u2581tue": 964,
  "\u2581Pass": 965,
  "\u2581Probleme": 966,
  "\u2581falsch": 967,
  "\u25814": 968,
  "\u2581Viel": 969,
  "\u2581kaum": 970,
  "sten": 971,
  "f": 972,
  "\u2581Ha": 973,
  "\u2581K\u00f6rper": 974,
  "\u2581d\u00fcrfen": 975,
  "4": 976,
  "\u25816": 977,
  "\u2581Herzen": 978,
  "\u2581h\u00f6rt": 979,
  "\u2581Machen": 980,
  "\u2581St\u00fcck": 981,
  "\u2581darin": 982,
  "\u2581v\u00f6llig": 983,
  "\u2581Lebens": 984,
  "\u2581gro\u00df": 985,
  "L": 986,
  "\u2581brauchst": 987,
  "\u2581K\u00f6nnte": 988,
  "\u2581n\u00e4chsten": 989,
  "um": 990,
  "\u2581Alter": 991,
  "\u2581Menge": 992,
  "\u2581wem": 993,
  "iert": 994,
  "\u2581Captain": 995,
  "\u2581fr\u00fcher": 996,
  "\u2581lernen": 997,
  "\u2581Schule": 998,
  "on": 999,
  "b": 1000,
  "\u2581Dich": 1001,
  "ie": 1002,
  "\u2581Wahl": 1003,
  "\u2581J": 1004,
  "\u2581jede": 1005,
  "\u2581meisten": 1006,
  "\u2581lieben": 1007,
  "u": 1008,
  "\u2581einige": 1009,
  "\u2581kennt": 1010,
  "\u2581leicht": 1011,
  "\u2581unserem": 1012,
  "\u2581Bleib": 1013,
  "\u2581beste": 1014,
  "\u2581George": 1015,
  "\u2581direkt": 1016,
  "\u2581herum": 1017,
  "\u2581Selbst": 1018,
  "\u2581langsam": 1019,
  "?\"": 1020,
  "\u2581euer": 1021,
  "\u2581Boden": 1022,
  "\u2581sitzen": 1023,
  "\u2581Zukunft": 1024,
  "\u2581Sieht": 1025,
  "\u2581Sicherheit": 1026,
  "\u2581tragen": 1027,
  "\u2581Gef\u00e4ngnis": 1028,
  "\u2581verlieren": 1029,
  "\u2581funktioniert": 1030,
  "\u2581Wohin": 1031,
  "\u2581zwar": 1032,
  "\u2581k\u00f6nnt": 1033,
  "\u2581krank": 1034,
  "\u2581Wiedersehen": 1035,
  "\u2581Mund": 1036,
  "\u2581Tages": 1037,
  "\u2581H": 1038,
  "\u00f6": 1039,
  "\u2581k\u00e4mpfen": 1040,
  "\u2581Tagen": 1041,
  "el": 1042,
  "\u2581zehn": 1043,
  "\u2581Arschloch": 1044,
  "ern": 1045,
  "\u2581nennen": 1046,
  "\u2581lasse": 1047,
  "\u2581Rest": 1048,
  "\u2581interessiert": 1049,
  "\u2581Gibt": 1050,
  "\u2581Welche": 1051,
  "\u2581spricht": 1052,
  "\u2581Charlie": 1053,
  "\u2581York": 1054,
  "Das": 1055,
  "\u2581Gesandten": 1056,
  "\u2581weh": 1057,
  "\u2581gebracht": 1058,
  "\u2581Typen": 1059,
  "\u2581genommen": 1060,
  "\u2581\u00fcberall": 1061,
  "\u2581Mist": 1062,
  "\u2581Al": 1063,
  "\u2581irgendwas": 1064,
  "Was": 1065,
  "\u2581dessen": 1066,
  "\u2581Pr\u00e4sident": 1067,
  "\u2581Ziel": 1068,
  "\u2581Unter": 1069,
  "\u2581Geben": 1070,
  "\u258115": 1071,
  "\u2581Nachricht": 1072,
  "\u2581Ohne": 1073,
  "\u2581fand": 1074,
  "\u2581U": 1075,
  "\u2581laufen": 1076,
  "\u2581Unrecht": 1077,
  "\u2581Raus": 1078,
  "\u2581dr\u00fcben": 1079,
  "to": 1080,
  "\u2581Sch": 1081,
  "\u2581getroffen": 1082,
  "\u2581HERR": 1083,
  "\u2581erkl\u00e4ren": 1084,
  "\u2581m": 1085,
  "\u25811.": 1086,
  "\u2581h\u00e4lt": 1087,
  "\u2581W": 1088,
  "\u2581Entschuldigen": 1089,
  "\u2581Deshalb": 1090,
  "\u2581alleine": 1091,
  "\u2581zuerst": 1092,
  "\u2581lhre": 1093,
  "\u2581Ben": 1094,
  "\u2581ent": 1095,
  "\u2581Un": 1096,
  "w": 1097,
  "\u2581Zeug": 1098,
  "\u2581kaufen": 1099,
  "\u2581ziehen": 1100,
  "\u2581irgendwie": 1101,
  "EN": 1102,
  "\u2581setzen": 1103,
  "die": 1104,
  "\u2581Dieses": 1105,
  "\u2581Drei": 1106,
  "\u2581Gold": 1107,
  "\u2581froh": 1108,
  "\u2581hasse": 1109,
  "\u2581Sinn": 1110,
  "\u2581anrufen": 1111,
  "\u2581solche": 1112,
  "\u2581Mord": 1113,
  "\u2581hei\u00dfen": 1114,
  "\u2581kleines": 1115,
  "\u2581weder": 1116,
  "\u2581M\u00f6chte": 1117,
  "\u2581St": 1118,
  "\u2581Gef\u00fchl": 1119,
  "\u2581H\u00f6rt": 1120,
  "\u2581Sekunden": 1121,
  "\u2581ernst": 1122,
  "\u2581Etwas": 1123,
  "al": 1124,
  "\u2581Partner": 1125,
  "\u2581Tom": 1126,
  "\u2581heiraten": 1127,
  "\u2581bringe": 1128,
  "\u2581Warten": 1129,
  "\u2581machte": 1130,
  "\u2581Eins": 1131,
  "\u2581Nehmen": 1132,
  "\u2581Bescheid": 1133,
  "\u2581Hotel": 1134,
  "\u2581f\u00fchle": 1135,
  "\u2581denkt": 1136,
  "p": 1137,
  "\u2581k": 1138,
  "\u2581Party": 1139,
  "\u2581Habt": 1140,
  "\u2581umbringen": 1141,
  "\u2581Traum": 1142,
  "\u2581erwartet": 1143,
  "\u2581W\u00fcrde": 1144,
  "\u2581Tisch": 1145,
  "\u2581glaubst": 1146,
  "\u2581Sonst": 1147,
  "\u258150": 1148,
  "\u2581Idiot": 1149,
  "\u2581Verzeihung": 1150,
  "\u2581Willkommen": 1151,
  "\u2581Boss": 1152,
  "\u2581Glauben": 1153,
  "\u2581folgen": 1154,
  "\u2581Fenster": 1155,
  "\u2581weniger": 1156,
  "\u2581fort": 1157,
  "\u2581f\u00fchren": 1158,
  "\u2581l\u00e4nger": 1159,
  "\u2581liebt": 1160,
  "\u2581geschafft": 1161,
  "O": 1162,
  "J": 1163,
  "\u2581Strafe": 1164,
  "\u2581Richtig": 1165,
  "\u2581erfahren": 1166,
  "\u2581wolltest": 1167,
  "\u2581voller": 1168,
  "ma": 1169,
  "\u2581\u00e4ndern": 1170,
  "\u2581ehrlich": 1171,
  "\u2581Team": 1172,
  "\u2581Ruf": 1173,
  "\u2581gefragt": 1174,
  "\u2581Tja": 1175,
  "\u2581lebt": 1176,
  "1": 1177,
  "\u2581Allahs": 1178,
  "\u2581Barry": 1179,
  "\u2581Glaub": 1180,
  "\u2581erinnern": 1181,
  "\u2581aller": 1182,
  "gen": 1183,
  "mal": 1184,
  "\u2581hattest": 1185,
  "\u2581Auge": 1186,
  "\u2581Gesch\u00e4ft": 1187,
  "\u2581\u00c4rger": 1188,
  "\u2581kamen": 1189,
  "\u2581lie\u00df": 1190,
  "\u2581sollst": 1191,
  "\u2581vorher": 1192,
  "\u2581nachdem": 1193,
  "\u2581danach": 1194,
  "\u2581Daddy": 1195,
  "\u2581Verstanden": 1196,
  "\u2581irgendwo": 1197,
  "\u2581Uns": 1198,
  "\u2581h\u00f6re": 1199,
  "W": 1200,
  "\u2581Hol": 1201,
  "\u2581Zug": 1202,
  "\u2581Wohnung": 1203,
  "la": 1204,
  "\u2581\u00c4h": 1205,
  "\u2581halt": 1206,
  "\u2581Sprich": 1207,
  "\u2581verletzt": 1208,
  "\u2581David": 1209,
  "\u2581vorstellen": 1210,
  "\u2581versuche": 1211,
  "\u2581vielen": 1212,
  "\u2581k\u00f6nntest": 1213,
  "\u2581Armee": 1214,
  "\u2581Seht": 1215,
  "bar": 1216,
  "\u2581Liebling": 1217,
  "\u2581still": 1218,
  "\u2581wert": 1219,
  "\u2581Habe": 1220,
  "\u2581jedem": 1221,
  "Sie": 1222,
  "\u2581f\u00e4llt": 1223,
  "\u2581passieren": 1224,
  "\u2581gestorben": 1225,
  "\u2581Joe": 1226,
  "\u2581Arm": 1227,
  "\u2581tu": 1228,
  "\u2581Worte": 1229,
  "\u2581genauso": 1230,
  "\u2581r\u00fcber": 1231,
  "\u2581gegangen": 1232,
  "ja": 1233,
  "\u2581Befehl": 1234,
  "\u2581Flugzeug": 1235,
  "\u2581Augenblick": 1236,
  "Du": 1237,
  "\u2581m\u00f6gen": 1238,
  "\u2581n\u00e4chste": 1239,
  "\u2581Antwort": 1240,
  "\u2581hart": 1241,
  "\u2581offen": 1242,
  "\u2581Mich": 1243,
  "\u2581rede": 1244,
  "\u2581Krankenhaus": 1245,
  "\u2581Insel": 1246,
  "\u2581Meinung": 1247,
  "\u2581gesprochen": 1248,
  "\u2581Lord": 1249,
  "\u2581Dame": 1250,
  "\u2581Sex": 1251,
  "\u2581Mehr": 1252,
  "\u2581findet": 1253,
  "\u2581hinten": 1254,
  "\u2581euren": 1255,
  "\u2581wahrscheinlich": 1256,
  "\u2581ewig": 1257,
  "\u2581gro\u00dfer": 1258,
  "\u2581fallen": 1259,
  "\u2581l\u00e4\u00dft": 1260,
  "is": 1261,
  "\u2581aufs": 1262,
  "\u2581angerufen": 1263,
  "\u2581R\u00fccken": 1264,
  "\u2581Immer": 1265,
  "\u2581Richtung": 1266,
  "\u2581wahrlich": 1267,
  "\u2581stolz": 1268,
  "\u2581Stelle": 1269,
  "\u2581wieso": 1270,
  "\u2581kennst": 1271,
  "\u2581Wei\u00df": 1272,
  "\u2581redest": 1273,
  "\u2581Darum": 1274,
  "\u2581Bewegung": 1275,
  "\u2581Schnell": 1276,
  "ab": 1277,
  "\u2581liegen": 1278,
  "\u2581a": 1279,
  "\u2581schicken": 1280,
  "\u2581schreiben": 1281,
  "\u2581Klappe": 1282,
  "\u2581Wird": 1283,
  "\u2581Wen": 1284,
  "\u2581wartet": 1285,
  "\u2581trotzdem": 1286,
  "\u2581\u00e4h": 1287,
  "\u2581Beste": 1288,
  "\u2581Monate": 1289,
  "\u2581Michael": 1290,
  "\u2581Seid": 1291,
  "\u2581nochmal": 1292,
  "\u2581Gutes": 1293,
  "\u2581Falls": 1294,
  "\u00c3": 1295,
  "\u2581Flug": 1296,
  "\u2581[": 1297,
  "\u2581Versuch": 1298,
  "\u2581halte": 1299,
  "\u2581gef\u00e4hrlich": 1300,
  "\u2581pro": 1301,
  "\u2581Bank": 1302,
  "\u2581neu": 1303,
  "\u2581Seele": 1304,
  "ka": 1305,
  "\u2581arbeite": 1306,
  "\u2581geschehen": 1307,
  "\u2581f\u00fchlen": 1308,
  "c": 1309,
  "\u2581niemanden": 1310,
  "\u2581Einer": 1311,
  "\u2581James": 1312,
  "\u2581total": 1313,
  "\u2581tat": 1314,
  "ist": 1315,
  "\u2581manchmal": 1316,
  "ch": 1317,
  "\u2581alter": 1318,
  "\u2581verschwinden": 1319,
  "\u2581k\u00fcmmern": 1320,
  "\u2581Bill": 1321,
  "Er": 1322,
  "\u2581w\u00e4rst": 1323,
  "\u2581geschickt": 1324,
  "\u2581deines": 1325,
  "\u2581fliegen": 1326,
  "\u2581Bar": 1327,
  "\u2581Finde": 1328,
  "...\"": 1329,
  "\u2581nimmt": 1330,
  "\u2581Boot": 1331,
  "\u2581rufen": 1332,
  "\u2581bitten": 1333,
  "\u2581Drogen": 1334,
  "\u2581bezahlt": 1335,
  "da": 1336,
  "\u2581bring": 1337,
  "id": 1338,
  "\u2581Preis": 1339,
  "\u00fc": 1340,
  "or": 1341,
  "\u2581Laden": 1342,
  "\u2581verdammte": 1343,
  "me": 1344,
  "\u2581lustig": 1345,
  "\u2581lesen": 1346,
  "\u2581spielt": 1347,
  "\u2581nieder": 1348,
  "\u2581stand": 1349,
  "\u2581Sonne": 1350,
  "\u2581Person": 1351,
  "\u2581Daf\u00fcr": 1352,
  "\u2581Bild": 1353,
  "\u2581n\u00f6tig": 1354,
  "\u2581Entscheidung": 1355,
  "\u2581f\u00fchrt": 1356,
  "\u2581Opfer": 1357,
  "\u2581Zur\u00fcck": 1358,
  "igen": 1359,
  "\u2581umgebracht": 1360,
  "na": 1361,
  "\u00df": 1362,
  "\u2581Finger": 1363,
  "\u2581L\u00fcge": 1364,
  "ur": 1365,
  "\u2581schlimm": 1366,
  "\u2581Raum": 1367,
  "\u2581falls": 1368,
  "\u2581stark": 1369,
  "ar": 1370,
  "\u2581jedes": 1371,
  "\u2581konnten": 1372,
  "Die": 1373,
  "\u2581Computer": 1374,
  "\u2581eher": 1375,
  "\u2581Ta": 1376,
  "\u25812.": 1377,
  "\u2581neues": 1378,
  "\u2581Tony": 1379,
  "\u2581aufh\u00f6ren": 1380,
  "Nein": 1381,
  "\u2581M\u00f6rder": 1382,
  "\u2581sch": 1383,
  "]": 1384,
  "\u2581Dort": 1385,
  "\u2581Paris": 1386,
  "\u2581klingt": 1387,
  "\u2581sitzt": 1388,
  "ton": 1389,
  "\u2581$": 1390,
  "\u2581Anwalt": 1391,
  "\u2581gerettet": 1392,
  "\u2581dumm": 1393,
  "ra": 1394,
  "\u2581Gefallen": 1395,
  "\u2581weiss": 1396,
  "\u2581jemals": 1397,
  "\u2581erinnere": 1398,
  "\u2581Gedanken": 1399,
  "\u2581verdient": 1400,
  "\u2581Keiner": 1401,
  "land": 1402,
  "\u2581bezahlen": 1403,
  "\u2581Nachrichten": 1404,
  "\u2581geh\u00f6ren": 1405,
  "\u2581hol": 1406,
  "\u2581Damen": 1407,
  "\u2581cool": 1408,
  "\u2581rufe": 1409,
  "q": 1410,
  "ige": 1411,
  "\u2581Eis": 1412,
  "\u2581Durch": 1413,
  "\u2581Manchmal": 1414,
  "\u2581Dem": 1415,
  "il": 1416,
  "ER": 1417,
  "wa": 1418,
  "\u2581the": 1419,
  "\u2581Bier": 1420,
  "\u2581Vergiss": 1421,
  "\u2581vorsichtig": 1422,
  "\u2581Lady": 1423,
  "\u2581San": 1424,
  "\u258112": 1425,
  "\u2581gro\u00dfartig": 1426,
  "\u2581h\u00f6rte": 1427,
  "\u2581pl\u00f6tzlich": 1428,
  "\u2581kriegt": 1429,
  "\u2581acht": 1430,
  "\u2581Stimme": 1431,
  "los": 1432,
  "\u2581schlimmer": 1433,
  "\u2581Will": 1434,
  "\u2581Wunder": 1435,
  "\u2581starb": 1436,
  "\u25817": 1437,
  "ut": 1438,
  "heit": 1439,
  "mann": 1440,
  "\u2581hole": 1441,
  "\u2581richtige": 1442,
  "\u2581Engel": 1443,
  "\u2581N\u00e4he": 1444,
  "!\"": 1445,
  "\u2581Ob": 1446,
  "\u2581nahm": 1447,
  "\u2581Chef": 1448,
  "\u2581Schluss": 1449,
  "\u2581Kraft": 1450,
  "\u2581glaub": 1451,
  "\u2581Sollte": 1452,
  "\u2581Wein": 1453,
  "\u2581leider": 1454,
  "\u2581100": 1455,
  "\u2581verheiratet": 1456,
  "ke": 1457,
  "\u2581Anfang": 1458,
  "\u2581Geburtstag": 1459,
  "\u2581ran": 1460,
  "\u2581anfangen": 1461,
  "\u2581Beispiel": 1462,
  "\u2581Lage": 1463,
  "\u2581Entschuldige": 1464,
  "Mann": 1465,
  "\u2581de": 1466,
  "\u2581Regierung": 1467,
  "\u2581Feind": 1468,
  "\u2581Brief": 1469,
  "\u2581Weise": 1470,
  "\u2581dagegen": 1471,
  "\u2581sieben": 1472,
  "Wir": 1473,
  "son": 1474,
  "\u2581gewinnen": 1475,
  "auf": 1476,
  "\u2581Super": 1477,
  "\u2581behalten": 1478,
  "\u2581Vorsicht": 1479,
  "ir": 1480,
  "\u2581bekannt": 1481,
  "\u25818": 1482,
  "\u2581Fu\u00df": 1483,
  "\u2581Nase": 1484,
  "ly": 1485,
  "Z": 1486,
  "\u2581gewonnen": 1487,
  "\u2581Riesen": 1488,
  "\u2581Gesetz": 1489,
  "\u2581verkaufen": 1490,
  "\u2581Tasche": 1491,
  "\u2581Kontrolle": 1492,
  "\u2581Ernst": 1493,
  "\u2581schie\u00dfen": 1494,
  "\u2581Schlaf": 1495,
  "\u2581sch\u00f6ne": 1496,
  "\u2581Reise": 1497,
  "\u2581deshalb": 1498,
  "\u2581gib": 1499,
  "\u2581Bob": 1500,
  "\u2581Gefahr": 1501,
  "\u2581damals": 1502,
  "\u2581kaputt": 1503,
  "\u2581frage": 1504,
  "\u2581Erst": 1505,
  "\u2581Billy": 1506,
  "\u2581Ehre": 1507,
  "\u2581Gericht": 1508,
  "\u2581arbeitet": 1509,
  "\u2581suche": 1510,
  "\u2581Minute": 1511,
  "\u2581werd": 1512,
  "\u2581Anruf": 1513,
  "\u2581erreichen": 1514,
  "\u2581Firma": 1515,
  "\u2581Monaten": 1516,
  "\u2581b\u00f6se": 1517,
  "\u2581Leiche": 1518,
  "\u2581heim": 1519,
  "\u2581Witz": 1520,
  "\u2581bekommt": 1521,
  "\u2581Pferd": 1522,
  "\u2581La": 1523,
  "\u2581Tor": 1524,
  "ta": 1525,
  "\u2581unterwegs": 1526,
  "\u2581H\u00e4tte": 1527,
  "\u2581See": 1528,
  "\u2581neben": 1529,
  "U": 1530,
  "\u2581klein": 1531,
  "\u2581Fleisch": 1532,
  "\u2581Kontakt": 1533,
  "\u2581lie\u00dfen": 1534,
  "\u2581Meister": 1535,
  "\u2581st\u00e4ndig": 1536,
  "os": 1537,
  "\u2581m\u00fcde": 1538,
  "\u2581selber": 1539,
  "\u2581FBI": 1540,
  "\u2581Paul": 1541,
  "\u2581Z": 1542,
  "\u2581Unfall": 1543,
  "\u2581lhnen": 1544,
  "\u2581Setz": 1545,
  "\u2581gelesen": 1546,
  "\u2581Rolle": 1547,
  "\u2581hei\u00dfe": 1548,
  "lo": 1549,
  "\u2581Schutz": 1550,
  "\u2581w\u00fcnschte": 1551,
  "\u2581F\u00fcnf": 1552,
  "\u2581Monat": 1553,
  "liche": 1554,
  "\u2581Eigentlich": 1555,
  "\u2581jemandem": 1556,
  "\u2581Informationen": 1557,
  "\u2581kalt": 1558,
  "\u2581sowieso": 1559,
  "ck": 1560,
  "\u2581Wow": 1561,
  "\u2581Jimmy": 1562,
  "\u2581passt": 1563,
  "ungen": 1564,
  "\u2581sprach": 1565,
  "\u2581Ball": 1566,
  "\u2581Fisch": 1567,
  "\u2581unm\u00f6glich": 1568,
  "\u2581Tat": 1569,
  "\u2581W\u00e4re": 1570,
  "\u2581schneller": 1571,
  "\u2581Ex": 1572,
  "\u2581Gehirn": 1573,
  "\u2581Wegen": 1574,
  "\u2581Ehe": 1575,
  "\u2581Denken": 1576,
  "\u2581seines": 1577,
  "\u2581dahin": 1578,
  "\u2581solange": 1579,
  "as": 1580,
  "\u2581stirbt": 1581,
  "\u2581erledigt": 1582,
  "\u2581Vogel": 1583,
  "\u2581bewegen": 1584,
  "un": 1585,
  "im": 1586,
  "x": 1587,
  "\u2581Kindern": 1588,
  "\u2581besonders": 1589,
  "\u2581erwischt": 1590,
  "\u2581n\u00e4her": 1591,
  "\u2581rechts": 1592,
  "\u2581komisch": 1593,
  "\u2581Hoffnung": 1594,
  "\u2581Tee": 1595,
  "\u2581Mike": 1596,
  "\u2581#": 1597,
  "\u2581Karte": 1598,
  "\u2581Geist": 1599,
  "\u258119": 1600,
  "\u2581Bord": 1601,
  "\u2581Klasse": 1602,
  "\u2581pers\u00f6nlich": 1603,
  "\u2581gelernt": 1604,
  "\u2581geschrieben": 1605,
  "\u2581Hunger": 1606,
  "\u2581Alex": 1607,
  "\u2581Tun": 1608,
  "\u2581Amerika": 1609,
  "\u2581Punkt": 1610,
  "\u2581f\u00fcrchte": 1611,
  "ion": 1612,
  "\u2581ans": 1613,
  "\u2581Foto": 1614,
  "\u2581versprochen": 1615,
  "\u2581benutzt": 1616,
  "\u2581Frieden": 1617,
  "\u2581perfekt": 1618,
  "\u2581Fernsehen": 1619,
  "Es": 1620,
  "ische": 1621,
  "\u2581Gesellschaft": 1622,
  "\u2581Geschenk": 1623,
  "\u2581hinaus": 1624,
  "\u2581Position": 1625,
  "\u2581De": 1626,
  "\u2581Denk": 1627,
  "\u2581Hals": 1628,
  "li": 1629,
  "\u2581gehabt": 1630,
  "\u2581Haupt": 1631,
  "\u2581Runter": 1632,
  "\u2581Haut": 1633,
  "\u2581N": 1634,
  "\u2581Nick": 1635,
  "\u2581Lohn": 1636,
  "\u2581Weiter": 1637,
  "\u2581Liste": 1638,
  "\u2581nennt": 1639,
  "\u2581Rede": 1640,
  "\u2581schuldig": 1641,
  "\u2581nimm": 1642,
  "\u2581Hm": 1643,
  "\u2581Mut": 1644,
  "\u2581sch\u00e4tze": 1645,
  "\u2581erschaffen": 1646,
  "\u2581geboren": 1647,
  "\u2581Re": 1648,
  "\u2581Wahrlich": 1649,
  "\u2581sieh": 1650,
  "\u258140": 1651,
  "\u2581Mary": 1652,
  "\u2581f\u00fcrs": 1653,
  "\u2581verkauft": 1654,
  "\u2581hilft": 1655,
  "\u2581Achtung": 1656,
  "\u2581f": 1657,
  "\u2581steckt": 1658,
  "\u2581Richard": 1659,
  "\u2581Schwein": 1660,
  "\u2581Glas": 1661,
  "\u2581hinein": 1662,
  "\u2581Wind": 1663,
  "\u2581Johnny": 1664,
  "\u2581zer": 1665,
  "\u2581Fahr": 1666,
  "\u2581Vier": 1667,
  "\u2581\u00fcbrig": 1668,
  "\u2581normal": 1669,
  "\u2581Gar": 1670,
  "\u2581Meer": 1671,
  "\u2581pflegte": 1672,
  "\u2581House": 1673,
  "go": 1674,
  "at": 1675,
  "\u2581laut": 1676,
  "\u2581Zeiten": 1677,
  "ein": 1678,
  "schaft": 1679,
  "\u2581ungl\u00e4ubig": 1680,
  "\u2581Haar": 1681,
  "ze": 1682,
  "\u2581Muss": 1683,
  "\u2581verliebt": 1684,
  "pa": 1685,
  "\u2581Hut": 1686,
  "\u2581Test": 1687,
  "\u2581ihres": 1688,
  "\u2581schlagen": 1689,
  "\u2581f\u00e4hrt": 1690,
  "\u2581Setzen": 1691,
  "leitung": 1692,
  "\u2581Halten": 1693,
  "\u2581hei\u00df": 1694,
  "ko": 1695,
  "\u2581gestohlen": 1696,
  "\u258118": 1697,
  "zi": 1698,
  "\u2581entfernt": 1699,
  "\u2581Kleine": 1700,
  "\u2581verstehst": 1701,
  "\u2581wohin": 1702,
  "\u2581W\u00fcrden": 1703,
  "\u2581Weile": 1704,
  "\u2581entschuldigen": 1705,
  "\u2581*": 1706,
  "\u25819": 1707,
  "\u2581leisten": 1708,
  "\u2581schw\u00f6re": 1709,
  "\u2581tief": 1710,
  "\u2581Leg": 1711,
  "\u2581Verbindung": 1712,
  "\u2581mu\u00dft": 1713,
  "\u2581benutzen": 1714,
  "\u2581Charles": 1715,
  "\u2581Egal": 1716,
  "\u2581Mo": 1717,
  "\u2581Druck": 1718,
  "\u2581ansehen": 1719,
  "\u2581ha": 1720,
  "\u2581Howard": 1721,
  "\u2581eigene": 1722,
  "sie": 1723,
  "\u2581Zeig": 1724,
  "\u2581m\u00fcsste": 1725,
  "aus": 1726,
  "\u2581erwarten": 1727,
  "\u2581fahre": 1728,
  "\u2581Drink": 1729,
  "gesandt": 1730,
  "}": 1731,
  "\u2581Wovon": 1732,
  "\u2581richtigen": 1733,
  "it": 1734,
  "\u2581wenigstens": 1735,
  "\u2581Geheimnis": 1736,
  "\u2581Besuch": 1737,
  "\u2581Band": 1738,
  "\u2581vertrauen": 1739,
  "\u2581Geb\u00e4ude": 1740,
  "\u2581nahe": 1741,
  "\u2581Gewalt": 1742,
  "\u2581nerv\u00f6s": 1743,
  "\u2581links": 1744,
  "\u2581erhalten": 1745,
  "\u2581versteckt": 1746,
  "\u2581Rat": 1747,
  "\u2581Sofort": 1748,
  "ah": 1749,
  "\u2581Max": 1750,
  "\u2581Professor": 1751,
  "\u2581m\u00fcsst": 1752,
  "\u2581to": 1753,
  "\u2581Taxi": 1754,
  "\u2581ruft": 1755,
  "\u2581anderer": 1756,
  "\u2581verdammten": 1757,
  "\u2581Kapit\u00e4n": 1758,
  "ul": 1759,
  "\u2581meint": 1760,
  "\u2581Familien": 1761,
  "isch": 1762,
  "\u2581Ari": 1763,
  "ren": 1764,
  "\u2581Fahren": 1765,
  "\u2581s\u00fc\u00df": 1766,
  "ler": 1767,
  "\u2581legen": 1768,
  "\u2581Hoch": 1769,
  "\u2581gutes": 1770,
  "zeit": 1771,
  "\u2581darfst": 1772,
  "\u2581Erfolg": 1773,
  "\u2581La\u00df": 1774,
  "\u2581zerst\u00f6rt": 1775,
  "\u2581denjenigen": 1776,
  "\u2581Agent": 1777,
  "\u2581schauen": 1778,
  "\u2581eurem": 1779,
  "\u2581traurig": 1780,
  "\u2581Jim": 1781,
  "V": 1782,
  "\u2581f\u00fchlt": 1783,
  "\u2581Je": 1784,
  "\u2581Lauf": 1785,
  "\u2581M\u00e4nnern": 1786,
  "\u2581m\u00f6chten": 1787,
  "\u2581Beweise": 1788,
  "\u2581tanzen": 1789,
  "\u2581Eier": 1790,
  "\u2581trifft": 1791,
  "\u2581Ho": 1792,
  "\u2581Toten": 1793,
  "\u2581Doc": 1794,
  "\u2581Botschaft": 1795,
  "\u2581Vergn\u00fcgen": 1796,
  "\u2581w\u00fctend": 1797,
  "\u25813.": 1798,
  "\u2581Maul": 1799,
  "ende": 1800,
  "Und": 1801,
  "\u2581Show": 1802,
  "\u2581Zieh": 1803,
  "\u2581dauert": 1804,
  "\u2581geliebt": 1805,
  "\u2581Verstand": 1806,
  "\u2581verraten": 1807,
  "\u2581dasselbe": 1808,
  "\u2581redet": 1809,
  "\u2581Bau": 1810,
  "\u2581Hochzeit": 1811,
  "\u2581Wozu": 1812,
  "\u2581V": 1813,
  "\u2581Au\u00dferdem": 1814,
  "\u2581gekauft": 1815,
  "ation": 1816,
  "\u2581Ring": 1817,
  "\u2581ver\u00e4ndert": 1818,
  "\u2581Soldaten": 1819,
  "\u2581Majest\u00e4t": 1820,
  "\u2581Schlag": 1821,
  "\u2581erledigen": 1822,
  "\u2581kriege": 1823,
  "ro": 1824,
  "\u2581Vince": 1825,
  "Y": 1826,
  "\u2581Zweifel": 1827,
  "\u2581Tier": 1828,
  "\u2581Wollt": 1829,
  "\u2581Bleiben": 1830,
  "\u2581Gruppe": 1831,
  "\u2581Bein": 1832,
  "ce": 1833,
  "\u2581Erz\u00e4hl": 1834,
  "\u2581jung": 1835,
  "\u2581na": 1836,
  "\u2581aufhalten": 1837,
  "\u2581sauber": 1838,
  "\u2581bleibe": 1839,
  "\u2581Lhr": 1840,
  "\u2581herab": 1841,
  "\u2581Sheriff": 1842,
  "\u2581Monsieur": 1843,
  "\u2581Messer": 1844,
  "\u2581lebe": 1845,
  "\u2581weitere": 1846,
  "\u2581Bullen": 1847,
  "he": 1848,
  "\u2581zeigt": 1849,
  "\u2581Freiheit": 1850,
  "\u2581Mond": 1851,
  "\u2581Schrift": 1852,
  "\u2581brachte": 1853,
  "so": 1854,
  "weise": 1855,
  "\u2581Regeln": 1856,
  "\u2581lieb": 1857,
  "\u2581The": 1858,
  "\u2581Robin": 1859,
  "\u2581Hatte": 1860,
  "\u2581M\u00f6glichkeit": 1861,
  "\u2581h\u00fcbsch": 1862,
  "\u2581Kirche": 1863,
  "ia": 1864,
  "\u2581junge": 1865,
  "\u2581Kleiner": 1866,
  "Sch": 1867,
  "\u2581Blick": 1868,
  "\u2581wunderbar": 1869,
  "\u2581Stark": 1870,
  "\u2581Berg": 1871,
  "\u2581Sekunde": 1872,
  "ber": 1873,
  "\u2581zuvor": 1874,
  "\u2581Senator": 1875,
  "\u2581Wald": 1876,
  "\u2581namens": 1877,
  "\u2581gesund": 1878,
  "Be": 1879,
  "ger": 1880,
  "\u2581absolut": 1881,
  "\u2581zahlen": 1882,
  "\u2581Pa": 1883,
  "\u2581G\u00fcte": 1884,
  "\u2581genannt": 1885,
  "\u2581stecken": 1886,
  "\u2581Beziehung": 1887,
  "\u2581Bringt": 1888,
  "\u2581wette": 1889,
  "\u2581witzig": 1890,
  "\u2581brauch": 1891,
  "\u2581Treffen": 1892,
  "ran": 1893,
  "dem": 1894,
  "\u2581meinte": 1895,
  "ha": 1896,
  "\u2581schrecklich": 1897,
  "\u2581Park": 1898,
  "\u2581Vaters": 1899,
  "\u2581Respekt": 1900,
  "\u2581Spur": 1901,
  "\u2581sucht": 1902,
  "\u2581wundersch\u00f6n": 1903,
  "\u2581wach": 1904,
  "\u2581Clark": 1905,
  "\u2581unbedingt": 1906,
  "\u2581Hunde": 1907,
  "\u2581verinnerlich": 1908,
  "\u2581Einzige": 1909,
  "\u2581Beine": 1910,
  "\u2581gesucht": 1911,
  "\u25810": 1912,
  "\u2581Stein": 1913,
  "\u2581Wahrscheinlich": 1914,
  "\u2581irre": 1915,
  "\u2581verantwortlich": 1916,
  "\u2581n\u00e4mlich": 1917,
  "\u2581findest": 1918,
  "\u2581erkl\u00e4rt": 1919,
  "\u2581fern": 1920,
  "\u2581Bo": 1921,
  "\u2581kriegst": 1922,
  "Ver": 1923,
  "\u2581Au": 1924,
  "\u2581erschossen": 1925,
  "Der": 1926,
  "\u2581Meter": 1927,
  "\u2581Reden": 1928,
  "\u2581gelassen": 1929,
  "\u2581Ent": 1930,
  "\u2581Mark": 1931,
  "\u2581fangen": 1932,
  "haus": 1933,
  "\u2581dankbar": 1934,
  "\u2581niemandem": 1935,
  "\u2581gearbeitet": 1936,
  "\u2581super": 1937,
  "\u2581Pr\u00e4sidenten": 1938,
  "\u2581neun": 1939,
  "\u2581Steh": 1940,
  "\u2581entlang": 1941,
  "\u2581Sicherheits": 1942,
  "\u2581bekam": 1943,
  "\u2581sauer": 1944,
  "\u2581K\u00f6nigin": 1945,
  "\u2581sch\u00f6nen": 1946,
  "\u2581geschlafen": 1947,
  "\u2581Denkst": 1948,
  "\u2581Ar": 1949,
  "\u2581Ra": 1950,
  "\u2581keinem": 1951,
  "\u2581unglaublich": 1952,
  "\u2581bedeuten": 1953,
  "\u2581besch\u00fctzen": 1954,
  "\u2581hm": 1955,
  "up": 1956,
  "\u2581Toll": 1957,
  "\u2581London": 1958,
  "\u2581wisst": 1959,
  "\u2581Ihn": 1960,
  "\u2581Schmerz": 1961,
  "\u2581Letzte": 1962,
  "bald": 1963,
  "\u2581Haare": 1964,
  "\u2581H\u00e4lfte": 1965,
  "\u2581Peter": 1966,
  "\u2581Diener": 1967,
  "\u2581Don": 1968,
  "\u2581entscheiden": 1969,
  "\u2581miteinander": 1970,
  "\u2581voraus": 1971,
  "\u2581Zeitung": 1972,
  "\u2581Loch": 1973,
  "do": 1974,
  "enden": 1975,
  "ling": 1976,
  "\u2581hielt": 1977,
  "keit": 1978,
  "\u00e9": 1979,
  "\u2581Stopp": 1980,
  "\u2581erreicht": 1981,
  "ri": 1982,
  "\u2581besorgt": 1983,
  "\u2581sagtest": 1984,
  "Ge": 1985,
  "\u2581h\u00e4ltst": 1986,
  "\u2581System": 1987,
  "iere": 1988,
  "ad": 1989,
  "\u2581Kennen": 1990,
  "\u2581rauf": 1991,
  "\u2581Bus": 1992,
  "\u2581Tsch\u00fcss": 1993,
  "\u2581letzter": 1994,
  "di": 1995,
  "\u2581Diejenigen": 1996,
  "\u2581Karten": 1997,
  "\u2581Viele": 1998,
  "\u2581Dienst": 1999,
  "\u2581fehlt": 2000,
  "\u2581Milch": 2001,
  "\u2581Ed": 2002,
  "\u2581H\u00e4nden": 2003,
  "\u2581statt": 2004,
  "\u2581Anzug": 2005,
  "\u2581verspreche": 2006,
  "\u2581Sommer": 2007,
  "\u2581Vergangenheit": 2008,
  "\u2581besch\u00e4ftigt": 2009,
  "\u2581falsche": 2010,
  "\u2581Gebet": 2011,
  "\u2581Koffer": 2012,
  "ll": 2013,
  "\u2581Sobald": 2014,
  "\u2581beweisen": 2015,
  "\u2581Schritt": 2016,
  "\u2581Schicksal": 2017,
  "raum": 2018,
  "\u2581Bericht": 2019,
  "\u2581\u00dcberraschung": 2020,
  "\u2581\u00fcbel": 2021,
  "\u2581vorne": 2022,
  "bi": 2023,
  "\u2581herein": 2024,
  "\u2581Bevor": 2025,
  "\u2581Einfach": 2026,
  "\u2581Sergeant": 2027,
  "\u2581schau": 2028,
  "\u2581seh": 2029,
  "r\u00fc": 2030,
  "\u2581Br\u00fcder": 2031,
  "\u2581Wartet": 2032,
  "\u2581Situation": 2033,
  "\u2581Zuhause": 2034,
  "\u2581aussehen": 2035,
  "\u2581Maschine": 2036,
  "\u2581davor": 2037,
  "\u2581G\u00f6tter": 2038,
  "\u2581Gnade": 2039,
  "\u2581h\u00f6rst": 2040,
  "\u2581Verstehst": 2041,
  "\u2581lag": 2042,
  "\u2581{": 2043,
  "\u2581\u266a": 2044,
  "\u2581ruf": 2045,
  "\u2581Eines": 2046,
  "\u2581Washington": 2047,
  "\u2581sorgen": 2048,
  "\u2581Aufgabe": 2049,
  "\u2581wussten": 2050,
  "\u2581seien": 2051,
  "\u2581K\u00fcche": 2052,
  "\u2581gebrochen": 2053,
  "ley": 2054,
  "\u2581Jesus": 2055,
  "\u2581magst": 2056,
  "\u2581Ka": 2057,
  "pf": 2058,
  "\u2581wohnen": 2059,
  "\u2581gemeinsam": 2060,
  "\u2581Adresse": 2061,
  "/": 2062,
  "\u2581Fr\u00fchst\u00fcck": 2063,
  "\u2581deswegen": 2064,
  "ungs": 2065,
  "\u2581Hilf": 2066,
  "\u2581geredet": 2067,
  "\u2581Monster": 2068,
  "\u2581Freude": 2069,
  "\u2581Unterschied": 2070,
  "\u2581bleibst": 2071,
  "\u2581lief": 2072,
  "\u2581Meinen": 2073,
  "\u2581Kate": 2074,
  "\u2581Verbrechen": 2075,
  "\u2581\u00f6ffnen": 2076,
  "\u2581Ohren": 2077,
  "\u2581seht": 2078,
  "\u2581Regen": 2079,
  "\u2581halb": 2080,
  "ya": 2081,
  "\u2581Amerikaner": 2082,
  "\u2581Bombe": 2083,
  "\u2581Dach": 2084,
  "\u2581B\u00fccher": 2085,
  "\u2581Jenseits": 2086,
  "\u2581Schuhe": 2087,
  "\u2581Dorf": 2088,
  "\u2581Nie": 2089,
  "nem": 2090,
  "\u25814.": 2091,
  "laden": 2092,
  "\u2581ganzes": 2093,
  "\u2581indem": 2094,
  "\u2581Patienten": 2095,
  "\u2581me": 2096,
  "\u2581Fotos": 2097,
  "\u2581gro\u00dfes": 2098,
  "\u2581Brust": 2099,
  "\u2581rief": 2100,
  "\u2581Gegend": 2101,
  "\u2581Sagt": 2102,
  "\u2581spreche": 2103,
  "\u2581Fertig": 2104,
  "iger": 2105,
  "\u2581Zeugen": 2106,
  "\u2581kostet": 2107,
  "\u2581angefangen": 2108,
  "\u2581zieht": 2109,
  "\u2581Jawohl": 2110,
  "\u2581Detective": 2111,
  "\u2581Henry": 2112,
  "\u2581Erlaubnis": 2113,
  "ol": 2114,
  "\u2581Baum": 2115,
  "\u2581Robert": 2116,
  "\u2581Gleich": 2117,
  "\u2581Richter": 2118,
  "\u2581Ehren": 2119,
  "rt": 2120,
  "ca": 2121,
  "sa": 2122,
  "mo": 2123,
  "\u2581Jesse": 2124,
  "\u2581zufrieden": 2125,
  "\u2581Nenn": 2126,
  "ry": 2127,
  "\u2581Lieutenant": 2128,
  "\u2581Kamera": 2129,
  "\u2581Kugel": 2130,
  "\u2581Major": 2131,
  "\u2581S\u00fc\u00dfe": 2132,
  "\u2581Hirn": 2133,
  "\u2581bauen": 2134,
  "\u2581verschwunden": 2135,
  "Wie": 2136,
  "\u2581Yeah": 2137,
  "ster": 2138,
  "\u2581Besser": 2139,
  "\u2581Vertrauen": 2140,
  "ischen": 2141,
  "des": 2142,
  "\u2581Beweis": 2143,
  "\u2581gr\u00f6\u00dfte": 2144,
  "ph": 2145,
  "\u2581h\u00e4ngen": 2146,
  "ow": 2147,
  "\u2581\u00c4hm": 2148,
  "\u2581El": 2149,
  "\u2581US": 2150,
  "\u2581Waren": 2151,
  "\u2581Kennst": 2152,
  "\u2581werfen": 2153,
  "\u2581drinnen": 2154,
  "\u2581Lois": 2155,
  "\u2581Meilen": 2156,
  "berg": 2157,
  "\u00e4h": 2158,
  "\u2581Mami": 2159,
  "\u2581erkennen": 2160,
  "\u2581hey": 2161,
  "\u2581\u00fcberleben": 2162,
  "\u2581Stell": 2163,
  "\u2581ermordet": 2164,
  "zen": 2165,
  "\u2581hinab": 2166,
  "Ein": 2167,
  "au": 2168,
  "\u2581gleichen": 2169,
  "\u2581kannte": 2170,
  "\u2581Weihnachten": 2171,
  "end": 2172,
  "\u2581Strand": 2173,
  "\u2581Energie": 2174,
  "\u2581Milit\u00e4r": 2175,
  "\u2581stehe": 2176,
  "\u2581menschliche": 2177,
  "\u258125": 2178,
  "\u2581Vergebung": 2179,
  "\u2581interessant": 2180,
  "\u2581tolle": 2181,
  "\u2581unseres": 2182,
  "\u2581erlaubt": 2183,
  "\u2581tats\u00e4chlich": 2184,
  "\u2581vermisst": 2185,
  "\u2581behandelt": 2186,
  "\u2581Gang": 2187,
  "\u2581Schatten": 2188,
  "\u2581Schwert": 2189,
  "\u2581einander": 2190,
  "\u2581gefangen": 2191,
  "ba": 2192,
  "\u2581dachten": 2193,
  "hm": 2194,
  "\u2581Versprechen": 2195,
  "\u2581of": 2196,
  "du": 2197,
  "\u2581Le": 2198,
  "\u2581helfe": 2199,
  "\u2581Superman": 2200,
  "\u2581Sebastian": 2201,
  "\u2581you": 2202,
  "ben": 2203,
  "kommen": 2204,
  "\u2581Br\u00fccke": 2205,
  "\u2581geschlagen": 2206,
  "\u2581Verantwortung": 2207,
  "\u2581geholfen": 2208,
  "\u2581zerst\u00f6ren": 2209,
  "\u2581Lust": 2210,
  "ga": 2211,
  "\u2581Danny": 2212,
  "\u2581Martin": 2213,
  "\u2581Kleid": 2214,
  "\u2581L\u00fcgen": 2215,
  "\u2581zuteil": 2216,
  "\u2581Natur": 2217,
  "\u2581blind": 2218,
  "\u2581Auftrag": 2219,
  "\u2581Wichser": 2220,
  "gehen": 2221,
  "\u2581Deswegen": 2222,
  "\u2581West": 2223,
  "\u2581verpasst": 2224,
  "igkeit": 2225,
  "\u2581Red": 2226,
  "\u2581Wand": 2227,
  "pp": 2228,
  "\u2581einzigen": 2229,
  "\u2581H\u00f6rst": 2230,
  "\u2581Maria": 2231,
  "\u2581Wieder": 2232,
  "\u2581Witze": 2233,
  "\u2581England": 2234,
  "\u2581machten": 2235,
  "v": 2236,
  "\u2581City": 2237,
  "\u2581bleib": 2238,
  "\u2581Angriff": 2239,
  "mm": 2240,
  "\u2581Blumen": 2241,
  "\u2581tr\u00e4gt": 2242,
  "\u2581aussieht": 2243,
  "\u2581Haltet": 2244,
  "\u2581Pferde": 2245,
  "\u2581Rom": 2246,
  "ken": 2247,
  "\u2581Code": 2248,
  "\u2581Gef\u00fchle": 2249,
  "\u2581gegessen": 2250,
  "\u2581Gespr\u00e4ch": 2251,
  "\u2581Einsatz": 2252,
  "\u2581Roger": 2253,
  "\u00fcr": 2254,
  "\u2581Fr\u00e4ulein": 2255,
  "\u2581besteht": 2256,
  "her": 2257,
  "\u2581w\u00fcsste": 2258,
  "\u2581Sand": 2259,
  "\u2581k\u00fcmmert": 2260,
  "\u2581traf": 2261,
  "\u2581Lager": 2262,
  "An": 2263,
  "\u2581Guck": 2264,
  "\u2581Hoffentlich": 2265,
  "\u2581schlechte": 2266,
  "\u2581L\u00fcgner": 2267,
  "pe": 2268,
  "\u2581liebst": 2269,
  "\u2581Post": 2270,
  "\u2581Bilder": 2271,
  "ien": 2272,
  "\u2581Au\u00dfer": 2273,
  "\u2581melden": 2274,
  "\u2581Stra\u00dfen": 2275,
  "\u2581gleiche": 2276,
  "\u2581Gl\u00fcckwunsch": 2277,
  "\u2581sch\u00fctzen": 2278,
  "\u2581Go": 2279,
  "\u2581Knast": 2280,
  "\u2581falschen": 2281,
  "einigung": 2282,
  "\u2581lhren": 2283,
  "\u2581Verm\u00f6gen": 2284,
  "\u2581Steig": 2285,
  "bel": 2286,
  "\u2581lebendig": 2287,
  "\u2581Neues": 2288,
  "th": 2289,
  "\u2581Aya": 2290,
  "\u2581folgt": 2291,
  "\u258124": 2292,
  "\u2581Dreck": 2293,
  "\u2581and": 2294,
  "\u2581Walter": 2295,
  "\u2581gr\u00f6\u00dfer": 2296,
  "\u2581Quatsch": 2297,
  "\u2581Stock": 2298,
  "\u2581200": 2299,
  "\u2581Freunden": 2300,
  "\u2581nimmst": 2301,
  "\u2581Colonel": 2302,
  "\u2581Gesandte": 2303,
  "\u2581Victor": 2304,
  "\u2581entschieden": 2305,
  "\u2581nah": 2306,
  "\u2581Fest": 2307,
  "\u2581l\u00e4cherlich": 2308,
  "\u2581Liebes": 2309,
  "\u2581\u00fcberrascht": 2310,
  "\u2581Tiere": 2311,
  "\u2581Tante": 2312,
  "\u2581Winter": 2313,
  "\u2581zuf\u00e4llig": 2314,
  "\u2581geschlossen": 2315,
  "\u2581fanden": 2316,
  "\u2581Abendessen": 2317,
  "\u2581gefahren": 2318,
  "\\": 2319,
  "\u2581lasst": 2320,
  "\u2581dienen": 2321,
  "kt": 2322,
  "\u2581Lieber": 2323,
  "ic": 2324,
  "\u2581verdienen": 2325,
  "\u2581Fahrt": 2326,
  "\u258116": 2327,
  "\u2581zweite": 2328,
  "\u2581verhaftet": 2329,
  "\u2581Wahnsinn": 2330,
  "\u2581Heim": 2331,
  "\u2581furchtbar": 2332,
  "\u2581Bad": 2333,
  "\u2581Krebs": 2334,
  "\u2581handelt": 2335,
  "\u2581verstecken": 2336,
  "ik": 2337,
  "\u2581Ungl\u00e4ubigen": 2338,
  "In": 2339,
  "\u2581unterhalten": 2340,
  "ho": 2341,
  "mit": 2342,
  "\u2581gespielt": 2343,
  "\u2581fragte": 2344,
  "\u2581Vertrag": 2345,
  "\u2581Ecke": 2346,
  "\u2581Mission": 2347,
  "\u2581irgendetwas": 2348,
  "\u2581lachen": 2349,
  "\u2581mussten": 2350,
  "\u2581p": 2351,
  "ku": 2352,
  "\u2581Mittel": 2353,
  "\u2581Ray": 2354,
  "teil": 2355,
  "\u2581Haufen": 2356,
  "\u2581setzt": 2357,
  "mp": 2358,
  "\u2581Naja": 2359,
  "\u2581zeig": 2360,
  "\u2581Westen": 2361,
  "\u2581Zur": 2362,
  "\u2581Michelle": 2363,
  "\u2581Streit": 2364,
  "\u2581Gegen": 2365,
  "\u2581Erinnerst": 2366,
  "\u2581schlie\u00dfen": 2367,
  "\u2581Mus": 2368,
  "\u2581wovon": 2369,
  "\u2581Erste": 2370,
  "\u2581F\u00fc\u00dfe": 2371,
  "fe": 2372,
  "\u2581Schaden": 2373,
  "\u2581Form": 2374,
  "\u2581bekomme": 2375,
  "\u258114": 2376,
  "\u258117": 2377,
  "\u2581reich": 2378,
  "ine": 2379,
  "\u2581Hose": 2380,
  "\u2581Kunst": 2381,
  "\u2581Qu": 2382,
  "\u2581Todes": 2383,
  "\u2581bl\u00f6d": 2384,
  "\u2581seltsam": 2385,
  "\u2581herausfinden": 2386,
  "\u2581hie\u00df": 2387,
  "\u2581jene": 2388,
  "ub": 2389,
  "\u2581Schmerzen": 2390,
  "\u2581F\u00fchrer": 2391,
  "\u2581Norden": 2392,
  "\u2581Joey": 2393,
  "\u2581geb": 2394,
  "\u2581Rufen": 2395,
  "\u2581h\u00e4ngt": 2396,
  "\u2581besorgen": 2397,
  "\u2581Operation": 2398,
  "\u2581Werden": 2399,
  "\u2581hallo": 2400,
  "\u2581Presse": 2401,
  "\u2581Video": 2402,
  "\u00c4": 2403,
  "\u2581Labor": 2404,
  "\u2581mitnehmen": 2405,
  "test": 2406,
  "\u2581brechen": 2407,
  "Frau": 2408,
  "\u2581Gelegenheit": 2409,
  "\u2581halbe": 2410,
  "\u2581Wohl": 2411,
  "che": 2412,
  "\u2581ge\u00e4ndert": 2413,
  "\u2581Pein": 2414,
  "\u2581bewegt": 2415,
  "\u2581gestellt": 2416,
  "\u2581Willen": 2417,
  "\u2581Nehmt": 2418,
  "\u2581Sechs": 2419,
  "\u2581t": 2420,
  "\u2581Faye": 2421,
  "\u2581Klingt": 2422,
  "\u2581Wayne": 2423,
  "ve": 2424,
  "\u2581Kurs": 2425,
  "\u2581leer": 2426,
  "\u2581mitten": 2427,
  "\u2581obwohl": 2428,
  "\u2581Pe": 2429,
  "\u2581Brauch": 2430,
  "\u2581Nerven": 2431,
  "\u2581gewartet": 2432,
  "stand": 2433,
  "\u2581Echt": 2434,
  "\u2581Gl\u00e4ubigen": 2435,
  "\u2581wohnt": 2436,
  "\u2581Garten": 2437,
  "\u2581sahen": 2438,
  "\u2581drehen": 2439,
  "\u2581betrunken": 2440,
  "legen": 2441,
  "\u2581stellt": 2442,
  "\u2581Knochen": 2443,
  "\u2581Polizisten": 2444,
  "\u2581Unsinn": 2445,
  "\u2581jedoch": 2446,
  "\u2581Ton": 2447,
  "\u2581echte": 2448,
  "\u2581Fluss": 2449,
  "\u2581Radio": 2450,
  "\u2581Mannes": 2451,
  "\u2581dauern": 2452,
  "\u2581welcher": 2453,
  "gang": 2454,
  "\u2581lautet": 2455,
  "\u2581funktionieren": 2456,
  "\u2581gebeten": 2457,
  "\u2581f\u00fcrchtet": 2458,
  "\u2581Zehn": 2459,
  "\u2581jungen": 2460,
  "\u2581Schwanz": 2461,
  "\u2581l": 2462,
  "\u2581Claire": 2463,
  "\u2581Gas": 2464,
  "\u2581Geduld": 2465,
  "\u2581gebaut": 2466,
  "\u2581Club": 2467,
  "\u2581Lieblings": 2468,
  "\u2581Start": 2469,
  "\u2581Fast": 2470,
  "fahren": 2471,
  "\u2581Luke": 2472,
  "ufr": 2473,
  "\u2581Manche": 2474,
  "\u2581Pfund": 2475,
  "\u2581t\u00f6tet": 2476,
  "\u2581Soldat": 2477,
  "\u00c9": 2478,
  "\u2581w\u00fcnschen": 2479,
  "\u2581Sogar": 2480,
  "\u2581beginnen": 2481,
  "\u2581irgendwann": 2482,
  "\u2581No": 2483,
  "\u2581re": 2484,
  "\u2581verlangt": 2485,
  "\u2581Erden": 2486,
  "\u2581Van": 2487,
  "\u2581\u00fcbernehmen": 2488,
  "\u2581Irgendwas": 2489,
  "\u2581Ehrlich": 2490,
  "\u2581Seiten": 2491,
  "ell": 2492,
  "\u2581Polizist": 2493,
  "\u2581teilen": 2494,
  "\u2581Buffy": 2495,
  "\u2581Interesse": 2496,
  "\u2581Ihres": 2497,
  "\u2581Angebot": 2498,
  "\u2581Stellen": 2499,
  "\u2581Sieg": 2500,
  "\u2581Gre": 2501,
  "\u2581Schwierigkeiten": 2502,
  "\u2581dr\u00fcber": 2503,
  "ach": 2504,
  "\u2581ange": 2505,
  "pi": 2506,
  "\u2581Angelegenheit": 2507,
  "\u2581k\u00fcmmere": 2508,
  "\u2581Schlampe": 2509,
  "\u2581l\u00e4ngst": 2510,
  "ers": 2511,
  "spiel": 2512,
  "\u2581neuer": 2513,
  "\u2581Grad": 2514,
  "\u2581Signal": 2515,
  "lch": 2516,
  "schlag": 2517,
  "\u2581Katze": 2518,
  "\u2581gehalten": 2519,
  "\u2581schwierig": 2520,
  "\u2581Mistkerl": 2521,
  "field": 2522,
  "men": 2523,
  "\u2581W\u00e4hrend": 2524,
  "\u2581besuchen": 2525,
  "\u2581freuen": 2526,
  "ov": 2527,
  "\u2581Holt": 2528,
  "\u2581mitgebracht": 2529,
  "\u2581Nachmittag": 2530,
  "\u2581Risiko": 2531,
  "\u2581Million": 2532,
  "\u2581Jo": 2533,
  "\u2581Hau": 2534,
  "\u2581Leck": 2535,
  "\u2581Wochenende": 2536,
  "\u2581schwanger": 2537,
  "\u2581gibst": 2538,
  "\u2581Idioten": 2539,
  "hn": 2540,
  "\u2581Tommy": 2541,
  "\u2581holt": 2542,
  "\u2581Bereit": 2543,
  "\u2581ungef\u00e4hr": 2544,
  "j": 2545,
  "\u2581daraus": 2546,
  "\u2581Arme": 2547,
  "\u2581K\u00f6nigs": 2548,
  "\u2581erschie\u00dfen": 2549,
  "\u2581vollkommen": 2550,
  "\u2581Madame": 2551,
  "\u2581USA": 2552,
  "\u2581la\u00df": 2553,
  "\u2581sch\u00f6ner": 2554,
  "\u258111": 2555,
  "\u2581Gro\u00dfartig": 2556,
  "\u2581Wesen": 2557,
  "\u2581Flasche": 2558,
  "\u2581solltet": 2559,
  "ard": 2560,
  "\u2581Sarah": 2561,
  "\u2581letztes": 2562,
  "gt": 2563,
  "\u2581Reihe": 2564,
  "\u2581ergeben": 2565,
  "ert": 2566,
  "ier": 2567,
  "\u2581Gift": 2568,
  "\u2581Beeil": 2569,
  "\u2581Einige": 2570,
  "\u2581Held": 2571,
  "\u2581Antworten": 2572,
  "\u2581Gef\u00e4llt": 2573,
  "gel": 2574,
  "\u2581m\u00f6chtest": 2575,
  "\u2581woher": 2576,
  "\u2581\u00e4hnlich": 2577,
  "\u2581Big": 2578,
  "\u2581Suche": 2579,
  "\u2581Lehrer": 2580,
  "\u2581Zeitpunkt": 2581,
  "ug": 2582,
  "\u2581irgendwelche": 2583,
  "\u2581fassen": 2584,
  "\u2581Grenze": 2585,
  "fi": 2586,
  "\u2581Darauf": 2587,
  "\u2581Niemals": 2588,
  "\u2581hasst": 2589,
  "\u2581beginnt": 2590,
  "ed": 2591,
  "\u2581Louis": 2592,
  "\u2581Paar": 2593,
  "\u2581nachgedacht": 2594,
  "\u2581beenden": 2595,
  "\u2581verfolgt": 2596,
  "\u258160": 2597,
  "\u2581Rock": 2598,
  "\u2581fiel": 2599,
  "\u2581schafft": 2600,
  "\u2581Deal": 2601,
  "per": 2602,
  "\u2581dringend": 2603,
  "\u2581willkommen": 2604,
  "\u2581oh": 2605,
  "\u2581Schlange": 2606,
  "\u2581DER": 2607,
  "\u2581Hintern": 2608,
  "\u2581Keller": 2609,
  "\u2581fragt": 2610,
  "ant": 2611,
  "\u2581Schauen": 2612,
  "\u2581Tanz": 2613,
  "dienst": 2614,
  "\u2581Smith": 2615,
  "\u2581z": 2616,
  "\u2581Not": 2617,
  "eln": 2618,
  "\u2581Zustand": 2619,
  "\u2044": 2620,
  "\u2581Pause": 2621,
  "\u2581Schuss": 2622,
  "\u2581gefeuert": 2623,
  "\u2581verboten": 2624,
  "\u2581bessere": 2625,
  "\u2581Sch\u00e4tzchen": 2626,
  "\u2581Ehemann": 2627,
  "\u2581Obwohl": 2628,
  "\u2581gaben": 2629,
  "\u2581Wof\u00fcr": 2630,
  "vor": 2631,
  "\u2581Pistole": 2632,
  "\u2581soweit": 2633,
  "nis": 2634,
  "est": 2635,
  "\u2581freue": 2636,
  "\u2581Bomben": 2637,
  "\u2581Lyndon": 2638,
  "\u2581danken": 2639,
  "\u2581Barmherzigkeit": 2640,
  "\u2581Strom": 2641,
  "\u2581Planeten": 2642,
  "\u2581Ritter": 2643,
  "\u2581geschieht": 2644,
  "\u2581Jonathan": 2645,
  "\u2581Theater": 2646,
  "\u2581sowas": 2647,
  "\u2581Wetter": 2648,
  "\u2581fair": 2649,
  "\u2581Leichen": 2650,
  "\u2581gilt": 2651,
  "\u2581Prinz": 2652,
  "\u2581Wisst": 2653,
  "\u2581Besitz": 2654,
  "\u2581Beweg": 2655,
  "\u2581Dan": 2656,
  "\u2581bekommst": 2657,
  "\u2581brauchte": 2658,
  "\u2581Eddie": 2659,
  "nd": 2660,
  "\u2581Staaten": 2661,
  "\u2581Untertitel": 2662,
  "\u2581bringst": 2663,
  "\u2581Mum": 2664,
  "\u2581Mitte": 2665,
  "\u2581Versuchen": 2666,
  "gegangen": 2667,
  "\u2581Gewehr": 2668,
  "\u2581g": 2669,
  "\u2581Sport": 2670,
  "\u2581Fahrer": 2671,
  "\u2581Gr\u00f6\u00dfe": 2672,
  "\u2581Knie": 2673,
  "\u2581gewusst": 2674,
  "\u2581Werke": 2675,
  "stellen": 2676,
  "\u2581gemeint": 2677,
  "\u2581sch\u00f6nes": 2678,
  "\u2581Schick": 2679,
  "\u2581Richtige": 2680,
  "plan": 2681,
  "\u2581Daten": 2682,
  "\u2581Leider": 2683,
  "\u2581Scherz": 2684,
  "\u25811,": 2685,
  "\u2581solchen": 2686,
  "\u2581Jedenfalls": 2687,
  "\u2581Kriegs": 2688,
  "\u2581Acht": 2689,
  "\u2581Urlaub": 2690,
  "\u2581Wusste": 2691,
  "\u2581Bauch": 2692,
  "\u2581gezeigt": 2693,
  "\u2581singen": 2694,
  "\u2581z\u00e4hlt": 2695,
  "\u2581zeige": 2696,
  "\u2581geplant": 2697,
  "elt": 2698,
  "\u2581Wal": 2699,
  "\u2581g\u00e4be": 2700,
  "\u2581sch\u00e4tzen": 2701,
  "wo": 2702,
  "\u25812,": 2703,
  "\u2581Panik": 2704,
  "\u2581warm": 2705,
  "\u2581jagen": 2706,
  "op": 2707,
  "\u2581Handy": 2708,
  "\u2581\u00fcberlegen": 2709,
  "\u2581Rein": 2710,
  "\u2581Thema": 2711,
  "\u2581angetan": 2712,
  "\u2581eigenes": 2713,
  "\u2581krieg": 2714,
  "\u2581langweilig": 2715,
  "\u2581Termin": 2716,
  "\u2581schickt": 2717,
  "ru": 2718,
  "\u2581Sturm": 2719,
  "\u2581manche": 2720,
  "\u2581Bi": 2721,
  "\u2581Feinde": 2722,
  "co": 2723,
  "\u2581Gentlemen": 2724,
  "\u2581Tyrell": 2725,
  "\u2581Falle": 2726,
  "\u2581Erfahrung": 2727,
  "\u2581Medizin": 2728,
  "ni": 2729,
  "\u2581Auferstehung": 2730,
  "\u2581Feld": 2731,
  "\u2581reichen": 2732,
  "tes": 2733,
  "iz": 2734,
  "\u2581College": 2735,
  "\u2581Pflicht": 2736,
  "\u2581Ko": 2737,
  "\u2581Worauf": 2738,
  "\u2581stelle": 2739,
  "\u2581Gerechtigkeit": 2740,
  "UNG": 2741,
  "wir": 2742,
  "\u00e4r": 2743,
  "\u2581Flughafen": 2744,
  "\u2581bisher": 2745,
  "\u2581\u00e4hm": 2746,
  "\u2581Ohr": 2747,
  "\u2581Flucht": 2748,
  "\u2581L\u00f6sung": 2749,
  "\u2581Opa": 2750,
  "\u2581Autos": 2751,
  "\u2581f\u00fchlst": 2752,
  "ag": 2753,
  "\u2581Pl\u00e4ne": 2754,
  "\u2581Zuerst": 2755,
  "\u2581abge": 2756,
  "\u2581erw\u00e4hnt": 2757,
  "\u2581nachdenken": 2758,
  "\u2581schl\u00e4ft": 2759,
  "\u2581Satan": 2760,
  "\u2581Mag": 2761,
  "\u2581hinterlassen": 2762,
  "\u2581Sa": 2763,
  "tag": 2764,
  "\u2581Verschwinde": 2765,
  "das": 2766,
  "ei": 2767,
  "\u2581Bl\u00f6dsinn": 2768,
  "\u2581Black": 2769,
  "\u2581Frag": 2770,
  "haft": 2771,
  "\u2581rechten": 2772,
  "\u2581G\u00e4ste": 2773,
  "\u2581taten": 2774,
  "\u2581Jede": 2775,
  "\u2581Karriere": 2776,
  "\u2581derjenige": 2777,
  "\u2581Bald": 2778,
  "\u2581Oberst": 2779,
  "\u2581vermutlich": 2780,
  "\u2581Zauber": 2781,
  "\u2581schlau": 2782,
  "\u2581versteht": 2783,
  "\u2581Englisch": 2784,
  "\u2581Unglaublich": 2785,
  "\u2581gingen": 2786,
  "\u2581schlechter": 2787,
  "\u2581freundlich": 2788,
  "\u2581aufpassen": 2789,
  "lichen": 2790,
  "\u2581Befehle": 2791,
  "\u2581Holen": 2792,
  "\u2581Trick": 2793,
  "\u2581Vergessen": 2794,
  "\u2581Welcher": 2795,
  "\u2581gew\u00e4hrt": 2796,
  "\u2581w": 2797,
  "\u2581Rache": 2798,
  "\u2581s": 2799,
  "\u2581Schlacht": 2800,
  "\u2581Projekt": 2801,
  "\u2581Bauer": 2802,
  "TU": 2803,
  "\u2581offensichtlich": 2804,
  "ina": 2805,
  "\u2581nachts": 2806,
  "\u2581B\u00fcrgermeister": 2807,
  "\u2581Genie": 2808,
  "\u2581mitkommen": 2809,
  "wie": 2810,
  "\u2581unschuldig": 2811,
  "\u2581Blitz": 2812,
  "\u2581erinnert": 2813,
  "\u2581Gestern": 2814,
  "\u2581Fr\u00fcher": 2815,
  "\u2581leiden": 2816,
  "\u2581Su": 2817,
  "zug": 2818,
  "\u2581Mac": 2819,
  "\u2581Selbstmord": 2820,
  "\u2581M\u00e4dels": 2821,
  "ft": 2822,
  "ntweder": 2823,
  "\u2581Andy": 2824,
  "\u2581Dazu": 2825,
  "\u2581Ober": 2826,
  "\u2581handeln": 2827,
  "\u2581kontrollieren": 2828,
  "ziehen": 2829,
  "\u2581Geschichten": 2830,
  "\u2581Dreh": 2831,
  "\u2581dorthin": 2832,
  "\u2581feiern": 2833,
  "\u2581\u00fcberzeugt": 2834,
  "\u2581wart": 2835,
  "\u2581jedenfalls": 2836,
  "\u2581sprichst": 2837,
  "\u2581Schweine": 2838,
  "\u2581einge": 2839,
  "\u2581peinlich": 2840,
  "\u2581verbringen": 2841,
  "tz": 2842,
  "\u2581Kunden": 2843,
  "\u2581Star": 2844,
  "\u2581Wert": 2845,
  "\u2581entkommen": 2846,
  "\u2581konntest": 2847,
  "\u2581Vincent": 2848,
  "\u2581Anna": 2849,
  "\u2581Lee": 2850,
  "fr": 2851,
  "\u2581Trottel": 2852,
  "\u2581Wunsch": 2853,
  "\u2581kosten": 2854,
  "\u2581Brot": 2855,
  "\u2581Jagd": 2856,
  "\u2581zweiten": 2857,
  "Wo": 2858,
  "\u2581Roboter": 2859,
  "\u2581deutlich": 2860,
  "\u00fcber": 2861,
  "\u2581Stoff": 2862,
  "\u2581Werde": 2863,
  "\u2581schwach": 2864,
  "\u2581Gern": 2865,
  "\u2581junger": 2866,
  "\u2581km": 2867,
  "\u2581Ne": 2868,
  "\u258113": 2869,
  "\u2581Penny": 2870,
  "\u2581Fang": 2871,
  "\u2581Osten": 2872,
  "ick": 2873,
  "\u2581jenem": 2874,
  "\u2581treten": 2875,
  "\u2581Chris": 2876,
  "\u2581Priester": 2877,
  "\u2581Russen": 2878,
  "machen": 2879,
  "\u2581Runde": 2880,
  "\u2581Farbe": 2881,
  "\u2581Cole": 2882,
  "\u2581schl\u00e4gt": 2883,
  "lassen": 2884,
  "\u2581l\u00fcgen": 2885,
  "ssen": 2886,
  "\u2581Schande": 2887,
  "\u2581Zufall": 2888,
  "\u2581diesmal": 2889,
  "tisch": 2890,
  "\u2581Bleibt": 2891,
  "\u2581Verstehen": 2892,
  "\u2581Belohnung": 2893,
  "\u2581Erinnerung": 2894,
  "geben": 2895,
  "\u2581Freitag": 2896,
  "\u2581Taten": 2897,
  "\u2581besondere": 2898,
  "\u2581besprechen": 2899,
  "\u2581liebte": 2900,
  "\u2581Landes": 2901,
  "form": 2902,
  "\u2581Co": 2903,
  "\u2581Her": 2904,
  "\u2581Schul": 2905,
  "\u2581lch": 2906,
  "So": 2907,
  "\u2581Helden": 2908,
  "\u2581Wilson": 2909,
  "\u2581Street": 2910,
  "\u2581\u00dcbersetzung": 2911,
  "ki": 2912,
  "\u2581Neuigkeiten": 2913,
  "\u2581Stuhl": 2914,
  "bo": 2915,
  "\u2581500": 2916,
  "\u2581behandeln": 2917,
  "\u2581Gast": 2918,
  "\u2581Dingen": 2919,
  "\u2581gelogen": 2920,
  "\u2581B\u00fcrger": 2921,
  "\u2581Guter": 2922,
  "\u2581Rot": 2923,
  "\u2581steh": 2924,
  "ator": 2925,
  "sp": 2926,
  "\u2581leitet": 2927,
  "\u2581Anteil": 2928,
  "\u2581M\u00fcll": 2929,
  "leben": 2930,
  "no": 2931,
  "sche": 2932,
  "\u2581Affen": 2933,
  "\u2581Leitung": 2934,
  "verst\u00e4ndlich": 2935,
  "\u2581Laut": 2936,
  "\u2581umsonst": 2937,
  "\u2581Gesch\u00e4fte": 2938,
  "\u2581Houston": 2939,
  "\u2581Akte": 2940,
  "\u2581au\u00dferhalb": 2941,
  "\u2581wor\u00fcber": 2942,
  "\u2581Gnaden": 2943,
  "\u2581Gro\u00dfvater": 2944,
  "\u2581hoffen": 2945,
  "\u2581Scott": 2946,
  "\u2581S\u00fcden": 2947,
  "\u2581Sendung": 2948,
  "\u2581Wurde": 2949,
  "\u2581Grab": 2950,
  "\u2581merken": 2951,
  "ps": 2952,
  "\u2581Folge": 2953,
  "\u2581Stehen": 2954,
  "ierung": 2955,
  "\u2581Ei": 2956,
  "\u2581Ermahnung": 2957,
  "\u2581eingeladen": 2958,
  "\u2581he": 2959,
  "\u2581geschossen": 2960,
  "\u2581Tr\u00e4ume": 2961,
  "\u2581wichtiger": 2962,
  "\u2581Marty": 2963,
  "\u2581President": 2964,
  "\u2581Religion": 2965,
  "\u2581Deckung": 2966,
  "\u2581Sch\u00f6nheit": 2967,
  "\u2581geglaubt": 2968,
  "\u2581Danach": 2969,
  "\u2581Krankheit": 2970,
  "\u2581X": 2971,
  "\u2581o": 2972,
  "\u2581rote": 2973,
  "\u2581entlassen": 2974,
  "je": 2975,
  "\u2581Frankreich": 2976,
  "\u2581Kleider": 2977,
  "\u2581vertraut": 2978,
  "tel": 2979,
  "\u2581Ideen": 2980,
  "\u2581Vorstellung": 2981,
  "\u2581wu\u00dfte": 2982,
  "\u2581Funk": 2983,
  "\u2581Klo": 2984,
  "\u2581Rose": 2985,
  "\u2581V\u00f6gel": 2986,
  "\u2581welchem": 2987,
  "it\u00e4t": 2988,
  "\u2581vergeben": 2989,
  "\u2581Jedes": 2990,
  "\u2581Prinzessin": 2991,
  "\u2581entdeckt": 2992,
  "\u2581gelaufen": 2993,
  "\u2581Sp": 2994,
  "\u2581freut": 2995,
  "\u2581Ya": 2996,
  "Wer": 2997,
  "\u2581stoppen": 2998,
  "\u2581Heimat": 2999,
  "\u2581Stich": 3000,
  "\u2581mochte": 3001,
  ":)": 3002,
  "\u2581Restaurant": 3003,
  "\u2581versuchte": 3004,
  "\u2581zieh": 3005,
  "\u2581begann": 3006,
  "\u2581Nett": 3007,
  "\u2581gesamte": 3008,
  "\u2581Sch\u00fcler": 3009,
  "\u2581klug": 3010,
  "\u2581Freut": 3011,
  "\u2581Abteilung": 3012,
  "\u2581Po": 3013,
  "\u2581ehe": 3014,
  "\u2581wurdest": 3015,
  "\u2581Maschinen": 3016,
  "\u2581abzu": 3017,
  "\u2581hervor": 3018,
  "\u2581blieb": 3019,
  "\u2581befinden": 3020,
  "\u2581erwachsen": 3021,
  "\u2581Lied": 3022,
  "\u2581f\u00e4ngt": 3023,
  "\u2581vorbereitet": 3024,
  "\u2581erz\u00e4hlte": 3025,
  "ball": 3026,
  "\u2581Min": 3027,
  "rie": 3028,
  "LE": 3029,
  "\u2581Fred": 3030,
  "\u2581Seiner": 3031,
  "\u2581ausge": 3032,
  "\u2581streiten": 3033,
  "\u2581versuch": 3034,
  "\u25816.": 3035,
  "\u2581Gebt": 3036,
  "\u2581Kommando": 3037,
  "voll": 3038,
  "\u2581Notfall": 3039,
  "\u2581verliert": 3040,
  "ino": 3041,
  "gekommen": 3042,
  "\u2581Ga": 3043,
  "\u2581Kon": 3044,
  "\u2581verhindern": 3045,
  "\u2581geblieben": 3046,
  "\u2581Ruhig": 3047,
  "\u2581Schloss": 3048,
  "\u2581Carl": 3049,
  "grund": 3050,
  "\u2581satt": 3051,
  "\u2581wahre": 3052,
  "\u2581aufgeben": 3053,
  "\u2581wahnsinnig": 3054,
  "\u2581K\u00e4se": 3055,
  "\u2581Davon": 3056,
  "als": 3057,
  "\u2581Killer": 3058,
  "by": 3059,
  "\u2581Hure": 3060,
  "rei": 3061,
  "\u2581Bastard": 3062,
  "\u2581Staat": 3063,
  "\u2581erz\u00e4hle": 3064,
  "\u2581pass": 3065,
  "\u2581vorn": 3066,
  "\u2581Solange": 3067,
  "we": 3068,
  "\u2581Leber": 3069,
  "\u2581gr\u00f6\u00dften": 3070,
  "\u2581DIE": 3071,
  "\u2581Pro": 3072,
  "\u2581Papier": 3073,
  "\u2581Urteil": 3074,
  "\u2581e": 3075,
  "\u2581f\u00fcrchten": 3076,
  "\u2581Sich": 3077,
  "\u2581Chicago": 3078,
  "\u2581getrunken": 3079,
  "auch": 3080,
  "\u2581Wolf": 3081,
  "\u2581steigen": 3082,
  "if": 3083,
  "\u2581Ba": 3084,
  "\u2581Bruce": 3085,
  "\u2581stehlen": 3086,
  "\u2581Erinnerungen": 3087,
  "\u2581einiges": 3088,
  "\u2581gl\u00e4ubig": 3089,
  "\u2581B\u00f6se": 3090,
  "sel": 3091,
  "\u2581Aufmerksamkeit": 3092,
  "\u2581Tatsache": 3093,
  "\u25815.": 3094,
  "\u2581Beruf": 3095,
  "\u2581Daniel": 3096,
  "\u2581angeht": 3097,
  "\u2581Darin": 3098,
  "\u2581Genug": 3099,
  "\u2581Nigger": 3100,
  "\u2581Voll": 3101,
  "\u2581nehm": 3102,
  "\u2581st\u00f6ren": 3103,
  "\u2581erster": 3104,
  "\u2581Hei\u00df": 3105,
  "erei": 3106,
  "isten": 3107,
  "\u2581auszu": 3108,
  "\u2581n\u00e4chstes": 3109,
  "\u2581Fick": 3110,
  "\u2581Wege": 3111,
  "\u2581Holz": 3112,
  "\u2581Dick": 3113,
  "\u2581Zunge": 3114,
  "\u2581Z\u00e4hne": 3115,
  "\u2581Oma": 3116,
  "\u2581zumindest": 3117,
  "\u2581Furcht": 3118,
  "\u2581Gras": 3119,
  "\u2581gef\u00fchrt": 3120,
  "\u2581langer": 3121,
  "St": 3122,
  "wagen": 3123,
  "\u2581IN": 3124,
  "\u2581Armen": 3125,
  "\u2581Verr\u00e4ter": 3126,
  "\u2581Programm": 3127,
  "\u2581willen": 3128,
  "\u2581Folgen": 3129,
  "\u2581Schnee": 3130,
  "\u2581annehmen": 3131,
  "Da": 3132,
  "\u2581ber\u00fchmt": 3133,
  "\u2581Kalifornien": 3134,
  "\u2581bat": 3135,
  "\u2581einigen": 3136,
  "\u2581z\u00e4hlen": 3137,
  "\u2581Euren": 3138,
  "\u2581scharf": 3139,
  "\u2581Sprache": 3140,
  "\u2581Besonderes": 3141,
  "\u2581beendet": 3142,
  "cht": 3143,
  "\u2581bemerkt": 3144,
  "\u2581dunkel": 3145,
  "\u2581geschah": 3146,
  "\u2581selten": 3147,
  "bt": 3148,
  "\u2581Is": 3149,
  "\u2581N\u00e4chste": 3150,
  "\u2581verdammter": 3151,
  "\u2581versteh": 3152,
  "wasser": 3153,
  "za": 3154,
  "\u2581lhrem": 3155,
  "hin": 3156,
  "\u2581Steuer": 3157,
  "\u2581unbe": 3158,
  "nehmen": 3159,
  "\u2581Jeff": 3160,
  "\u2581morgens": 3161,
  "\u2581Locke": 3162,
  "\u2581Tunnel": 3163,
  "\u2581Steve": 3164,
  "\u2581Alkohol": 3165,
  "\u2581klappt": 3166,
  "\u2581Berge": 3167,
  "\u2581Bobby": 3168,
  "\u2581Madam": 3169,
  "\u2581verfolgen": 3170,
  "\u2581richten": 3171,
  "\u2581gebraucht": 3172,
  "\u2581k\u00fcssen": 3173,
  "\u2581sa\u00df": 3174,
  "\u2581Ganze": 3175,
  "\u2581irgend": 3176,
  "\u2581Kurz": 3177,
  "f\u00fcr": 3178,
  "\u2581Sklaven": 3179,
  "\u2581Zahlen": 3180,
  "\u2581Rechte": 3181,
  "\u2581Wollte": 3182,
  "\u2581Dsch": 3183,
  "RE": 3184,
  "\u2581Vorw\u00e4rts": 3185,
  "\u2581fuhr": 3186,
  "\u2581Cool": 3187,
  "\u258145": 3188,
  "\u2581Direktor": 3189,
  "\u2581\u00c4rzte": 3190,
  "SCH": 3191,
  "tur": 3192,
  "zer": 3193,
  "\u2581Gi": 3194,
  "\u2581Partei": 3195,
  "\u2581Story": 3196,
  "\u2581Wohn": 3197,
  "stein": 3198,
  "\u2581Europa": 3199,
  "\u2581weinen": 3200,
  "\u2581Mexiko": 3201,
  "\u2581lhrer": 3202,
  "\u2581Welches": 3203,
  "l\u00e4": 3204,
  "\u2581wenige": 3205,
  "m\u00fctig": 3206,
  "\u2581welches": 3207,
  "rn": 3208,
  "\u2581sollt": 3209,
  "\u2581Zahl": 3210,
  "\u2581landen": 3211,
  "buch": 3212,
  "\u2581Verdammte": 3213,
  "\u2581William": 3214,
  "\u2581Kino": 3215,
  "\u2581Patient": 3216,
  "\u2581bester": 3217,
  "\u2581weiteren": 3218,
  "\u2581Mister": 3219,
  "\u2581is": 3220,
  "\u2581Vom": 3221,
  "\u2581\u00e4u\u00dferst": 3222,
  "\u2581auseinander": 3223,
  "\u2581bestellt": 3224,
  "\u2581gezogen": 3225,
  "ff": 3226,
  "tion": 3227,
  "IN": 3228,
  "fall": 3229,
  "\u2581Hemd": 3230,
  "\u2581Mauer": 3231,
  "\u2581Besseres": 3232,
  "cH": 3233,
  "\u2581\u00fcberlebt": 3234,
  "\u2581H\u00e4user": 3235,
  "\u2581GE": 3236,
  "\u2581schreibt": 3237,
  "heim": 3238,
  "\u2581hassen": 3239,
  "\u2581Date": 3240,
  "\u2581Angeles": 3241,
  "feld": 3242,
  "\u2581Such": 3243,
  "\u2581verursacht": 3244,
  "\u2581zur\u00fcckkommen": 3245,
  "\u2581Unterst\u00fctzung": 3246,
  "\u2581Verstehe": 3247,
  "\u2581abholen": 3248,
  "\u2581wof\u00fcr": 3249,
  "\u2581zur\u00fcckkehren": 3250,
  "\u2581besitzt": 3251,
  "\u2581Gro\u00dfe": 3252,
  "\u2581Schlafzimmer": 3253,
  "platz": 3254,
  "\u2581Reich": 3255,
  "\u2581Zeigen": 3256,
  "\u2581Stellung": 3257,
  "\u2581Dean": 3258,
  "\u2581Trink": 3259,
  "\u2581erinnerst": 3260,
  "\u2581geheiratet": 3261,
  "\u2581Alte": 3262,
  "\u2581sterbe": 3263,
  "\u2581Dave": 3264,
  "\u2581Rechnung": 3265,
  "\u2581verwirrt": 3266,
  "\u2581w\u00fcnsche": 3267,
  "mpf": 3268,
  "\u2581Satelliten": 3269,
  "\u2581womit": 3270,
  "\u2581Sieben": 3271,
  "\u2581Tats\u00e4chlich": 3272,
  "\u2581Wi": 3273,
  "\u2581ausgehen": 3274,
  "\u2581isst": 3275,
  "\u2581vorhin": 3276,
  "nt": 3277,
  "\u2581Nr": 3278,
  "\u2581Aussage": 3279,
  "ierte": 3280,
  "\u2581Erkl\u00e4rung": 3281,
  "\u2581f\u00e4hrst": 3282,
  "\u2581knapp": 3283,
  "\u2581Alarm": 3284,
  "\u2581befindet": 3285,
  "\u2581fliegt": 3286,
  "\u2581geklaut": 3287,
  "tt": 3288,
  "\u2581passen": 3289,
  "\u2581schaffst": 3290,
  "\u2581geworfen": 3291,
  "\u2581reinkommen": 3292,
  "\u2581Felix": 3293,
  "\u2581Officer": 3294,
  "\u2581einsam": 3295,
  "\u2581Absolut": 3296,
  "\u2581Gewicht": 3297,
  "\u2581setz": 3298,
  "\u2581nackt": 3299,
  "\u2581deutsche": 3300,
  "\u2581wohne": 3301,
  "\u2581Diesmal": 3302,
  "\u2581Krieger": 3303,
  "\u2581erf\u00fcllt": 3304,
  "war": 3305,
  "\u2581\u00fcbrigens": 3306,
  "bringen": 3307,
  "\u2581Legen": 3308,
  "\u2581Thomas": 3309,
  "GE": 3310,
  "sam": 3311,
  "\u2581Beeilung": 3312,
  "del": 3313,
  "\u2581gewinnt": 3314,
  "\u2581Nee": 3315,
  "\u2581Schade": 3316,
  "fa": 3317,
  "sh": 3318,
  "\u2581Panzer": 3319,
  "\u2581legt": 3320,
  "bei": 3321,
  "\u2581Josh": 3322,
  "\u2581daher": 3323,
  "\u2581esse": 3324,
  "\u2581fehlen": 3325,
  "\u2581schicke": 3326,
  "OR": 3327,
  "uf": 3328,
  "\u2581Sonntag": 3329,
  "\u2581einfacher": 3330,
  "\u2581Menschheit": 3331,
  "\u2581Ziehen": 3332,
  "\u2581ne": 3333,
  "\u2581la": 3334,
  "\u2581begegnet": 3335,
  "\u2581Geheimnisse": 3336,
  "bild": 3337,
  "\u2581Prozent": 3338,
  "\u2581gegenseitig": 3339,
  "\u2581mindestens": 3340,
  "\u2581m\u00f6ge": 3341,
  "\u2581streng": 3342,
  "\u2581schief": 3343,
  "\u2581T\u00fcren": 3344,
  "geht": 3345,
  "\u2581Stan": 3346,
  "\u2581Zigaretten": 3347,
  "\u2581erfolgreich": 3348,
  "\u2581zog": 3349,
  "\u2581Jeden": 3350,
  "\u2581schuld": 3351,
  "\u2581Nord": 3352,
  "mehr": 3353,
  "\u2581Dieb": 3354,
  "\u2581Gro\u00df": 3355,
  "\u2581Titel": 3356,
  "\u2581W\u00fcste": 3357,
  "\u2581russische": 3358,
  "30": 3359,
  "\u2581Halte": 3360,
  "\u2581Kreuz": 3361,
  "\u2581wachsen": 3362,
  "\u2581\u00fcberlegt": 3363,
  "2": 3364,
  "\u2581Juden": 3365,
  "punkt": 3366,
  "\u2581atmen": 3367,
  "\u2581Vegas": 3368,
  "\u2581t\u00f6te": 3369,
  "\u2581Paradies": 3370,
  "\u2581Gleiche": 3371,
  "\u2581Kuchen": 3372,
  "\u2581erkannt": 3373,
  "\u2581Entschuldigt": 3374,
  "\u2581Halb": 3375,
  "\u2581King": 3376,
  "\u2581denk": 3377,
  "\u2581echter": 3378,
  "\u2581Heilige": 3379,
  "\u2581Gerade": 3380,
  "\u2581Mantel": 3381,
  "\u2581Langsam": 3382,
  "\u2581Tote": 3383,
  "\u2581gesetzt": 3384,
  "\u2581Talent": 3385,
  "\u2581Untersuchung": 3386,
  "ek": 3387,
  "\u2581spiele": 3388,
  "\u2581Verbrecher": 3389,
  "\u2581bieten": 3390,
  "\u2581geheim": 3391,
  "\u2581Virus": 3392,
  "\u2581angegriffen": 3393,
  "\u2581beobachtet": 3394,
  "\u2581geraten": 3395,
  "\u2581zweimal": 3396,
  "\u2581Diamanten": 3397,
  "\u2581Kuss": 3398,
  "wahr": 3399,
  "\u2581wirkt": 3400,
  "\u2581wusstest": 3401,
  "\u2581\u00e4ndert": 3402,
  "fallen": 3403,
  "\u2581geh\u00f6rte": 3404,
  "\u2581Kleidung": 3405,
  "\u2581l\u00f6sen": 3406,
  "tin": 3407,
  "\u2581Beide": 3408,
  "\u2581Mar": 3409,
  "\u2581Endlich": 3410,
  "\u2581B\u00fchne": 3411,
  "\u2581f\u00fchlte": 3412,
  "\u2581schien": 3413,
  "\u2581fragst": 3414,
  "\u2581wei\u00dfen": 3415,
  "\u2581Sack": 3416,
  "\u2581Trotzdem": 3417,
  "\u2581Anf\u00fchrer": 3418,
  "\u2581Spuren": 3419,
  "\u2581Zweck": 3420,
  "\u2581Arbeits": 3421,
  "\u2581M\u00fche": 3422,
  "EL": 3423,
  "gleich": 3424,
  "\u2581Berlin": 3425,
  "\u2581hilf": 3426,
  "\u2581hingehen": 3427,
  "\u2581CIA": 3428,
  "\u2581Jerry": 3429,
  "\u2581Magen": 3430,
  "\u2581riecht": 3431,
  "\u2581schade": 3432,
  "\u2581schreien": 3433,
  "Musik": 3434,
  "Oh": 3435,
  "\u2581Braut": 3436,
  "\u2581Motor": 3437,
  "\u2581dreht": 3438,
  "\u2581versch": 3439,
  "\u2581Cousin": 3440,
  "\u2581Verlust": 3441,
  "\u2581Bereich": 3442,
  "\u2581Carter": 3443,
  "\u2581Hinter": 3444,
  "\u2581wozu": 3445,
  "rat": 3446,
  "\u2581Francisco": 3447,
  "\u2581eh": 3448,
  "\u2581selben": 3449,
  "\u2581weiterhin": 3450,
  "recht": 3451,
  "\u2581Karen": 3452,
  "\u2581Schauspieler": 3453,
  "\u2581lebte": 3454,
  "\u2581schlie\u00dflich": 3455,
  "\u2581verschwinde": 3456,
  "\u2581Spiegel": 3457,
  "\u2581Verteidigung": 3458,
  "\u2581Aha": 3459,
  "\u2581Schaff": 3460,
  "\u2581bereitet": 3461,
  "jo": 3462,
  "\u2581gen\u00fcgt": 3463,
  "\u2581schaffe": 3464,
  "\u2581schreit": 3465,
  "druck": 3466,
  "\u2581Trinken": 3467,
  "\u2581gebrauchen": 3468,
  "\u2581locker": 3469,
  "bu": 3470,
  "\u2581Hoheit": 3471,
  "\u2581Linda": 3472,
  "\u2581Steine": 3473,
  "\u2581Wem": 3474,
  "\u2581Arthur": 3475,
  "\u2581dicht": 3476,
  "\u2581Griff": 3477,
  "\u2581Hart": 3478,
  "\u2581Zucker": 3479,
  "\u2581clever": 3480,
  "\u2581ziehe": 3481,
  "\u2581Prozess": 3482,
  "min": 3483,
  "\u2581Gesichter": 3484,
  "\u2581Assa": 3485,
  "\u2581Herrgott": 3486,
  "kommt": 3487,
  "rin": 3488,
  "\u2581Information": 3489,
  "ment": 3490,
  "\u2581w\u00fcrdet": 3491,
  "cken": 3492,
  "tet": 3493,
  "\u2581To": 3494,
  "\u2581Freundschaft": 3495,
  "\u2581Wa": 3496,
  "\u2581Wunderbar": 3497,
  "\u2581Raketen": 3498,
  "\u2581Troja": 3499,
  "Ma": 3500,
  "\u2581Schrank": 3501,
  "\u2581Toilette": 3502,
  "\u2581schwarzen": 3503,
  "ey": 3504,
  "\u2581\u00fcberzeugen": 3505,
  "\u2581Wach": 3506,
  "\u2581Zeuge": 3507,
  "\u2581\u00d6l": 3508,
  "ti": 3509,
  "\u2581Chaos": 3510,
  "\u2581Con": 3511,
  "\u2581st\u00e4rker": 3512,
  "\u2581scheinen": 3513,
  "\u2581Absicht": 3514,
  "\u2581Kay": 3515,
  "\u2581N\u00e4chstes": 3516,
  "\u2581St\u00e4rke": 3517,
  "\u2581komplett": 3518,
  "\u2581Ma\u00df": 3519,
  "\u2581Mc": 3520,
  "\u2581Propheten": 3521,
  "\u2581Scheck": 3522,
  "\u2581Wachen": 3523,
  "\u2581\u00dcbersetz": 3524,
  "\u2581R\u00fcckkehr": 3525,
  "\u2581getrennt": 3526,
  "\u2581M\u00f6glichkeiten": 3527,
  "\u2581lebst": 3528,
  "\u2581schwere": 3529,
  "\u2581G\u00e4rten": 3530,
  "\u2581Lachen": 3531,
  "\u2581schlug": 3532,
  "schen": 3533,
  "\u2581Gebiet": 3534,
  "\u2581Harvey": 3535,
  "\u2581Regel": 3536,
  "\u2581geh\u00f6re": 3537,
  "\u2581fantastisch": 3538,
  "\u2581Pat": 3539,
  "\u2581Roy": 3540,
  "\u2581\u00e4lter": 3541,
  "ST": 3542,
  "ischer": 3543,
  "\u2581merkw\u00fcrdig": 3544,
  "\u2581schwimmen": 3545,
  "\u2581Hass": 3546,
  "\u2581Tode": 3547,
  "\u2581betrifft": 3548,
  "all": 3549,
  "\u2581Schulden": 3550,
  "off": 3551,
  "\u258180": 3552,
  "\u2581Leb": 3553,
  "\u2581Dabei": 3554,
  "\u2581Behandlung": 3555,
  "\u2581Chase": 3556,
  "\u2581Helfen": 3557,
  "\u2581entgegen": 3558,
  "\u2581existiert": 3559,
  "AT": 3560,
  "ckt": 3561,
  "ham": 3562,
  "\u2581Sprechen": 3563,
  "\u2581hell": 3564,
  "\u2581nachher": 3565,
  "\u2581aufstehen": 3566,
  "halten": 3567,
  "ot": 3568,
  "\u2581S\u00f6hne": 3569,
  "\u2581woanders": 3570,
  "\u2581Angel": 3571,
  "\u2581Irre": 3572,
  "\u2581V\u00e4ter": 3573,
  "\u2581Bedeutung": 3574,
  "\u2581Unterhaltung": 3575,
  "halb": 3576,
  "zeug": 3577,
  "\u2581Nu": 3578,
  "\u2581gefolgt": 3579,
  "ita": 3580,
  "shi": 3581,
  "\u2581Gefangenen": 3582,
  "\u2581zurecht": 3583,
  "\u2581ebenso": 3584,
  "\u2581300": 3585,
  "\u2581Fass": 3586,
  "\u2581Jean": 3587,
  "\u2581arme": 3588,
  "\u2581riskieren": 3589,
  "\u2581\u00fcberpr\u00fcfen": 3590,
  "AL": 3591,
  "OL": 3592,
  "pro": 3593,
  "\u2581vernichten": 3594,
  "l\u00fc": 3595,
  "\u2581b": 3596,
  "ker": 3597,
  "\u2581Adam": 3598,
  "\u2581Brille": 3599,
  "\u2581Mitglied": 3600,
  "\u2581nehmt": 3601,
  "\u2581vernichtet": 3602,
  "\u00e4t": 3603,
  "\u2581Fernseher": 3604,
  "\u2581Bulle": 3605,
  "\u2581Vorschlag": 3606,
  "\u2581Hof": 3607,
  "\u2581zulassen": 3608,
  "\u2581Mittag": 3609,
  "\u2581fahr": 3610,
  "\u2581Nachdem": 3611,
  "\u2581erlebt": 3612,
  "\u2581Schnauze": 3613,
  "\u2581VER": 3614,
  "\u2581brennt": 3615,
  "\u2581sp": 3616,
  "ins": 3617,
  "tor": 3618,
  "\u2581Gro\u00dfer": 3619,
  "\u2581best\u00e4tigt": 3620,
  "\u2581k\u00e4mpft": 3621,
  "\u2581trage": 3622,
  "\u2581t\u00f6tete": 3623,
  "\u2581betrieben": 3624,
  "\u2581Oscar": 3625,
  "\u2581anzu": 3626,
  "geleitet": 3627,
  "\u2581Stimmen": 3628,
  "\u2581Agenten": 3629,
  "\u2581schmeckt": 3630,
  "\u2581endet": 3631,
  "\u2581entweder": 3632,
  "\u2581Wei\u00dfe": 3633,
  "\u00f6r": 3634,
  "\u2581F\u00fchrung": 3635,
  "\u2581Baron": 3636,
  "\u2581Gemeinschaft": 3637,
  "\u2581Samstag": 3638,
  "\u2581trug": 3639,
  "mittel": 3640,
  "\u2581angenommen": 3641,
  "\u2581feuern": 3642,
  "\u2581trauen": 3643,
  "\u2581Sco": 3644,
  "\u2581sitze": 3645,
  "\u2581Herzlich": 3646,
  "\u2581Passen": 3647,
  "\u2581gewarnt": 3648,
  "\u2581Taschen": 3649,
  "\u2581bricht": 3650,
  "\u2581entf\u00fchrt": 3651,
  "and": 3652,
  "kopf": 3653,
  "\u2581Chi": 3654,
  "\u2581antworten": 3655,
  "\u2581ge\u00f6ffnet": 3656,
  "lichkeit": 3657,
  "\u2581Solche": 3658,
  "\u2581Spiele": 3659,
  "\u2581Truppen": 3660,
  "\u2581erlauben": 3661,
  "\u2581weitermachen": 3662,
  "ip": 3663,
  "\u2581S\u00fcnde": 3664,
  "ET": 3665,
  "\u2581gebt": 3666,
  "weit": 3667,
  "\u2581Irrtum": 3668,
  "\u2581Markt": 3669,
  "ven": 3670,
  "\u2581High": 3671,
  "\u2581Chloe": 3672,
  "\u2581beschissen": 3673,
  "\u2581fur": 3674,
  "\u2581trinke": 3675,
  "ys": 3676,
  "\u2581Deckard": 3677,
  "\u2581Erz\u00e4hlen": 3678,
  "\u2581Hurensohn": 3679,
  "\u2581Sara": 3680,
  "\u2581schlage": 3681,
  "qui": 3682,
  "schiff": 3683,
  "\u25813,": 3684,
  "\u25817.": 3685,
  "\u2581Brian": 3686,
  "\u2581Stern": 3687,
  "\u2581stehst": 3688,
  "\u2581Nadia": 3689,
  "\u2581angesehen": 3690,
  "\u2581Rad": 3691,
  "\u2581erschuf": 3692,
  "\u2581klasse": 3693,
  "Danke": 3694,
  "len": 3695,
  "\u2581Schwarze": 3696,
  "\u2581nannte": 3697,
  "\u2581nutzen": 3698,
  "\u2581zukommen": 3699,
  "\u2581Wei\u00dfen": 3700,
  "ult": 3701,
  "zt": 3702,
  "\u2581Ungl\u00fcck": 3703,
  "\u2581Verzeihen": 3704,
  "\u2581Zugang": 3705,
  "\u2581Thron": 3706,
  "\u2581c": 3707,
  "\u258122": 3708,
  "\u2581Besten": 3709,
  "\u2581Ri": 3710,
  "\u2581Schrei": 3711,
  "\u2581spazieren": 3712,
  "\u2581verlangen": 3713,
  "50": 3714,
  "\u2581Gro\u00dfmutter": 3715,
  "\u2581Moses": 3716,
  "\u2581gerufen": 3717,
  "\u2581gem\u00e4\u00df": 3718,
  "\u2581gew\u00e4hlt": 3719,
  "stehen": 3720,
  "\u2581fing": 3721,
  "ji": 3722,
  "\u2581Spielen": 3723,
  "\u2581schlechten": 3724,
  "\u258123": 3725,
  "\u2581Jess": 3726,
  "\u2581rauchen": 3727,
  "\u2581springen": 3728,
  "nicht": 3729,
  "stelle": 3730,
  "\u2581Cop": 3731,
  "\u2581Deck": 3732,
  "\u2581Kohle": 3733,
  "\u2581Phil": 3734,
  "fahrt": 3735,
  "ud": 3736,
  "\u2581hungrig": 3737,
  "\u2581wundervoll": 3738,
  "si": 3739,
  "\u2581Bart": 3740,
  "pos": 3741,
  "schein": 3742,
  "\u2581Miami": 3743,
  "\u2581Schmuck": 3744,
  "\u2581antun": 3745,
  "\u2581China": 3746,
  "\u2581Deutschen": 3747,
  "\u2581Hitler": 3748,
  "\u258190": 3749,
  "\u2581Ann": 3750,
  "ging": 3751,
  "\u2581ergibt": 3752,
  "\u2581lauter": 3753,
  "\u2581ver\u00e4ndern": 3754,
  "essen": 3755,
  "rlei": 3756,
  "denko": 3757,
  "\u2581Frist": 3758,
  "\u2581Leiter": 3759,
  "\u2581Penner": 3760,
  "\u2581schwarz": 3761,
  "\u2581Chief": 3762,
  "\u2581Drama": 3763,
  "\u2581irgendeine": 3764,
  "\u2581Anklage": 3765,
  "\u2581best\u00e4tigen": 3766,
  "\u2581ertragen": 3767,
  "ty": 3768,
  "\u2581geh\u00f6rst": 3769,
  "steht": 3770,
  "\u2581Cent": 3771,
  "\u2581Rick": 3772,
  "\u2581eingehen": 3773,
  "\u2581gehorcht": 3774,
  "\u2581entwickelt": 3775,
  "tal": 3776,
  "\u2581Filme": 3777,
  "\u2581erwarte": 3778,
  "TE": 3779,
  "ron": 3780,
  "\u2581Indianer": 3781,
  "\u2581Sau": 3782,
  "\u2581And": 3783,
  "\u2581Einheit": 3784,
  "\u2581Or": 3785,
  "\u00dc": 3786,
  "\u2581Allerdings": 3787,
  "\u2581Kollegen": 3788,
  "\u2581Schwestern": 3789,
  "\u2581wahren": 3790,
  "\u2581Einmal": 3791,
  "\u2581Kiste": 3792,
  "\u2581Pan": 3793,
  "\u2581l\u00fcgt": 3794,
  "nie": 3795,
  "scht": 3796,
  "\u2581Geschmack": 3797,
  "\u2581Pi": 3798,
  "\u2581anstatt": 3799,
  "laufen": 3800,
  "\u2581Leutnant": 3801,
  "\u2581R\u00fcck": 3802,
  "\u2581Ted": 3803,
  "\u2581entt\u00e4uscht": 3804,
  "\u2581genie\u00dfen": 3805,
  "\u2581starten": 3806,
  "\u2581Montag": 3807,
  "\u2581Sal": 3808,
  "\u2581ficken": 3809,
  "\u2581gewisse": 3810,
  "bau": 3811,
  "\u2581Bestimmt": 3812,
  "\u2581Jake": 3813,
  "\u2581Personen": 3814,
  "\u2581extra": 3815,
  "\u2581langen": 3816,
  "kel": 3817,
  "system": 3818,
  "\u2581Stolz": 3819,
  "\u2581zuh\u00f6ren": 3820,
  "dor": 3821,
  "tro": 3822,
  "\u2581Papiere": 3823,
  "\u2581Tre": 3824,
  "\u2581Zorn": 3825,
  "AN": 3826,
  "\u2581\u00f6ffentlich": 3827,
  "AR": 3828,
  "\u2581Verhalten": 3829,
  "\u2581harte": 3830,
  "\u2581Treppe": 3831,
  "\u2581UND": 3832,
  "cker": 3833,
  "\u2581einzu": 3834,
  "\u2581enden": 3835,
  "\u2581Ku": 3836,
  "\u2581Schiffe": 3837,
  "\u2581Hubschrauber": 3838,
  "\u2581Bestes": 3839,
  "\u2581Drehbuch": 3840,
  "\u2581Zeitungen": 3841,
  "igt": 3842,
  "\u2581Ryan": 3843,
  "\u2581sprachen": 3844,
  "\u2581warnen": 3845,
  "Warum": 3846,
  "\u2581Lincoln": 3847,
  "\u2581schrieb": 3848,
  "\u2581K\u00fcste": 3849,
  "t\u00fcr": 3850,
  "\u2581Bud": 3851,
  "\u2581DU": 3852,
  "\u2581erfreut": 3853,
  "\u2581eures": 3854,
  "\u2581vern\u00fcnftig": 3855,
  "arbeit": 3856,
  "mmer": 3857,
  "\u2581Emily": 3858,
  "\u2581Ford": 3859,
  "\u2581Pech": 3860,
  "\u2581Pete": 3861,
  "\u2581Schei\u00dfkerl": 3862,
  "\u2581Wor\u00fcber": 3863,
  "san": 3864,
  "\u2581Hosen": 3865,
  "\u2581Staub": 3866,
  "\u2581einst": 3867,
  "\u2581schwarze": 3868,
  "\u2581Punkte": 3869,
  "\u2581steigt": 3870,
  "Wenn": 3871,
  "\u2581behauptet": 3872,
  "\u2581h\u00f6her": 3873,
  "von": 3874,
  "weg": 3875,
  "\u2581Ad": 3876,
  "\u2581Matt": 3877,
  "\u2581Artikel": 3878,
  "\u2581Tal": 3879,
  "Man": 3880,
  "\u2581anhalten": 3881,
  "\u2581Helen": 3882,
  "ther": 3883,
  "\u2581nirgendwo": 3884,
  "00": 3885,
  "\u2581Fabrik": 3886,
  "\u2581durchs": 3887,
  "\u2581nette": 3888,
  "\u2581n\u00fctzt": 3889,
  "\u2581kehrt": 3890,
  "les": 3891,
  "\u2581Mm": 3892,
  "\u2581teuer": 3893,
  "ap": 3894,
  "stellung": 3895,
  "\u2581Gep\u00e4ck": 3896,
  "\u2581r": 3897,
  "lang": 3898,
  "\u2581Car": 3899,
  "\u2581Warnung": 3900,
  "\u2581praktisch": 3901,
  "\u2581w\u00e4hlen": 3902,
  "macht": 3903,
  "statt": 3904,
  "ere": 3905,
  "\u2581Albert": 3906,
  "\u2581gewollt": 3907,
  "\u2581Neue": 3908,
  "lose": 3909,
  "\u2581Beale": 3910,
  "uch": 3911,
  "\u2581S\u00fcnden": 3912,
  "\u2581Wache": 3913,
  "\u2581arbeitest": 3914,
  "\u2581erz\u00e4hl": 3915,
  "\u2581netter": 3916,
  "hr": 3917,
  "\u2581Akten": 3918,
  "\u2581Leon": 3919,
  "\u2581treffe": 3920,
  "art": 3921,
  "ett": 3922,
  "\u2581anstelle": 3923,
  "\u2581ln": 3924,
  "\u2581gekriegt": 3925,
  "\u2581rechte": 3926,
  "va": 3927,
  "\u2581Ju": 3928,
  "ort": 3929,
  "\u2581Leib": 3930,
  "\u2581beinahe": 3931,
  "\u2581Sch\u00f6pfung": 3932,
  "\u2581bewusst": 3933,
  "ding": 3934,
  "fer": 3935,
  "\u2581Milo": 3936,
  "\u2581raten": 3937,
  "schutz": 3938,
  "\u2581mehrere": 3939,
  "\u2581verhaften": 3940,
  "\u2581Andere": 3941,
  "\u2581Gegner": 3942,
  "\u2581Walt": 3943,
  "\u2581armen": 3944,
  "\u2581einziger": 3945,
  "\u2581bl\u00f6de": 3946,
  "\u2581m\u00fcssten": 3947,
  "\u2581umzubringen": 3948,
  "\u2581Nachbarn": 3949,
  "\u2581Vi": 3950,
  "\u2581d\u00fcrfte": 3951,
  "\u2581interessieren": 3952,
  "Aber": 3953,
  "\u2581Champagner": 3954,
  "\u2581Lewis": 3955,
  "\u2581schnappen": 3956,
  "\u2581st\u00f6rt": 3957,
  "\u2581Jane": 3958,
  "\u2581Offizier": 3959,
  "\u2581aufgeh\u00f6rt": 3960,
  "\u2581halben": 3961,
  "Auf": 3962,
  "\u2581erfunden": 3963,
  "res": 3964,
  "\u2581Kauf": 3965,
  "\u2581Seelen": 3966,
  "\u2581haltet": 3967,
  "\u2581treiben": 3968,
  "\u2581begangen": 3969,
  "\u2581Beruhige": 3970,
  "\u2581Pharao": 3971,
  "\u2581Susan": 3972,
  "\u2581TV": 3973,
  "\u2581Ziemlich": 3974,
  "\u2581As": 3975,
  "\u2581Eurer": 3976,
  "\u2581Kugeln": 3977,
  "gut": 3978,
  "\u2581Sicht": 3979,
  "\u2581einverstanden": 3980,
  "\u2581schwul": 3981,
  "ette": 3982,
  "\u2581beten": 3983,
  "treten": 3984,
  "\u2581bewaffnet": 3985,
  "\u2581schreibe": 3986,
  "\u2581Atem": 3987,
  "\u2581Eric": 3988,
  "\u2581Rennen": 3989,
  "\u2581verl\u00e4sst": 3990,
  "\u2581Sch\u00e4del": 3991,
  "\u2581H\u00e4": 3992,
  "\u2581welchen": 3993,
  "\u2581Morris": 3994,
  "\u2581trinkt": 3995,
  "\u2581AN": 3996,
  "\u2581Verabredung": 3997,
  "\u2581volle": 3998,
  "anna": 3999,
  "\u2581BE": 4000,
  "\u2581Kreis": 4001,
  "\u2581Planet": 4002,
  "\u2581Sterben": 4003,
  "\u2581verpassen": 4004,
  "\u2581Bahn": 4005,
  "\u2581Hank": 4006,
  "\u2581ICH": 4007,
  "\u2581Li": 4008,
  "\u2581Perfekt": 4009,
  "\u2581Jones": 4010,
  "\u2581Lang": 4011,
  "\u2581Master": 4012,
  "\u2581Zauberer": 4013,
  "\u2581reiten": 4014,
  "\u2581Unm\u00f6glich": 4015,
  "\u2581sp\u00fcren": 4016,
  "\u2581Dunkelheit": 4017,
  "\u2581Himmels": 4018,
  "\u2581anderem": 4019,
  "ny": 4020,
  "\u2581Wenigstens": 4021,
  "\u2581Zigarette": 4022,
  "hu": 4023,
  "\u2581Fi": 4024,
  "\u2581Geister": 4025,
  "\u2581Wirklichkeit": 4026,
  "\u2581aufgeregt": 4027,
  "\u2581dadurch": 4028,
  "was": 4029,
  "\u2581gelegt": 4030,
  "\u2581K\u00fcnstler": 4031,
  "\u2581Silber": 4032,
  "\u2581ma": 4033,
  "jetzt": 4034,
  "\u2581Alice": 4035,
  "\u2581Audrey": 4036,
  "\u2581Dar\u00fcber": 4037,
  "\u2581Stand": 4038,
  "vergeben": 4039,
  "\u2581Di": 4040,
  "\u2581Do": 4041,
  "\u2581Lob": 4042,
  "\u2581Steht": 4043,
  "\u2581gucken": 4044,
  "\u2581verlor": 4045,
  "\u2581Ca": 4046,
  "\u2581Drachen": 4047,
  "\u2581Fluch": 4048,
  "\u2581Schie\u00df": 4049,
  "\u2581stets": 4050,
  "\u2581Ron": 4051,
  "\u2581Theorie": 4052,
  "\u2581glaubte": 4053,
  "\u2581mitgenommen": 4054,
  "tra": 4055,
  "\u2581Gr\u00fcn": 4056,
  "\u2581schei\u00df": 4057,
  "\u2581...\"": 4058,
  "\u2581L\u00e4cheln": 4059,
  "\u2581Sender": 4060,
  "\u2581sowie": 4061,
  "innen": 4062,
  "st\u00fcck": 4063,
  "\u2581Kuh": 4064,
  "\u2581Vieh": 4065,
  "\u2581gek\u00e4mpft": 4066,
  "\u2581Meinst": 4067,
  "\u2581Mitternacht": 4068,
  "\u2581Terry": 4069,
  "\u2581Des": 4070,
  "\u2581Besitzer": 4071,
  "\u2581\u00dcbrigens": 4072,
  "\u2581durcheinander": 4073,
  "\u2581uh": 4074,
  "\u2581verletzen": 4075,
  "\u2581Wut": 4076,
  "\u2581umgehen": 4077,
  "\u2581vermissen": 4078,
  "line": 4079,
  "\u2581Mad": 4080,
  "\u2581suchst": 4081,
  "gemacht": 4082,
  "\u2581erleben": 4083,
  "\u2581spielst": 4084,
  "\u2581Neu": 4085,
  "\u2581Sorry": 4086,
  "\u2581Schneller": 4087,
  "\u2581Schreibtisch": 4088,
  "\u2581frag": 4089,
  "\u2581leichter": 4090,
  "\u2581Fl\u00fcgel": 4091,
  "\u2581Ger": 4092,
  "\u2581Privat": 4093,
  "\u2581Aufh\u00f6ren": 4094,
  "\u2581Ser": 4095,
  "\u2581Wissenschaft": 4096,
  "\u2581schaut": 4097,
  "\u00a4": 4098,
  "\u2581Huld": 4099,
  "\u2581Laura": 4100,
  "\u2581Sch\u00f6ne": 4101,
  "\u2581nahmen": 4102,
  "fach": 4103,
  "po": 4104,
  "werk": 4105,
  "\u2581Bullingdon": 4106,
  "\u2581Unheil": 4107,
  "\u2581hi": 4108,
  "6": 4109,
  "ale": 4110,
  "\u2581herkommen": 4111,
  "noch": 4112,
  "\u2581Brand": 4113,
  "\u2581Randy": 4114,
  "\u2581Cowboy": 4115,
  "zukommen": 4116,
  "\u2581amerikanische": 4117,
  "gebracht": 4118,
  "lu": 4119,
  "\u2581Beerdigung": 4120,
  "\u2581Cha": 4121,
  "\u2581Ke": 4122,
  "\u2581Szene": 4123,
  "\u2581au\u00dferdem": 4124,
  "\u2581setze": 4125,
  "\u2581verzweifelt": 4126,
  "\u2581wehtun": 4127,
  "\u2581wechseln": 4128,
  "f\u00fchren": 4129,
  "\u2581Anti": 4130,
  "\u2581Deutschland": 4131,
  "\u2581Spieler": 4132,
  "\u2581Chuck": 4133,
  "\u2581Daran": 4134,
  "\u2581Heil": 4135,
  "\u2581begraben": 4136,
  "\u2581geil": 4137,
  "\u2581weiB": 4138,
  "\u2581Feigling": 4139,
  "\u2581Sagte": 4140,
  "\u2581Se": 4141,
  "ight": 4142,
  "\u2581Ag": 4143,
  "\u2581Texas": 4144,
  "\u2581leiten": 4145,
  "\u2581trennen": 4146,
  "\u2581Helft": 4147,
  "5": 4148,
  "\u2581Ni": 4149,
  "\u2581Zusammen": 4150,
  "\u2581Geburt": 4151,
  "\u2581Uh": 4152,
  "\u2581abgeschlossen": 4153,
  "dy": 4154,
  "\u2581ebenfalls": 4155,
  "\u2581Grace": 4156,
  "\u2581nenne": 4157,
  "\u2581Pizza": 4158,
  "\u2581kenn": 4159,
  "\u2581per": 4160,
  "\u2581reparieren": 4161,
  "\u2581schickte": 4162,
  "\u2581verteidigen": 4163,
  "gesch\u00e4ft": 4164,
  "\u2581Neben": 4165,
  "\u2581untersuchen": 4166,
  "\u2581Fore": 4167,
  "\u2581Irgendwie": 4168,
  "\u2581Rauch": 4169,
  "wand": 4170,
  "\u2581Passt": 4171,
  "\u2581Per": 4172,
  "\u2581bi\u00dfchen": 4173,
  "\u2581leg": 4174,
  "nst": 4175,
  "\u2581Eindruck": 4176,
  "\u2581Schnitt": 4177,
  "\u2581T\u00f6chter": 4178,
  "\u2581abhauen": 4179,
  "\u2581allerdings": 4180,
  "\u2581loswerden": 4181,
  "him": 4182,
  "\u2581Indien": 4183,
  "\u2581\u00fcberpr\u00fcft": 4184,
  "ump": 4185,
  "\u2581Inspektor": 4186,
  "\u2581Station": 4187,
  "tte": 4188,
  "\u2581akzeptieren": 4189,
  "\u2581ruiniert": 4190,
  "\u00dft": 4191,
  "\u2581Dienern": 4192,
  "\u2581Jacke": 4193,
  "\u2581h\u00e4sslich": 4194,
  "tier": 4195,
  "\u2581besseren": 4196,
  "ex": 4197,
  "\u2581Minister": 4198,
  "\u2581beeilen": 4199,
  "\u2581Entspann": 4200,
  "\u2581Irgendwann": 4201,
  "\u2581Zumindest": 4202,
  "\u2581frisch": 4203,
  "\u2581sp\u00fcre": 4204,
  "\u2581\u00fcbergeben": 4205,
  "\u2581Me": 4206,
  "\u2581rund": 4207,
  "\u2581zahlt": 4208,
  "IE": 4209,
  "\u2581Verdacht": 4210,
  "\u2581Kerle": 4211,
  "\u2581Wade": 4212,
  "\u00f6l": 4213,
  "\u2581freiwillig": 4214,
  "\u2581voran": 4215,
  "\u2581Geheim": 4216,
  "\u2581Jugend": 4217,
  "hi": 4218,
  "mer": 4219,
  "\u2581Handel": 4220,
  "\u2581Keinen": 4221,
  "\u2581Ur": 4222,
  "\u00e4ng": 4223,
  "\u2581taub": 4224,
  ":00": 4225,
  "\u2581Jason": 4226,
  "\u2581gemein": 4227,
  "\u2581t\u00e4glich": 4228,
  "arm": 4229,
  "gibt": 4230,
  "sein": 4231,
  "schule": 4232,
  "vi": 4233,
  "\u2581erstes": 4234,
  "\u2581gehofft": 4235,
  "\u2581Nancy": 4236,
  "Sp": 4237,
  "hen": 4238,
  "mb": 4239,
  "\u2581brav": 4240,
  "\u2581Marian": 4241,
  "\u2581Nation": 4242,
  "\u2581Schreib": 4243,
  "\u2581Yo": 4244,
  "\u2581aufgenommen": 4245,
  "\u2581kompliziert": 4246,
  "\u2581dauernd": 4247,
  "\u2581eindeutig": 4248,
  "II": 4249,
  "\u258135": 4250,
  "\u2581Etwa": 4251,
  "\u2581Tot": 4252,
  "gestellt": 4253,
  "\u2581Ratten": 4254,
  "\u2581aufnehmen": 4255,
  "\u2581ra": 4256,
  "\u2581Chinesen": 4257,
  "\u2581Fliegen": 4258,
  "\u2581dritte": 4259,
  "\u2581hinterher": 4260,
  "\u2581reisen": 4261,
  "\u2581wenden": 4262,
  "licher": 4263,
  "\u2581Fort": 4264,
  "\u2581Suchen": 4265,
  "\u2581greifen": 4266,
  "ius": 4267,
  "\u2581Schock": 4268,
  "\u2581Tasse": 4269,
  "\u2581hohe": 4270,
  "\u2581liest": 4271,
  "\u2581ungerecht": 4272,
  "\u2581Del": 4273,
  "\u2581Verf\u00fcgung": 4274,
  "\u2581Gunst": 4275,
  "\u2581Verschwinden": 4276,
  "\u2581bestraft": 4277,
  "\u2581fressen": 4278,
  "\u2581unternehmen": 4279,
  "\u2581Fangen": 4280,
  "\u2581Ned": 4281,
  "\u2581Verlierer": 4282,
  "\u2581wahrhaftig": 4283,
  "\u2581Abenteuer": 4284,
  "\u2581unterschreiben": 4285,
  "\u2581verschwindet": 4286,
  "\u2581Schluck": 4287,
  "\u2581altes": 4288,
  "meister": 4289,
  "\u2581Sonny": 4290,
  "\u2581dieselbe": 4291,
  "\u2581Gewissen": 4292,
  "\u2581Mittagessen": 4293,
  "\u2581echten": 4294,
  "\u2581folge": 4295,
  "\u2581Kilometer": 4296,
  "\u2581Redmond": 4297,
  "\u2581betrogen": 4298,
  "lin": 4299,
  "\u2581Kevin": 4300,
  "\u2581arbeitete": 4301,
  "\u2581bescheuert": 4302,
  "f\u00fchrer": 4303,
  "ismus": 4304,
  "\u2581beeindruckt": 4305,
  "\u2581prima": 4306,
  "\u2581worum": 4307,
  "Ist": 4308,
  "\u2581Stress": 4309,
  "\u2581Vietnam": 4310,
  "\u2581hundert": 4311,
  "\u2581pa": 4312,
  "ib": 4313,
  "\u2581Brown": 4314,
  "\u2581Tim": 4315,
  "\u2581Green": 4316,
  "\u2581hau": 4317,
  "\u2581schaden": 4318,
  "\u2581verbunden": 4319,
  "Bahn": 4320,
  "\u2581Benzin": 4321,
  "\u2581Last": 4322,
  "\u2581Werk": 4323,
  "\u2581aufregend": 4324,
  "zimmer": 4325,
  "\u2581mu\u00dfte": 4326,
  "\u2581schie\u00dft": 4327,
  "gan": 4328,
  "\u00f6h": 4329,
  "\u2581kochen": 4330,
  "\u2581soviel": 4331,
  "\u2581Politik": 4332,
  "\u2581besitzen": 4333,
  "\u2581w\u00fcnscht": 4334,
  "\u2581Tr\u00e4nen": 4335,
  "\u2581begreifen": 4336,
  "\u2581dahinter": 4337,
  "\u2581getr\u00e4umt": 4338,
  "\u2581verurteilt": 4339,
  "\u2581May": 4340,
  "\u2581vergiss": 4341,
  "\u2581Crew": 4342,
  "\u2581gr\u00fcne": 4343,
  "\u2581my": 4344,
  "\u2581richtiger": 4345,
  "tter": 4346,
  "\u2581Chen": 4347,
  "mus": 4348,
  "\u2581Mel": 4349,
  "\u2581besucht": 4350,
  "nur": 4351,
  "\u2581beschlossen": 4352,
  "\u2581kapiert": 4353,
  "hal": 4354,
  "lon": 4355,
  "\u2581Mitleid": 4356,
  "schi": 4357,
  "wood": 4358,
  "\u2581Lloyd": 4359,
  "\u2581Wissenschaftler": 4360,
  "\u2581begehen": 4361,
  "\u2581ber\u00fchrt": 4362,
  "\u2581eilig": 4363,
  "\u2581fliehen": 4364,
  "\u2581Dschungel": 4365,
  "\u2581gezwungen": 4366,
  "\u2581leise": 4367,
  "\u2581Cap": 4368,
  "\u2581zur\u00fcckgebracht": 4369,
  "\u2581versammelt": 4370,
  "\u2581Terroristen": 4371,
  "eck": 4372,
  "\u00f6s": 4373,
  "\u2581Besonders": 4374,
  "\u2581Fische": 4375,
  "lla": 4376,
  "\u2581Men": 4377,
  "\u2581Miles": 4378,
  "\u2581begleiten": 4379,
  "\u2581gelandet": 4380,
  "X": 4381,
  "chi": 4382,
  "\u2581Anweisungen": 4383,
  "\u2581Bravo": 4384,
  "\u2581stell": 4385,
  "\"!": 4386,
  "\u2581Afrika": 4387,
  "\u2581befreien": 4388,
  "ON": 4389,
  "ski": 4390,
  "tritt": 4391,
  "\u2581Gegenteil": 4392,
  "\u2581Sp\u00e4ter": 4393,
  "\u2581abend": 4394,
  "\u2581gelebt": 4395,
  "\u2581Schaut": 4396,
  "\u2581Schildkr\u00f6te": 4397,
  "loch": 4398,
  "\u2581offiziell": 4399,
  "\u2581Air": 4400,
  "\u2581bewahren": 4401,
  "\u2581neugierig": 4402,
  "\u2581passierte": 4403,
  "TER": 4404,
  "nden": 4405,
  "\u2581Kabel": 4406,
  "\u2581Lippen": 4407,
  "\u2581Scheidung": 4408,
  "\u2581schulde": 4409,
  "\u2581sorge": 4410,
  "\u2581rechtzeitig": 4411,
  "\u2581umher": 4412,
  "\u2581Elizabeth": 4413,
  "\u2581Rechts": 4414,
  "\u2581dient": 4415,
  "\u2581geschaffen": 4416,
  "\u2581Florida": 4417,
  "\u2581Setzt": 4418,
  "\u2581versorgt": 4419,
  "\u2581wei\u00dfe": 4420,
  "\u2581\u00d6ffentlichkeit": 4421,
  "UR": 4422,
  "zig": 4423,
  "\u2581Hammer": 4424,
  "\u2581Kane": 4425,
  "\u2581beobachten": 4426,
  "tat": 4427,
  "\u2581Tra": 4428,
  "\u2581ungl\u00fccklich": 4429,
  "erin": 4430,
  "film": 4431,
  "mi": 4432,
  "\u2581Neun": 4433,
  "\u2581Scheisse": 4434,
  "\u2581worauf": 4435,
  "\u2581anfassen": 4436,
  "\u2581beantworten": 4437,
  "\u2581Lektion": 4438,
  "\u2581Schulter": 4439,
  "\u2581Versteck": 4440,
  "\u2581toten": 4441,
  "\u2581zuletzt": 4442,
  "\u2581offenbar": 4443,
  "mie": 4444,
  "\u2581Gleichnis": 4445,
  "\u2581Verrat": 4446,
  "\u2581geholt": 4447,
  "\u2581vermisse": 4448,
  "port": 4449,
  "ville": 4450,
  "CH": 4451,
  "\u2581Tempel": 4452,
  "\u2581dr\u00fccken": 4453,
  "\u2581schwerer": 4454,
  "\u2581Arbeiten": 4455,
  "\u2581Bra": 4456,
  "\u2581brennen": 4457,
  "\u2581roten": 4458,
  "\u2581Helfer": 4459,
  "weisen": 4460,
  "\u2581H\u00fctte": 4461,
  "\u2581White": 4462,
  "\u2581anziehen": 4463,
  "\u2581herunter": 4464,
  "\u2581Spitze": 4465,
  "\u2581Hai": 4466,
  "\u2581Marine": 4467,
  "\u2581Nicky": 4468,
  "\u2581We": 4469,
  "\u2581rot": 4470,
  "\u2581zw\u00f6lf": 4471,
  "\u2581\u00fcbers": 4472,
  "ong": 4473,
  "\u258110.000": 4474,
  "\u2581Can": 4475,
  "\u2581Ausgang": 4476,
  "\u2581Unternehmen": 4477,
  "\u2581einziges": 4478,
  "isches": 4479,
  "low": 4480,
  "sprache": 4481,
  "\u2581Fe": 4482,
  "\u2581Ms": 4483,
  "\u2581Mylord": 4484,
  "\u2581fl": 4485,
  "\u2581vertraue": 4486,
  "\u2581Probe": 4487,
  "\u2581Vertrau": 4488,
  "\u2581behaupten": 4489,
  "\u2581b\u00f6sen": 4490,
  "\u2581ernsthaft": 4491,
  "\u2581Frei": 4492,
  "\u2581Gewinn": 4493,
  "\u2581erz\u00e4hlst": 4494,
  "\u2581offenbart": 4495,
  "ica": 4496,
  "\u2581Fan": 4497,
  "\u2581Gesundheit": 4498,
  "\u2581Hexe": 4499,
  "\u2581Gr\u00fcnde": 4500,
  "\u2581Klinik": 4501,
  "IG": 4502,
  "\u2581Dinger": 4503,
  "\u2581Seil": 4504,
  "\u2581eifers\u00fcchtig": 4505,
  "\u2581Fett": 4506,
  "\u2581Football": 4507,
  "\u2581Publikum": 4508,
  "0": 4509,
  "feuer": 4510,
  "\u2581Hollywood": 4511,
  "\u2581getragen": 4512,
  "\u2581wichtige": 4513,
  "\u2581Lungen": 4514,
  "\u2581Narr": 4515,
  "\u2581Ged\u00e4chtnis": 4516,
  "\u2581Magie": 4517,
  "\u2581ko": 4518,
  "\u2581Flieger": 4519,
  "Boot": 4520,
  "\u2581Bewohner": 4521,
  "\u2581Eile": 4522,
  "\u2581Manager": 4523,
  "\u2581irgendein": 4524,
  "\u2581Decke": 4525,
  "\u2581Say": 4526,
  "\u2581by": 4527,
  "\u2581unterst\u00fctzen": 4528,
  "kul": 4529,
  "ou": 4530,
  "ring": 4531,
  "\u2581befohlen": 4532,
  "\u2581dumme": 4533,
  "\u2581f\u00fchrte": 4534,
  "\u2581verlange": 4535,
  "\u2581wei": 4536,
  "erweise": 4537,
  "ress": 4538,
  "\u2581bequem": 4539,
  "\u2581verbracht": 4540,
  "\u2581Uniform": 4541,
  "\u2581Details": 4542,
  "\u2581Staatsanwalt": 4543,
  "\u2581T\u00f6ten": 4544,
  "kampf": 4545,
  "\u2581Diesen": 4546,
  "\u2581Gouverneur": 4547,
  "\u2581Meiner": 4548,
  "\u2581Tests": 4549,
  "\u2581empfangen": 4550,
  "\u2581Doug": 4551,
  "\u2581d": 4552,
  "\u2581toller": 4553,
  "\u2581Sc": 4554,
  "\u2581gottesf\u00fcrchtig": 4555,
  "\u2581h": 4556,
  "\u2581treibt": 4557,
  "\u2581Julia": 4558,
  "ak": 4559,
  "nach": 4560,
  "\u2581Jacob": 4561,
  "\u2581albern": 4562,
  "sehen": 4563,
  "\u2581Anw\u00e4lte": 4564,
  "\u2581\u00dcberall": 4565,
  "ang": 4566,
  "sk": 4567,
  "\u2581Ger\u00e4usch": 4568,
  "\u2581Lucy": 4569,
  "\u2581My": 4570,
  "\u2581vorgestellt": 4571,
  "fest": 4572,
  "\u258127": 4573,
  "\u2581Kaiser": 4574,
  "zeichen": 4575,
  "\u2581Fischer": 4576,
  "\u25811.000": 4577,
  "zieht": 4578,
  "\u258115.": 4579,
  "\u2581B\u00e4ume": 4580,
  "\u2581stammt": 4581,
  "\u2581wartest": 4582,
  "\u00e4m": 4583,
  "\u2581Metall": 4584,
  "\u2581entschuldige": 4585,
  "\u2581konzentrieren": 4586,
  "\u2581stimmen": 4587,
  "\u2581Ersatz": 4588,
  "\u2581Kosten": 4589,
  "\u2581Munition": 4590,
  "\u2581aufge": 4591,
  "\u2581heran": 4592,
  "\u2581lacht": 4593,
  "\u2581Quelle": 4594,
  "\u2581Zelle": 4595,
  "\u2581wider": 4596,
  "\u2581trotz": 4597,
  "\u2581Mhm": 4598,
  "\u2581zwingen": 4599,
  "artig": 4600,
  "isieren": 4601,
  "\u2581Damals": 4602,
  "\u2581K\u00f6nntest": 4603,
  "\u2581Schild": 4604,
  "\u2581vieles": 4605,
  "\u2581Kent": 4606,
  "\u2581Y": 4607,
  "\u2581gro\u00dfartige": 4608,
  "\u2581schick": 4609,
  "\u2581spielte": 4610,
  "Hallo": 4611,
  "\u2581hauen": 4612,
  "fliegen": 4613,
  "\u258112.": 4614,
  "\u2581Wolken": 4615,
  "\u2581attraktiv": 4616,
  "\u2581Gemeinde": 4617,
  "\u2581weich": 4618,
  "ack": 4619,
  "\u2581Personal": 4620,
  "\u2581Sauerstoff": 4621,
  "the": 4622,
  "\u2581Klamotten": 4623,
  "\u2581blau": 4624,
  "\u2581treu": 4625,
  "licht": 4626,
  "\u2581Chancen": 4627,
  "\u2581Marshall": 4628,
  "\u2581Spring": 4629,
  "\u2581aufgegeben": 4630,
  "\u2581weise": 4631,
  "ade": 4632,
  "\u2581Ratte": 4633,
  "\u2581Ruhm": 4634,
  "\u2581weshalb": 4635,
  "\u2581Entscheidungen": 4636,
  "\u2581Freddy": 4637,
  "\u2581Hill": 4638,
  "\u2581Johnson": 4639,
  "\u2581beliebt": 4640,
  "Komm": 4641,
  "\u2581Anrufe": 4642,
  "\u2581F\u00e4lle": 4643,
  "\u2581Rachel": 4644,
  "\u2581Vorteil": 4645,
  "fen": 4646,
  "\u258121": 4647,
  "\u2581Fingerabdr\u00fccke": 4648,
  "\u2581Verst\u00e4rkung": 4649,
  "\u2581K\u00fcmmer": 4650,
  "\u2581Schreiben": 4651,
  "nde": 4652,
  "\u2581Batman": 4653,
  "\u2581Lande": 4654,
  "\u2581Si": 4655,
  "\u2581aufmachen": 4656,
  "\u2581wiedersehen": 4657,
  "chte": 4658,
  "ram": 4659,
  "\u2581Direkt": 4660,
  "\u2581Milliarden": 4661,
  "\u2581eng": 4662,
  "\u2581schw": 4663,
  "\u2581beigebracht": 4664,
  "reich": 4665,
  "user": 4666,
  "\u2581Sterne": 4667,
  "3": 4668,
  "unter": 4669,
  "\u2581Aaron": 4670,
  "m\u00e4\u00dfig": 4671,
  "\u2581Unterricht": 4672,
  "\u2581zahle": 4673,
  "ath": 4674,
  "\u2581Potter": 4675,
  "\u2581Wieviel": 4676,
  "\u2581brutal": 4677,
  "band": 4678,
  "\u2581erwischen": 4679,
  "\u2581f\u00e4hig": 4680,
  "\u2581offenkundig": 4681,
  "bahn": 4682,
  "\u2581Cat": 4683,
  "\u2581beruhigen": 4684,
  "\u2581hiermit": 4685,
  "\u2581Eisen": 4686,
  "\u2581Rosa": 4687,
  "\u2581abgesehen": 4688,
  "\u2581perfekte": 4689,
  "\u2581Abschied": 4690,
  "\u2581Beginn": 4691,
  "\u2581Jackson": 4692,
  "\u2581Worum": 4693,
  "leiten": 4694,
  "\u2581Katzen": 4695,
  "\u2581Moskau": 4696,
  "\u2581Miller": 4697,
  "ble": 4698,
  "\u2581Deinen": 4699,
  "\u2581Hinweis": 4700,
  "\u2581Knarre": 4701,
  "\u2581Sonder": 4702,
  "\u2581real": 4703,
  "aber": 4704,
  "\u2581Lo": 4705,
  "\u2581standen": 4706,
  "000": 4707,
  "\u2581Hu": 4708,
  "\u2581gewaltig": 4709,
  "\u2581gr\u00fcn": 4710,
  "ank": 4711,
  "fern": 4712,
  "\u2581H\u00fchner": 4713,
  "\u2581Ost": 4714,
  "\u2581tote": 4715,
  "\u2581wenigen": 4716,
  "\u2581Trauer": 4717,
  "\u2581angreifen": 4718,
  "\u2581lege": 4719,
  "ierst": 4720,
  "\u2581Allein": 4721,
  "\u2581Kranken": 4722,
  "\u2581trocken": 4723,
  "cher": 4724,
  "\u2581Besorg": 4725,
  "\u2581Farm": 4726,
  "\u2581Rob": 4727,
  "gst": 4728,
  "non": 4729,
  "tun": 4730,
  "\u2581Linie": 4731,
  "\u2581Modell": 4732,
  "\u2581schmutzig": 4733,
  "hand": 4734,
  "ks": 4735,
  "liches": 4736,
  "\u2581Top": 4737,
  "are": 4738,
  "\u2581Raumschiff": 4739,
  "\u2581Stimmung": 4740,
  "\u2581klingelt": 4741,
  "\u2581verflucht": 4742,
  "\u2581versprechen": 4743,
  "\u2581Quin": 4744,
  "\u2581frische": 4745,
  "\u2581nass": 4746,
  "Na": 4747,
  "\u00d6": 4748,
  "\u2581Dienstag": 4749,
  "\u2581notwendig": 4750,
  "\u2581Joseph": 4751,
  "\u2581Medikamente": 4752,
  "\u2581Hin": 4753,
  "\u2581Klein": 4754,
  "\u2581Marie": 4755,
  "\u2581for": 4756,
  "enz": 4757,
  "\u2581Titten": 4758,
  "\u2581Vampir": 4759,
  "\u2581h\u00e4": 4760,
  "\u2581senden": 4761,
  "\u2581sicherlich": 4762,
  "\u2581stellte": 4763,
  "\u2581stinkt": 4764,
  "\u2581verbergen": 4765,
  "\u2581warne": 4766,
  "\u2581Denkt": 4767,
  "\u2581gesch": 4768,
  "\u2581melde": 4769,
  "Ro": 4770,
  "\u2581J\u00e4ger": 4771,
  "\u2581Kilo": 4772,
  "\u2581tollen": 4773,
  "bank": 4774,
  "iges": 4775,
  "\u2581hoffentlich": 4776,
  "\u2581politische": 4777,
  "ium": 4778,
  "\u2581H\u00f6he": 4779,
  "\u2581K\u00e4fig": 4780,
  "\u2581Sch\u00f6nes": 4781,
  "ormer": 4782,
  "zubringen": 4783,
  "\u2581Schwachsinn": 4784,
  "\u2581Weisheit": 4785,
  "\u2581verschiedene": 4786,
  "elle": 4787,
  "\u2581Leonard": 4788,
  "\u2581W\u00e4sche": 4789,
  "\u2581n\u00fctzen": 4790,
  "\u2581Amen": 4791,
  "\u2581Schwer": 4792,
  "\u2581warf": 4793,
  "\u2581wirken": 4794,
  "zugehen": 4795,
  "\u2581Russland": 4796,
  "\u2581Teile": 4797,
  "\u2581Ewigkeit": 4798,
  "\u2581Kr\u00e4fte": 4799,
  "\u2581angekommen": 4800,
  "\u2581on": 4801,
  "pen": 4802,
  "\u2581do": 4803,
  "\u2581pr\u00fcfen": 4804,
  "\u2581Rosen": 4805,
  "\u2581St\u00fccke": 4806,
  "\u2581Suppe": 4807,
  "\u2581Aufnahme": 4808,
  "\u2581k\u00e4me": 4809,
  "\u2581schlafe": 4810,
  "\u2581verarschen": 4811,
  "Mo": 4812,
  "\u2581Senat": 4813,
  "\u2581Tief": 4814,
  "\u2581abends": 4815,
  "\u2581kennenzulernen": 4816,
  "ini": 4817,
  "win": 4818,
  "\u2581Kanone": 4819,
  "\u2581Worten": 4820,
  "\u2581brachten": 4821,
  "\u2581geschenkt": 4822,
  "Ka": 4823,
  "fisch": 4824,
  "schnitt": 4825,
  "\u2581Oliver": 4826,
  "\u2581Zahn": 4827,
  "kon": 4828,
  "vo": 4829,
  "\u2581Bur": 4830,
  "\u2581Felsen": 4831,
  "\u2581Gesetze": 4832,
  "\u2581dritten": 4833,
  "\u2581n\u00fctzlich": 4834,
  "od": 4835,
  "\u2581Maggie": 4836,
  "\u2581lernt": 4837,
  "\u2581Donnerstag": 4838,
  "\u2581Symbol": 4839,
  "\u2581neulich": 4840,
  "\u2581Knopf": 4841,
  "\u2581Realit\u00e4t": 4842,
  "\u2581Versprochen": 4843,
  "gas": 4844,
  "lt": 4845,
  "\u2581Ins": 4846,
  "\u2581B\u00f6ses": 4847,
  "\u2581Lesen": 4848,
  "\u2581Verpiss": 4849,
  "\u2581You": 4850,
  "h\u00e4lt": 4851,
  "tik": 4852,
  "\u2581Derjenige": 4853,
  "\u2581medizinische": 4854,
  "ive": 4855,
  "wick": 4856,
  "\u2581F\u00dcR": 4857,
  "\u2581tr\u00e4gst": 4858,
  "He": 4859,
  "ian": 4860,
  "\u2581Uni": 4861,
  "\u2581Edward": 4862,
  "\u2581Gentleman": 4863,
  "\u2581Glaube": 4864,
  "\u2581Schw\u00e4che": 4865,
  "\u2581Staats": 4866,
  "\u2581ZU": 4867,
  "\u2581sprich": 4868,
  "lager": 4869,
  "\u2581Spielzeug": 4870,
  "Ha": 4871,
  "\u2581Hauptmann": 4872,
  "\u2581Stamm": 4873,
  "\u2581Tour": 4874,
  "\u2581doppelt": 4875,
  "\u2581tiefer": 4876,
  "\u2581zeigte": 4877,
  "\u2581gesteckt": 4878,
  "\u2581schenken": 4879,
  "gesetzt": 4880,
  "one": 4881,
  "\u2581Arschl\u00f6cher": 4882,
  "\u2581M\u00fctter": 4883,
  "ay": 4884,
  "\u2581Hitze": 4885,
  "\u2581Karl": 4886,
  "\u2581gottgef\u00e4llig": 4887,
  "\u2581gewohnt": 4888,
  "\u2581lecker": 4889,
  "\u2581rausfinden": 4890,
  "wer": 4891,
  "\u2581Amy": 4892,
  "\u2581Falken": 4893,
  "\u2581Fantasie": 4894,
  "\u2581Fr\u00fch": 4895,
  "\u2581Lane": 4896,
  "\u2581Wette": 4897,
  "\u2581gro\u00dfz\u00fcgig": 4898,
  "\u2581lebend": 4899,
  "\u2581wiederholen": 4900,
  "legt": 4901,
  "sseits": 4902,
  "station": 4903,
  "\u2581Gotham": 4904,
  "geld": 4905,
  "nder": 4906,
  "\u2581Fakten": 4907,
  "\u2581Las": 4908,
  "\u2581Stahl": 4909,
  "\u2581f\u00fchl": 4910,
  "\u2581weisst": 4911,
  "losen": 4912,
  "\u2581Ausweis": 4913,
  "\u2581Infektion": 4914,
  "\u2581Welchen": 4915,
  "\u2581verzeihen": 4916,
  "\u2581\u00dcbung": 4917,
  "tu": 4918,
  "\u2581einfallen": 4919,
  "Re": 4920,
  "oh": 4921,
  "\u2581/": 4922,
  "\u2581F\u00fc\u00dfen": 4923,
  "\u2581Sch\u00f6nen": 4924,
  "\u2581verhandeln": 4925,
  "\u2581woran": 4926,
  "\u2581Fahrzeug": 4927,
  "\u2581Ro": 4928,
  "\u2581fett": 4929,
  "genommen": 4930,
  "\u2581Kredit": 4931,
  "\u2581kaufe": 4932,
  "\u2581Koch": 4933,
  "\u2581Pflanzen": 4934,
  "\u2581Reaktion": 4935,
  "\u2581bestehen": 4936,
  "kreis": 4937,
  "\u2581Kid": 4938,
  "\u2581l\u00fcgst": 4939,
  "frei": 4940,
  "\u2581amerikanischen": 4941,
  "\u2581dennoch": 4942,
  "\u2581faul": 4943,
  "\u2581sinnlos": 4944,
  "\u2581Reg": 4945,
  "\u2581Weshalb": 4946,
  "\u2581Wirf": 4947,
  "\u2581Zieht": 4948,
  "schreiben": 4949,
  "\u2581Aussicht": 4950,
  "\u2581Briefe": 4951,
  "\u2581Hood": 4952,
  "\u2581Maske": 4953,
  "\u2581Nieren": 4954,
  "\u2581ber\u00fchren": 4955,
  "gezogen": 4956,
  "\u2581i": 4957,
  "schau": 4958,
  "\u2581Basis": 4959,
  "\u2581probieren": 4960,
  "\u2581schneiden": 4961,
  "\u2581verwandelt": 4962,
  "tung": 4963,
  "\u2581Womit": 4964,
  "\u2581las": 4965,
  "gu": 4966,
  "hof": 4967,
  "tv": 4968,
  "\u2581Arbeiter": 4969,
  "\u2581Zone": 4970,
  "\u2581aufrichtig": 4971,
  "lage": 4972,
  "\u2581Zentrale": 4973,
  "\u2581erkl\u00e4re": 4974,
  "\u2581normalerweise": 4975,
  "gegeben": 4976,
  "\u2581Dachte": 4977,
  "\u2581Sitz": 4978,
  "\u2581hohen": 4979,
  "\u2581illegal": 4980,
  "\u2581lese": 4981,
  "\u2581Bro": 4982,
  "\u2581Komisch": 4983,
  "\u2581Motorrad": 4984,
  "\u2581Scheint": 4985,
  "ban": 4986,
  "ci": 4987,
  "\u2581Welten": 4988,
  "\u2581Widerstand": 4989,
  "\u2581heiratet": 4990,
  "h\u00e4": 4991,
  "\u2581Empfang": 4992,
  "\u2581mo": 4993,
  "cke": 4994,
  "\u2581Hauses": 4995,
  "\u2581ordentlich": 4996,
  "baum": 4997,
  "lie": 4998,
  "\u2581Apparat": 4999,
  "\u2581Bauern": 5000,
  "\u2581Bergen": 5001,
  "\u2581Manny": 5002,
  "\u2581N\u00e4chte": 5003,
  "\u2581Stone": 5004,
  "\u2581Tara": 5005,
  "\u2581Zellen": 5006,
  "\u2581gest\u00f6rt": 5007,
  "\u2581kehren": 5008,
  "aff": 5009,
  "\u2581Vermutlich": 5010,
  "\u2581sammeln": 5011,
  "\u2581versetzt": 5012,
  "\u2581Turtle": 5013,
  "\u2581bestimmten": 5014,
  "f\u00e4llig": 5015,
  "pper": 5016,
  "\u2581Nutzen": 5017,
  "\u2581Pris": 5018,
  "\u2581herauszufinden": 5019,
  "\u2581versagt": 5020,
  "eine": 5021,
  "\u2581Bisher": 5022,
  "\u2581drum": 5023,
  "\u2581L\u00f6cher": 5024,
  "\u2581Pillen": 5025,
  "\u2581Reporter": 5026,
  "\u2581bestimmte": 5027,
  "\u2581verbrannt": 5028,
  "h\u00f6r": 5029,
  "nam": 5030,
  "om": 5031,
  "\u2581Gedanke": 5032,
  "\u2581gemeldet": 5033,
  "\u2581leugnen": 5034,
  "\u2581Studio": 5035,
  "\u2581extrem": 5036,
  "\u2581kamst": 5037,
  "\u2581Laster": 5038,
  "\u2581M\u00fcssen": 5039,
  "\u2581begeistert": 5040,
  "\u2581jederzeit": 5041,
  "\u2581vergangen": 5042,
  "\u2581wagen": 5043,
  "):": 5044,
  "\u2581Alfred": 5045,
  "\u2581Rang": 5046,
  "\u2581Schuh": 5047,
  "\u2581St\u00e4dte": 5048,
  "\u2581riechen": 5049,
  "\u2581Botschafter": 5050,
  "\u2581\u00fcberlassen": 5051,
  "\u2581K\u00f6pfe": 5052,
  "\u2581Verfehlung": 5053,
  "\u2581tausend": 5054,
  "\u2581ungern": 5055,
  "\u2581versuchst": 5056,
  "\u2581Bahnhof": 5057,
  "\u2581Engl\u00e4nder": 5058,
  "\u2581Han": 5059,
  "\u2581SCH": 5060,
  "\u2581einzig": 5061,
  "\u2581kurze": 5062,
  "\u2581telefonieren": 5063,
  "stellt": 5064,
  "\u2581Erinnern": 5065,
  "\u2581Se\u00f1or": 5066,
  "\u2581dazwischen": 5067,
  "\u2581Schlimmste": 5068,
  "\u2581hergekommen": 5069,
  "\u2581tolles": 5070,
  "wert": 5071,
  "\u2581Phase": 5072,
  "\u2581Schlechte": 5073,
  "\u2581Stil": 5074,
  "\u2581herausgefunden": 5075,
  "\u2581verliere": 5076,
  "haben": 5077,
  "\u2581Pack": 5078,
  "\u2581W\u00e4r": 5079,
  "\u2581bereuen": 5080,
  "\u2581verlie\u00df": 5081,
  "welt": 5082,
  "\u2581Babys": 5083,
  "\u2581Dutzend": 5084,
  "\u2581Fresse": 5085,
  "\u2581Rettungs": 5086,
  "\u2581negativ": 5087,
  "schlagen": 5088,
  "zuziehen": 5089,
  "\u2581$1": 5090,
  "\u2581Grand": 5091,
  "\u2581Zi": 5092,
  "\u2581singt": 5093,
  "\u2581\u00f6ffnet": 5094,
  "\u2581Mer": 5095,
  "\u2581beleidigt": 5096,
  "\u2581einstellen": 5097,
  "\u2581Gin": 5098,
  "\u2581Schwarz": 5099,
  "\u2581Tiger": 5100,
  "\u2581richtet": 5101,
  "\u2581VON": 5102,
  "\u2581normale": 5103,
  "Ne": 5104,
  "schuss": 5105,
  "\u258170": 5106,
  "\u2581Block": 5107,
  "\u2581Fuck": 5108,
  "\u2581ho": 5109,
  "\u2581rennen": 5110,
  "gelegt": 5111,
  "hy": 5112,
  "ika": 5113,
  "\u2581Antrag": 5114,
  "\u2581Grenzen": 5115,
  "\u2581Woran": 5116,
  "\u2581Ye": 5117,
  "\u2581reagiert": 5118,
  "iv": 5119,
  "\u2581Alten": 5120,
  "\u2581Identit\u00e4t": 5121,
  "\u2581\u00fcbernehme": 5122,
  "sha": 5123,
  "\u2581Heb": 5124,
  "\u2581Konto": 5125,
  "\u2581Kopie": 5126,
  "\u2581Tempo": 5127,
  "\u2581erb\u00e4rmlich": 5128,
  "\u2581erschreckt": 5129,
  "\u2581fange": 5130,
  "\u2581unheimlich": 5131,
  "nummer": 5132,
  "\u2581D\u00e4mon": 5133,
  "\u2581Grant": 5134,
  "\u2581Lange": 5135,
  "\u2581Leidenschaft": 5136,
  "\u2581Material": 5137,
  "\u2581National": 5138,
  "\u2581Ziele": 5139,
  "\u2581anbieten": 5140,
  "10": 5141,
  "que": 5142,
  "\u25818.": 5143,
  "\u2581Jahres": 5144,
  "\u2581Spinner": 5145,
  "\u2581angestellt": 5146,
  "\u2581frohe": 5147,
  "\u2581rufst": 5148,
  "\u2581Blau": 5149,
  "\u2581Fernseh": 5150,
  "\u2581Herrschaft": 5151,
  "\u2581Weder": 5152,
  "\u2581Witwe": 5153,
  "\u2581ginge": 5154,
  "ld": 5155,
  "\u2581Ruder": 5156,
  "\u2581Offensichtlich": 5157,
  "\u2581aufzu": 5158,
  "\u2581h\u00fcbsche": 5159,
  "brechen": 5160,
  "\u2581Te": 5161,
  "\u2581sanft": 5162,
  "\u2581wi\u00dft": 5163,
  "bringt": 5164,
  "\u2581Golf": 5165,
  "\u2581Rachael": 5166,
  "\u2581spiel": 5167,
  "\u2581zusehen": 5168,
  "lei": 5169,
  "\u258148": 5170,
  "\u2581Kenntnis": 5171,
  "\u2581besch\u00fctzt": 5172,
  "\u2581rauskommen": 5173,
  "\u2581verhalten": 5174,
  "\u2581Abmachung": 5175,
  "\u2581H\u00e4ttest": 5176,
  "\u2581K\u00f6nigreich": 5177,
  "dann": 5178,
  "\u2581bestens": 5179,
  "\u2581m\u00e4chtig": 5180,
  "\u2581Laufen": 5181,
  "\u2581Verbesserung": 5182,
  "abteilung": 5183,
  "freund": 5184,
  "\u2581Ladung": 5185,
  "\u2581heimlich": 5186,
  "\u2581wild": 5187,
  "\u258126": 5188,
  "\u2581schw\u00f6ren": 5189,
  "kriegen": 5190,
  "\u2581Gruppen": 5191,
  "\u2581Sh": 5192,
  "ux": 5193,
  "\u2581Best\u00e4tigung": 5194,
  "\u2581Lisa": 5195,
  "\u2581M\u00e4use": 5196,
  "\u2581Stiefel": 5197,
  "\u2581bittet": 5198,
  "\u2581gew\u00f6hnt": 5199,
  "schw": 5200,
  "\u2581Fieber": 5201,
  "\u2581Geschenke": 5202,
  "\u2581H\u00fcgel": 5203,
  "\u2581Mi": 5204,
  "\u2581Offenbarung": 5205,
  "tausend": 5206,
  "tzt": 5207,
  "\u00e4l": 5208,
  "\u2581Buchanan": 5209,
  "\u2581Revier": 5210,
  "\u2581Tausende": 5211,
  "\u2581versaut": 5212,
  "f\u00e4llt": 5213,
  "mon": 5214,
  "\u2581waschen": 5215,
  "\u2581ausgesetzt": 5216,
  "\u2581it": 5217,
  "Mein": 5218,
  "\u2581Anthony": 5219,
  "\u2581Ausnahme": 5220,
  "ln": 5221,
  "tsch": 5222,
  "\u2581Rum": 5223,
  "pr": 5224,
  "\u2581Geruch": 5225,
  "\u2581sorgt": 5226,
  "bb": 5227,
  "fl": 5228,
  "\u00e4n": 5229,
  "\u2581Andrew": 5230,
  "\u2581gef\u00fchlt": 5231,
  "\u2581mutig": 5232,
  "eur": 5233,
  "\u2581Larry": 5234,
  "\u2581Radar": 5235,
  "\u2581Vergeltung": 5236,
  "\u2581Rei\u00df": 5237,
  "\u2581Stu": 5238,
  "vin": 5239,
  "\u2581Ru": 5240,
  "\u2581vergisst": 5241,
  "\u2581Besucher": 5242,
  "\u2581Tricks": 5243,
  "\u2581entfernen": 5244,
  "\u2581Fa": 5245,
  "\u2581Grunde": 5246,
  "\u2581Teddy": 5247,
  "\u2581h\u00fcbsches": 5248,
  "ppe": 5249,
  "\u2581Plastik": 5250,
  "\u2581AUF": 5251,
  "\u2581B\u00e4r": 5252,
  "\u2581Song": 5253,
  "\u2581inner": 5254,
  "b\u00fc": 5255,
  "ford": 5256,
  "ui": 5257,
  "\u2581Beinen": 5258,
  "\u2581Beziehungen": 5259,
  "\u2581One": 5260,
  "\u2581Unterschrift": 5261,
  "\u2581verborgen": 5262,
  "leiter": 5263,
  "ssystem": 5264,
  "\u2581Daher": 5265,
  "\u2581Einladung": 5266,
  "\u2581Eva": 5267,
  "\u2581Paket": 5268,
  "\u2581herzlich": 5269,
  "liste": 5270,
  "\u25814,": 5271,
  "\u2581Fox": 5272,
  "\u2581Jersey": 5273,
  "\u2581Katie": 5274,
  "\u2581eingesperrt": 5275,
  "\u2581einladen": 5276,
  "\u2581Bell": 5277,
  "\u2581Gesch\u00e4fts": 5278,
  "\u2581Sondern": 5279,
  "\u2581Sub": 5280,
  "\u2581Zwischen": 5281,
  "\u2581haut": 5282,
  "\u2581kon": 5283,
  "setzen": 5284,
  "\u2581Netz": 5285,
  "\u2581f\u00fchre": 5286,
  "\u2581no": 5287,
  "ierten": 5288,
  "isiert": 5289,
  "itz": 5290,
  "usch": 5291,
  "\u2581OP": 5292,
  "ess": 5293,
  "kontrolle": 5294,
  "\u2581Doyle": 5295,
  "\u2581Island": 5296,
  "\u2581Piloten": 5297,
  "\u2581Rocky": 5298,
  "\u2581bestellen": 5299,
  "\u2581inzwischen": 5300,
  "\u2581linke": 5301,
  "\u2581verleugnen": 5302,
  "ille": 5303,
  "rig": 5304,
  "\u2581Din": 5305,
  "\u2581Erstens": 5306,
  "\u2581Kaf": 5307,
  "\u2581Lou": 5308,
  "\u2581Versuchung": 5309,
  "8": 5310,
  "\u2581Bon": 5311,
  "\u2581Firmen": 5312,
  "\u2581Haken": 5313,
  "\u2581Sha": 5314,
  "\u2581Zelt": 5315,
  "\u2581Zy": 5316,
  "\u2581\u00f6fter": 5317,
  "lauf": 5318,
  "rei\u00dfen": 5319,
  "\u2581Viertel": 5320,
  "\u2581Einfluss": 5321,
  "\u2581Weihnachts": 5322,
  "\u2581erheben": 5323,
  "\u2581gew\u00f6hnlich": 5324,
  "\u2581linken": 5325,
  "zumachen": 5326,
  "\u2581Welch": 5327,
  "\u2581gerecht": 5328,
  "\u2581steckst": 5329,
  "\u2581\u00c4": 5330,
  "\u2581Appetit": 5331,
  "\u2581Glaubt": 5332,
  "\u2581Koma": 5333,
  "\u2581Schlie\u00df": 5334,
  "\u2581angelogen": 5335,
  "Aus": 5336,
  "bin": 5337,
  "seite": 5338,
  "st\u00e4tte": 5339,
  "z\u00fcge": 5340,
  "\u00b0": 5341,
  "\u2581Charakter": 5342,
  "\u2581Ti": 5343,
  "\u2581hinweg": 5344,
  "\u2581kauft": 5345,
  "tru": 5346,
  "\u2581Brett": 5347,
  "\u2581Cops": 5348,
  "\u2581D\u00e4monen": 5349,
  "\u2581Profi": 5350,
  "\u2581Vo": 5351,
  "\u2581erscheinen": 5352,
  "\u2581kl\u00e4ren": 5353,
  "\u2581Christian": 5354,
  "\u2581Nebel": 5355,
  "\u2581On": 5356,
  "\u2581brach": 5357,
  "ala": 5358,
  "\u2581Pilot": 5359,
  "\u2581Treffer": 5360,
  "\u2581Zer": 5361,
  "\u2581heutzutage": 5362,
  "\u2581tapfer": 5363,
  "\u0178": 5364,
  "\u2581Krise": 5365,
  "\u2581Todd": 5366,
  "\u2581Wille": 5367,
  "\u2581packen": 5368,
  "\u2581vergesse": 5369,
  "igung": 5370,
  "\u2581Sing": 5371,
  "\u2581Verdammter": 5372,
  "\u2581gesandt": 5373,
  "\u2581sexy": 5374,
  "dar": 5375,
  "\u2581trafen": 5376,
  "\u2581tritt": 5377,
  "\u2581verdammtes": 5378,
  "\u2581MANN": 5379,
  "\u2581Pl\u00f6tzlich": 5380,
  "\u2581innen": 5381,
  "AM": 5382,
  "gar": 5383,
  "\u2581Gehst": 5384,
  "\u2581Jungfrau": 5385,
  "\u2581bi": 5386,
  "ari": 5387,
  "erhalb": 5388,
  "m\u00e4": 5389,
  "schrift": 5390,
  "\u2581Pre": 5391,
  "\u2581Weiss": 5392,
  "\u2581Gab": 5393,
  "\u2581RE": 5394,
  "\u2581kannten": 5395,
  "\u2581Brady": 5396,
  "\u2581Entfernung": 5397,
  "\u2581Fu": 5398,
  "\u2581Interessant": 5399,
  "\u2581Revolution": 5400,
  "\u2581Molly": 5401,
  "\u2581Schritte": 5402,
  "\u2581Teppich": 5403,
  "\u2581daneben": 5404,
  "\u2581Atom": 5405,
  "\u2581Bibel": 5406,
  "\u2581Commander": 5407,
  "\u2581Reue": 5408,
  "\u2581korrekt": 5409,
  "fin": 5410,
  "\u2581Einstellung": 5411,
  "\u2581Gen": 5412,
  "\u2581Krankenwagen": 5413,
  "\u2581Yu": 5414,
  "\u2581tanzt": 5415,
  "alle": 5416,
  "gebiet": 5417,
  "\u2581Frankie": 5418,
  "\u2581Herein": 5419,
  "\u2581Ursache": 5420,
  "\u2581vollst\u00e4ndig": 5421,
  "\u2581wirft": 5422,
  "tze": 5423,
  "\u2581Gewinner": 5424,
  "\u2581Pool": 5425,
  "\u2581Riley": 5426,
  "\u2581bek\u00e4mpfen": 5427,
  "\u2581dar": 5428,
  "\u2581einfache": 5429,
  "\u2581schei\u00dfe": 5430,
  "RA": 5431,
  "\u2581Heiligen": 5432,
  "\u2581angeschossen": 5433,
  "\u2581irgendjemand": 5434,
  "well": 5435,
  "\u2581Lily": 5436,
  "\u2581Unterlagen": 5437,
  "\u2581grausam": 5438,
  "\u2581solch": 5439,
  "\u2581Legende": 5440,
  "\u2581Spion": 5441,
  "\u2581Wohltaten": 5442,
  "Nicht": 5443,
  "fo": 5444,
  "\u2581Annie": 5445,
  "f\u00e4": 5446,
  "lein": 5447,
  "\u2581Lu": 5448,
  "\u2581Schlangen": 5449,
  "\u2581Za": 5450,
  "\u2581merkt": 5451,
  "\u2581schreckliche": 5452,
  "\u2581verga\u00df": 5453,
  "bereit": 5454,
  "iff": 5455,
  "\u2581Explosion": 5456,
  "\u2581Schokolade": 5457,
  "\u2581Verflucht": 5458,
  "\u2581anzurufen": 5459,
  "\u2581h\u00e4ttet": 5460,
  "\u2581unangenehm": 5461,
  "\u2581verschwenden": 5462,
  "\u2581Doppel": 5463,
  "\u2581Katastrophe": 5464,
  "\u2581Prima": 5465,
  "\u2581T\u00f6te": 5466,
  "\u2581Verderben": 5467,
  "raus": 5468,
  "stadt": 5469,
  "\u2581Asche": 5470,
  "\u2581Boston": 5471,
  "\u2581St\u00f6rung": 5472,
  "\u2581erf\u00fcllen": 5473,
  "\u2581Mitarbeiter": 5474,
  "\u2581Text": 5475,
  "\u2581bar": 5476,
  "\u2581Stellt": 5477,
  "\u2581W\u00e4chter": 5478,
  "\u2581verbrennen": 5479,
  "\u2581wetten": 5480,
  "\u2581\u00fcberfallen": 5481,
  "hor": 5482,
  "tzen": 5483,
  "wechsel": 5484,
  "\u2581Sammy": 5485,
  "\u2581Umst\u00e4nde": 5486,
  "\u2581entsandt": 5487,
  "\u2581Au\u00dfen": 5488,
  "\u2581Organisation": 5489,
  "\u2581Schrott": 5490,
  "\u2581Umgebung": 5491,
  "\u2581erh\u00f6ht": 5492,
  "zo": 5493,
  "\u2581Atme": 5494,
  "\u2581Weib": 5495,
  "\u2581begonnen": 5496,
  "\u2581elf": 5497,
  "\u2581gewissen": 5498,
  "\u2581starke": 5499,
  "sitzen": 5500,
  "\u2581B\u00f6sen": 5501,
  "\u2581Musst": 5502,
  "\u2581Zoo": 5503,
  "\u2581besiegt": 5504,
  "\u2581Helm": 5505,
  "\u2581Schweigen": 5506,
  "\u2581Seltsam": 5507,
  "\u2581Lennox": 5508,
  "Le": 5509,
  "The": 5510,
  "kraft": 5511,
  "\u2581F\u00fchl": 5512,
  "\u2581Kanal": 5513,
  "\u2581liefern": 5514,
  "back": 5515,
  "satz": 5516,
  "\u2581EIN": 5517,
  "\u2581Patientin": 5518,
  "\u2581Phillip": 5519,
  "\u2581Sitzung": 5520,
  "\u2581erf\u00e4hrt": 5521,
  "\u2581reif": 5522,
  "\u2581setzte": 5523,
  "ance": 5524,
  "\u2581Bruders": 5525,
  "\u2581Ger\u00e4t": 5526,
  "\u2581UN": 5527,
  "\u2581angeblich": 5528,
  "\u2581heiligen": 5529,
  "ger\u00e4t": 5530,
  "iti": 5531,
  "way": 5532,
  "\u2581Angelegenheiten": 5533,
  "\u2581Barney": 5534,
  "\u2581Teller": 5535,
  "\u2581Angeh\u00f6rigen": 5536,
  "\u2581Konnte": 5537,
  "\u2581Nachkommen": 5538,
  "\u2581Puls": 5539,
  "\u2581Still": 5540,
  "\u2581Technik": 5541,
  "ara": 5542,
  "gehe": 5543,
  "han": 5544,
  "tri": 5545,
  "wort": 5546,
  "\u2581Ausgezeichnet": 5547,
  "\u2581Offenbar": 5548,
  "\u2581schl\u00e4fst": 5549,
  "TEN": 5550,
  "rr": 5551,
  "\u2581Korrektur": 5552,
  "\u2581L\u00f6wen": 5553,
  "\u2581Salz": 5554,
  "\u2581Schach": 5555,
  "\u2581Wallace": 5556,
  "\u2581ziehst": 5557,
  "gelassen": 5558,
  "rs": 5559,
  "\u2581Lies": 5560,
  "\u2581\u00dcbel": 5561,
  "har": 5562,
  "lieb": 5563,
  "ue": 5564,
  "\u2581Butter": 5565,
  "\u2581Ren": 5566,
  "\u2581gerissen": 5567,
  "\u2581informiert": 5568,
  "zugeben": 5569,
  "\u2581April": 5570,
  "\u2581Palast": 5571,
  "\u2581behalte": 5572,
  "\u2581w\u00fcssten": 5573,
  "tiv": 5574,
  "\u2581Garage": 5575,
  "\u2581Umst\u00e4nden": 5576,
  "\u2581deutlichen": 5577,
  "500": 5578,
  "sal": 5579,
  "\u2581Steck": 5580,
  "\u2581ausziehen": 5581,
  "ix": 5582,
  "lli": 5583,
  "werfen": 5584,
  "\u2581Zuschauer": 5585,
  "reichen": 5586,
  "stag": 5587,
  "\u2581Berichte": 5588,
  "\u2581Mon": 5589,
  "\u2581verwendet": 5590,
  "bitte": 5591,
  "lass": 5592,
  "log": 5593,
  "\u258138": 5594,
  "\u2581Kit": 5595,
  "\u2581Sah": 5596,
  "\u2581geb\u00fchrt": 5597,
  "\u2581le": 5598,
  "\u2581stimme": 5599,
  "zier": 5600,
  "\u2581Allen": 5601,
  "\u2581Boy": 5602,
  "\u2581Kopfschmerzen": 5603,
  "\u2581Leo": 5604,
  "\u2581Sch\u00fcsse": 5605,
  "\u2581Sieger": 5606,
  "\u2581Willie": 5607,
  "\u2581besiegen": 5608,
  "\u2581ca": 5609,
  "llt": 5610,
  "losigkeit": 5611,
  "u\u00df": 5612,
  "\u2581Gefangene": 5613,
  "\u2581Jedi": 5614,
  "\u2581Zirkus": 5615,
  "\u2581vorbereiten": 5616,
  "\u2581wieviel": 5617,
  "pt": 5618,
  "\u2581Aff\u00e4re": 5619,
  "\u2581Eben": 5620,
  "\u2581Truck": 5621,
  "\u2581erscheint": 5622,
  "\u2581sparen": 5623,
  "\u2581Happy": 5624,
  "\u2581Little": 5625,
  "gra": 5626,
  "tau": 5627,
  "\u2581Angesicht": 5628,
  "\u2581Einheiten": 5629,
  "ppen": 5630,
  "\u2581K\u00e4mpfer": 5631,
  "\u2581Links": 5632,
  "\u2581Null": 5633,
  "\u2581besessen": 5634,
  "\u2581derjenigen": 5635,
  "\u2581testen": 5636,
  "\u2581zugrunde": 5637,
  "Team": 5638,
  "\u2581Mafia": 5639,
  "\u2581Nahrung": 5640,
  "\u2581Vampire": 5641,
  "\u2581englisch": 5642,
  "\u2581Brieftasche": 5643,
  "\u2581L\u00e4ufer": 5644,
  "\u2581Versorgung": 5645,
  "\u2581geduldig": 5646,
  "\u2581su": 5647,
  "herr": 5648,
  "\u2581Camp": 5649,
  "\u2581Cher": 5650,
  "net": 5651,
  "out": 5652,
  "\u2581Anderen": 5653,
  "\u2581Q": 5654,
  "\u2581entschlossen": 5655,
  "llen": 5656,
  "\u2581Eid": 5657,
  "\u2581Experiment": 5658,
  "\u2581Heer": 5659,
  "\u2581Kanada": 5660,
  "\u2581K\u00f6nnt": 5661,
  "\u2581Morde": 5662,
  "\u2581glatt": 5663,
  "\u2581gleichzeitig": 5664,
  "\u2581unh\u00f6flich": 5665,
  "\u2581untersucht": 5666,
  "sta": 5667,
  "\u2581Carol": 5668,
  "\u2581Gabe": 5669,
  "\u2581Ken": 5670,
  "\u2581Pop": 5671,
  "\u2581sandten": 5672,
  "\u2581\u00dcberqueren": 5673,
  "\u2581Ey": 5674,
  "\u2581Roman": 5675,
  "\u2581Viktor": 5676,
  "\u2581unwichtig": 5677,
  "gehalten": 5678,
  "\u2581Mor": 5679,
  "\u2581Negativ": 5680,
  "\u2581Sun": 5681,
  "\u2581anstellen": 5682,
  "\u2581schlie\u00dft": 5683,
  "\u2581starben": 5684,
  "aun": 5685,
  "bus": 5686,
  "hilfe": 5687,
  "kleid": 5688,
  "\u2581Fr\u00fcchte": 5689,
  "\u2581Kindheit": 5690,
  "\u2581Schaf": 5691,
  "\u00e8": 5692,
  "\u2581Hunderte": 5693,
  "\u2581Paulie": 5694,
  "\u2581Thor": 5695,
  "\u2581hielten": 5696,
  "\u2581verdiene": 5697,
  "\u2581Santa": 5698,
  "tische": 5699,
  "tr\u00e4ger": 5700,
  "\u2581Simon": 5701,
  "\u2581Teams": 5702,
  "\u2581allesamt": 5703,
  "\u2581gekostet": 5704,
  "\u2581se": 5705,
  "7": 5706,
  "kar": 5707,
  "\u2581Einem": 5708,
  "\u2581Lex": 5709,
  "\u2581bl\u00f6den": 5710,
  "lock": 5711,
  "\u2581Jon": 5712,
  "\u2581Ross": 5713,
  "\u2581SIE": 5714,
  "\u2581Steuerbord": 5715,
  "\u2581Whistler": 5716,
  "\u2581ausgeben": 5717,
  "arbeiten": 5718,
  "dro": 5719,
  "ds": 5720,
  "ies": 5721,
  "schl\u00fcssel": 5722,
  "\u2581Barmherzig": 5723,
  "\u2581Kim": 5724,
  "yl": 5725,
  "\u2581L\u00e4rm": 5726,
  "\u2581beruhigt": 5727,
  "ax": 5728,
  "schluss": 5729,
  "\u2581Kor": 5730,
  "\u2581Kultur": 5731,
  "\u2581Reis": 5732,
  "\u2581Stift": 5733,
  "\u2581Vic": 5734,
  "\u2581daheim": 5735,
  "\u2581geflogen": 5736,
  "\u2581grad": 5737,
  "arsch": 5738,
  "ori": 5739,
  "\u2581Besch\u00fctzer": 5740,
  "\u2581Corporation": 5741,
  "\u2581Parker": 5742,
  "\u2581Walker": 5743,
  "\u2581flie\u00dfen": 5744,
  "tan": 5745,
  "\u2581Handschellen": 5746,
  "\u2581berichten": 5747,
  "\u2581l\u00e4cheln": 5748,
  "\u2581\u00fcben": 5749,
  "esf\u00fcrchtig": 5750,
  "gabe": 5751,
  "gruppe": 5752,
  "\u25811000": 5753,
  "\u2581Aufregung": 5754,
  "\u2581Sy": 5755,
  "kor": 5756,
  "spieler": 5757,
  "\u2581Jahrhundert": 5758,
  "\u2581Kette": 5759,
  "\u2581Segen": 5760,
  "\u2581Strecke": 5761,
  "\u2581betreten": 5762,
  "\u2581bezahle": 5763,
  "\u2581gesichert": 5764,
  "\u2581langsamer": 5765,
  "\u2581stirbst": 5766,
  "\u2581verabschieden": 5767,
  "Ko": 5768,
  "Zu": 5769,
  "\u2581Feier": 5770,
  "\u2581Geh\u00f6rt": 5771,
  "\u2581irren": 5772,
  "\u2581schei\u00dfegal": 5773,
  "\u2581vermute": 5774,
  "anz": 5775,
  "musik": 5776,
  "\u2581Kelly": 5777,
  "\u2581Pa\u00df": 5778,
  "\u2581Versammlung": 5779,
  "\u2581beeindruckend": 5780,
  "\u2581durchgemacht": 5781,
  "\u2581rausholen": 5782,
  "\u2581schmerzhafte": 5783,
  "\u2581studiert": 5784,
  "\u2581vertraulich": 5785,
  "\u25815.000": 5786,
  "\u2581Kongress": 5787,
  "\u2581vorw\u00e4rts": 5788,
  "Test": 5789,
  "team": 5790,
  "\u2581Enkel": 5791,
  "\u2581Mai": 5792,
  "\u2581find": 5793,
  "\u2581fliege": 5794,
  "\u2581schlag": 5795,
  "ana": 5796,
  "\u2581Durst": 5797,
  "\u2581Kunde": 5798,
  "\u2581Spielchen": 5799,
  "\u2581beibringen": 5800,
  "firma": 5801,
  "\u2581F\u00fchrerschein": 5802,
  "\u2581Sch\u00f6pfer": 5803,
  "\u2581erworben": 5804,
  "\u2581geheime": 5805,
  "sicher": 5806,
  "uk": 5807,
  "\u2581Gu": 5808,
  "\u2581Rechten": 5809,
  "\u2581S\u00fcd": 5810,
  "\u2581kennengelernt": 5811,
  "\u2581obliegt": 5812,
  "\u2581Dunkeln": 5813,
  "\u2581Normalerweise": 5814,
  "springen": 5815,
  "zahl": 5816,
  "\u2581Box": 5817,
  "\u2581Dusche": 5818,
  "\u2581Irgendwo": 5819,
  "\u2581Safe": 5820,
  "\u2581Ungerecht": 5821,
  "\u2581abgeben": 5822,
  "\u2581musstest": 5823,
  "\u2581romantisch": 5824,
  "\u2581Fehl": 5825,
  "\u2581Va": 5826,
  "\u2581pers\u00f6nlichen": 5827,
  "\u2581seltsame": 5828,
  "amt": 5829,
  "su": 5830,
  "\u2581Bla": 5831,
  "\u2581Gegenwart": 5832,
  "\u2581K\u00e4mpfe": 5833,
  "\u2581Sinne": 5834,
  "\u2581fu": 5835,
  "\u2581hierauf": 5836,
  "\u2581lebten": 5837,
  "linie": 5838,
  "\u25811:": 5839,
  "\u2581Fein": 5840,
  "\u2581Flotte": 5841,
  "\u2581Franz\u00f6sisch": 5842,
  "\u2581Mose": 5843,
  "\u2581wiederhole": 5844,
  "gesehen": 5845,
  "richten": 5846,
  "scher": 5847,
  "ule": 5848,
  "\u2581Posten": 5849,
  "\u2581erw\u00e4hnen": 5850,
  "cho": 5851,
  "\u2581Bursche": 5852,
  "\u2581bedroht": 5853,
  "\u2581miss": 5854,
  "\u2581Ausdruck": 5855,
  "\u2581Stop": 5856,
  "\u2581Temperatur": 5857,
  "tum": 5858,
  "\u2581List": 5859,
  "\u2581abnehmen": 5860,
  "\u2581DAS": 5861,
  "\u2581Gangster": 5862,
  "\u2581heilen": 5863,
  "\u2581scheiden": 5864,
  "\u2581Anscheinend": 5865,
  "\u2581Hal": 5866,
  "\u2581Hierauf": 5867,
  "\u2581Jennifer": 5868,
  "42": 5869,
  "\u2581Jobs": 5870,
  "\u2581hinunter": 5871,
  "\u2581Bestimmung": 5872,
  "treffen": 5873,
  "\u2581Hunt": 5874,
  "\u2581Kram": 5875,
  "\u2581Wild": 5876,
  "\u2581gekannt": 5877,
  "\u2581sicherer": 5878,
  "\u2581steig": 5879,
  "ac": 5880,
  "\u2581Bryan": 5881,
  "\u2581Transport": 5882,
  "\u2581interessante": 5883,
  "\u2581schweigen": 5884,
  "\u2581verschiedenen": 5885,
  "ES": 5886,
  "\u2581Gordon": 5887,
  "\u2581Simone": 5888,
  "\u2581seitdem": 5889,
  "\u2581verwenden": 5890,
  "Gut": 5891,
  "lf": 5892,
  "\u2581M\u00f6gen": 5893,
  "\u2581gemerkt": 5894,
  "\u2581Internet": 5895,
  "\u2581Ladys": 5896,
  "\u2581j\u00fcnger": 5897,
  "\u2581regeln": 5898,
  "\u2581reingelegt": 5899,
  "\u25813-": 5900,
  "\u2581Kern": 5901,
  "\u2581schuldest": 5902,
  "\u2581segne": 5903,
  "OM": 5904,
  "ast": 5905,
  "\u2581Anzeige": 5906,
  "\u2581H\u00f6hle": 5907,
  "\u2581Liebst": 5908,
  "\u2581angezogen": 5909,
  "\u2581erstmal": 5910,
  "karte": 5911,
  "pass": 5912,
  "\u2581Gro\u00dfen": 5913,
  "\u2581Krawatte": 5914,
  "\u2581Sohnes": 5915,
  "\u2581heftig": 5916,
  "gi": 5917,
  "hielt": 5918,
  "\u2581Gr\u00fcnden": 5919,
  "\u2581Therapie": 5920,
  "\u2581Verwandten": 5921,
  "\u2581gel\u00f6st": 5922,
  "\u2581zugeben": 5923,
  "flug": 5924,
  "\u2581T\u00f6tet": 5925,
  "\u2581Ver\u00e4nderung": 5926,
  "gal": 5927,
  "\u2581At": 5928,
  "\u2581Drohne": 5929,
  "\u2581M\u00f6ge": 5930,
  "\u2581Palmer": 5931,
  "\u2581Sandwich": 5932,
  "\u2581S\u00fc\u00dfer": 5933,
  "\u2581aufh\u00f6rt": 5934,
  "\u2581suchte": 5935,
  "\u2581verlasse": 5936,
  "\u2581verr\u00fcckte": 5937,
  "h\u00e4ngen": 5938,
  "\u00e4nde": 5939,
  "\u2581Juli": 5940,
  "\u2581Mode": 5941,
  "\u2581River": 5942,
  "\u2581abgehauen": 5943,
  "\u2581befreit": 5944,
  "\u2581ersetzen": 5945,
  "\u2581gek\u00fcsst": 5946,
  "\u2581nennst": 5947,
  "\u2581ungew\u00f6hnlich": 5948,
  "\u2581verabredet": 5949,
  "kam": 5950,
  "sinn": 5951,
  "\u2581Beute": 5952,
  "\u2581Duke": 5953,
  "\u2581Einverstanden": 5954,
  "\u2581Morgan": 5955,
  "\u2581Verkehr": 5956,
  "\u2581Cameron": 5957,
  "\u2581Hafen": 5958,
  "\u2581Janet": 5959,
  "\u2581Symptome": 5960,
  "\u2581Verfassung": 5961,
  "\u2581planen": 5962,
  "\u2581weggehen": 5963,
  "La": 5964,
  "h\u00fc": 5965,
  "\u2581Ausbildung": 5966,
  "\u2581Ernsthaft": 5967,
  "\u2581Hattest": 5968,
  "\u2581au\u00dfen": 5969,
  "\u2581entwickeln": 5970,
  "\u2581gr": 5971,
  "\u2581w\u00fcrd": 5972,
  "\u2581August": 5973,
  "\u2581Fo": 5974,
  "\u2581Kindes": 5975,
  "\u2581lauf": 5976,
  "Ibra": 5977,
  "\u2581gew\u00fcnscht": 5978,
  "\u2581h\u00f6flich": 5979,
  "Dr": 5980,
  "OW": 5981,
  "\u2581Begegnung": 5982,
  "\u2581aussteigen": 5983,
  "Hier": 5984,
  "gelaufen": 5985,
  "\u2581Ellen": 5986,
  "\u2581K\u00f6nige": 5987,
  "\u2581verlierst": 5988,
  "krieg": 5989,
  "sagen": 5990,
  "utsch": 5991,
  "\u2581Detektiv": 5992,
  "\u2581Pr\u00fcfung": 5993,
  "\u2581Welle": 5994,
  "\u2581aufmerksam": 5995,
  "\u2581freie": 5996,
  "\u2581wundersch\u00f6ne": 5997,
  "\u2581\u00dcberleben": 5998,
  "l\u00e4sst": 5999,
  "\u2581Bre": 6000,
  "\u2581Dummkopf": 6001,
  "\u2581Humor": 6002,
  "\u2581Sucht": 6003,
  "\u2581goldene": 6004,
  "\u2581\u00dcberfall": 6005,
  "greif": 6006,
  "j\u00e4hrigen": 6007,
  "wi": 6008,
  "\u2581Ger\u00fcchte": 6009,
  "\u2581Training": 6010,
  "\u2581such": 6011,
  "-1": 6012,
  "ander": 6013,
  "ez": 6014,
  "\u2581Abschluss": 6015,
  "\u2581Lizenz": 6016,
  "\u2581Satz": 6017,
  "\u2581abwenden": 6018,
  "\u2581erneut": 6019,
  "\u2581fremd": 6020,
  "tragen": 6021,
  "\u2581Autor": 6022,
  "\u2581Jules": 6023,
  "\u2581Prophet": 6024,
  "uff": 6025,
  "\u2581Mickey": 6026,
  "\u2581aufgefallen": 6027,
  "\u2581jahrelang": 6028,
  "\u2581legal": 6029,
  "20": 6030,
  "gefahren": 6031,
  "reise": 6032,
  "\u2581Laune": 6033,
  "\u2581Lieferung": 6034,
  "\u2581erkennt": 6035,
  "\u2581\u00fcbersehen": 6036,
  "ide": 6037,
  "ju": 6038,
  "\u258118.": 6039,
  "\u2581Sta": 6040,
  "\u2581]": 6041,
  "\u2581schaue": 6042,
  "MS": 6043,
  "RI": 6044,
  "mmel": 6045,
  "ob": 6046,
  "sichtlich": 6047,
  "\u258117.": 6048,
  "\u2581Burg": 6049,
  "pon": 6050,
  "\u2581beweist": 6051,
  "\u2581dick": 6052,
  "\u2581weibliche": 6053,
  "ial": 6054,
  "\u25819.": 6055,
  "\u2581Marvin": 6056,
  "\u2581Maus": 6057,
  "\u2581Piraten": 6058,
  "\u2581Steak": 6059,
  "\u2581plus": 6060,
  "\u2581zur\u00fcckgekommen": 6061,
  "seitigen": 6062,
  "\u2581Group": 6063,
  "\u2581Klienten": 6064,
  "\u2581Narren": 6065,
  "\u2581d\u00fcnn": 6066,
  "Ie": 6067,
  "\u2581Kam": 6068,
  "\u2581Tatort": 6069,
  "\u2581Werbung": 6070,
  "\u2581herrscht": 6071,
  "\u2581h\u00f6rten": 6072,
  "Sache": 6073,
  "\u2581Auftritt": 6074,
  "\u2581Che": 6075,
  "\u2581Flur": 6076,
  "\u2581allzu": 6077,
  "\u2581getrieben": 6078,
  "ney": 6079,
  "\u2581F\u00e4higkeiten": 6080,
  "\u2581Reifen": 6081,
  "\u2581anruft": 6082,
  "beh\u00f6rde": 6083,
  "board": 6084,
  "macher": 6085,
  "\u2581Alexander": 6086,
  "\u2581blauen": 6087,
  "\u2581t\u00f6dlich": 6088,
  "\u2581Buck": 6089,
  "\u2581Hmm": 6090,
  "\u2581Over": 6091,
  "\u2581Volkes": 6092,
  "\u2581kontrolliert": 6093,
  "\u2581Schwarzen": 6094,
  "\u2581T\u00fcte": 6095,
  "\u2581Vorsichtig": 6096,
  "kammer": 6097,
  "\u2581Casino": 6098,
  "\u2581Kameras": 6099,
  "\u2581Wall": 6100,
  "\u2581entworfen": 6101,
  "\u2581Universum": 6102,
  "\u2581momentan": 6103,
  "pol": 6104,
  "rk": 6105,
  "trick": 6106,
  "\u2581Psycho": 6107,
  "\u2581ausgezeichnet": 6108,
  "\u2581schlief": 6109,
  "\u2581unge": 6110,
  "220": 6111,
  "lan": 6112,
  "lve": 6113,
  "maschine": 6114,
  "red": 6115,
  "wahl": 6116,
  "\u2581Tipp": 6117,
  "\u2581angeboten": 6118,
  "\u2581geleistet": 6119,
  "EIN": 6120,
  "stra\u00dfe": 6121,
  "\u2581K\u00fchlschrank": 6122,
  "\u2581angenehm": 6123,
  "-4": 6124,
  "ME": 6125,
  "\u2581Anne": 6126,
  "\u2581Deiner": 6127,
  "\u2581Eingang": 6128,
  "\u2581Rand": 6129,
  "\u2581festhalten": 6130,
  "\u2581gr\u00f6\u00dfere": 6131,
  "\u2581liebsten": 6132,
  "abend": 6133,
  "\u2581Hall": 6134,
  "\u2581Nadel": 6135,
  "\u2581Nieder": 6136,
  "\u2581erstaunlich": 6137,
  "\u2581klaren": 6138,
  "\u2581zuviel": 6139,
  "tiere": 6140,
  "\u2581Anzahl": 6141,
  "\u2581Jammer": 6142,
  "\u2581Kehle": 6143,
  "\u2581gefickt": 6144,
  "\u2581stecke": 6145,
  "\u2581wichtigen": 6146,
  "bett": 6147,
  "oo": 6148,
  "\u2581B\u00e4che": 6149,
  "\u2581Charlotte": 6150,
  "\u2581Eher": 6151,
  "\u2581begegnen": 6152,
  "\u2581k\u00f6nne": 6153,
  "\u2581schlechtes": 6154,
  "\u2581Amt": 6155,
  "\u2581Erbe": 6156,
  "\u2581Franzosen": 6157,
  "\u2581Tracy": 6158,
  "spielen": 6159,
  "\u2581Versteh": 6160,
  "RT": 6161,
  "ie\u00df": 6162,
  "\u2581Kleinen": 6163,
  "\u2581R\u00e4tsel": 6164,
  "\u2581k\u00e4mpfe": 6165,
  "\u2581schlimmsten": 6166,
  "kurs": 6167,
  "\u2581Gerichts": 6168,
  "\u2581Speise": 6169,
  "\u2581Versprich": 6170,
  "\u2581Xan": 6171,
  "\u2581breit": 6172,
  "\u2581zur\u00fcckbringen": 6173,
  "\u2581Falsch": 6174,
  "\u2581Front": 6175,
  "\u2581Geh\u00f6r": 6176,
  "\u2581Kaum": 6177,
  "\u2581anh\u00f6ren": 6178,
  "\u2581flog": 6179,
  "\u2581schuldet": 6180,
  "tieren": 6181,
  "\u2581Apartment": 6182,
  "\u2581gem\u00fctlich": 6183,
  "sborne": 6184,
  "\u2581Aktien": 6185,
  "\u2581Spa": 6186,
  "\u2581Turm": 6187,
  "\u2581weint": 6188,
  "\u2581wunderbare": 6189,
  "US": 6190,
  "esten": 6191,
  "\u2581Lawrence": 6192,
  "\u2581Lhre": 6193,
  "\u2581L\u00e4s": 6194,
  "\u2581Tina": 6195,
  "\u2581Ware": 6196,
  "\u2581brillant": 6197,
  "halt": 6198,
  "\u2581Sydney": 6199,
  "\u2581Tur": 6200,
  "\u2581Wichtiges": 6201,
  "\u2581rate": 6202,
  "werte": 6203,
  "\u2581Flugzeuge": 6204,
  "\u2581Jay": 6205,
  "\u2581Prost": 6206,
  "\u2581Qualit\u00e4t": 6207,
  "\u2581Road": 6208,
  "\u2581Sehe": 6209,
  "\u2581fi": 6210,
  "\u2581herbei": 6211,
  "FF": 6212,
  "huh": 6213,
  "llwissend": 6214,
  "\u2581Ansicht": 6215,
  "\u2581Hy": 6216,
  "\u2581Jordan": 6217,
  "\u2581bietet": 6218,
  "\u2581h\u00f6chst": 6219,
  "\u2581your": 6220,
  "Ab": 6221,
  "Dollar": 6222,
  "last": 6223,
  "oren": 6224,
  "rate": 6225,
  "\u2581Banken": 6226,
  "\u2581Sally": 6227,
  "\u2581Verst\u00e4ndnis": 6228,
  "\u2581jegliche": 6229,
  "\u2581Amsterdam": 6230,
  "\u2581Geheimdienst": 6231,
  "\u2581Geiseln": 6232,
  "\u2581Moral": 6233,
  "\u2581Ungef\u00e4hr": 6234,
  "\u2581entspannen": 6235,
  "\u2581geirrt": 6236,
  "\u2581reingehen": 6237,
  "b\u00fcro": 6238,
  "ple": 6239,
  "\u2581Bedingungen": 6240,
  "\u2581Bewusstsein": 6241,
  "\u2581Papi": 6242,
  "\u2581Vergleich": 6243,
  "\u2581Werkzeug": 6244,
  "\u2581abhalten": 6245,
  "\u2581glaubten": 6246,
  "\u2581go": 6247,
  "sack": 6248,
  "\u2581Christus": 6249,
  "\u2581Ereignisse": 6250,
  "\u2581Harold": 6251,
  "\u2581Interview": 6252,
  "\u2581Kofferraum": 6253,
  "\u2581Spinn": 6254,
  "\u2581ausruhen": 6255,
  "\u2581durfte": 6256,
  "\u2581geschnappt": 6257,
  "\u2581verschlossen": 6258,
  "CHEN": 6259,
  "RO": 6260,
  "geschichte": 6261,
  "st\u00e4ndig": 6262,
  "\u2581Tritt": 6263,
  "\u2581gesamten": 6264,
  "\u2581weiteres": 6265,
  "Mit": 6266,
  "\u2581Abby": 6267,
  "\u2581Anzeichen": 6268,
  "\u2581Entwicklung": 6269,
  "\u2581Sach": 6270,
  "\u2581Straf": 6271,
  "\u2581ausgebildet": 6272,
  "\u2581ausgesucht": 6273,
  "\u2581unterst\u00fctzt": 6274,
  "bra": 6275,
  "\u2581Blume": 6276,
  "\u2581Dog": 6277,
  "\u2581Revolver": 6278,
  "\u2581Ruft": 6279,
  "\u2581Tri": 6280,
  "\u2581400": 6281,
  "\u2581Ladies": 6282,
  "\u2581Objekt": 6283,
  "\u2581Sternen": 6284,
  "\u2581Trans": 6285,
  "\u2581existieren": 6286,
  "\u2581nebenan": 6287,
  "\u2581stabil": 6288,
  "mmt": 6289,
  "\u2581Aah": 6290,
  "\u2581Abraham": 6291,
  "\u2581Mikro": 6292,
  "\u2581Mitglieder": 6293,
  "\u2581Rakete": 6294,
  "\u2581Sprung": 6295,
  "\u2581allwissend": 6296,
  "\u2581endg\u00fcltig": 6297,
  "\u2581jener": 6298,
  "\u2581nutzlos": 6299,
  "\u2581t\u00e4uschen": 6300,
  "\u25812-": 6301,
  "\u2581Bev\u00f6lkerung": 6302,
  "\u2581Legt": 6303,
  "\u2581Martini": 6304,
  "\u2581Mordes": 6305,
  "\u2581Schlafen": 6306,
  "\u2581errettet": 6307,
  "\u2581feige": 6308,
  "\u2581geladen": 6309,
  "\u2581Benjamin": 6310,
  "\u2581Meeting": 6311,
  "\u2581Segel": 6312,
  "stern": 6313,
  "\u2581Army": 6314,
  "\u2581Technologie": 6315,
  "\u2581bezweifle": 6316,
  "\u2581lernte": 6317,
  "\u2581lob": 6318,
  "geschlagen": 6319,
  "\u2581G\u00f6ttern": 6320,
  "\u2581IST": 6321,
  "\u2581Sheldon": 6322,
  "\u2581Willow": 6323,
  "\u2581beeil": 6324,
  "\u2581informieren": 6325,
  "setzt": 6326,
  "\u2581Cal": 6327,
  "\u2581Kaninchen": 6328,
  "\u2581Mistst\u00fcck": 6329,
  "\u2581Schnaps": 6330,
  "\u2581Schrecken": 6331,
  "\u2581Telegramm": 6332,
  "\u2581Alpha": 6333,
  "\u2581Hans": 6334,
  "\u2581Zerst\u00f6rung": 6335,
  "\u2581Zeugnis": 6336,
  "\u2581berichtet": 6337,
  "\u2581hilfst": 6338,
  "\u2581soeben": 6339,
  "\u2581\u00d6ffnen": 6340,
  "\u2581Earl": 6341,
  "\u2581Esel": 6342,
  "\u2581Mini": 6343,
  "\u2581Taylor": 6344,
  "\u2581lm": 6345,
  "rad": 6346,
  "\u2581entschuldigt": 6347,
  "\u2581fang": 6348,
  "\u2581getestet": 6349,
  "\u00b6": 6350,
  "\u2581Cola": 6351,
  "\u2581Donner": 6352,
  "\u2581Folgendes": 6353,
  "\u2581Gene": 6354,
  "\u2581Generation": 6355,
  "\u2581Hexen": 6356,
  "\u2581Kummer": 6357,
  "\u2581Perry": 6358,
  "\u2581Rettung": 6359,
  "\u2581Universit\u00e4t": 6360,
  "\u2581Verkehrs": 6361,
  "\u2581arm": 6362,
  "\u2581gerichtet": 6363,
  "ass": 6364,
  "ral": 6365,
  "\u2581Heirat": 6366,
  "\u2581Judy": 6367,
  "\u2581Vorstand": 6368,
  "\u2581betreiben": 6369,
  "\u2581fa": 6370,
  "euch": 6371,
  "\u2581Klavier": 6372,
  "\u2581Ram": 6373,
  "\u2581bestimmen": 6374,
  "\u2581definitiv": 6375,
  "\u2581ruhen": 6376,
  "\u2581unsichtbar": 6377,
  "\u2581Brunnen": 6378,
  "\u2581East": 6379,
  "\u2581Nutte": 6380,
  "\u2581Nutz": 6381,
  "\u2581Schnapp": 6382,
  "\u2581Steph": 6383,
  "\u2581erwiesen": 6384,
  "\u2581w\u00e4chst": 6385,
  "\u2581Daisy": 6386,
  "\u2581Donna": 6387,
  "\u2581Gehalt": 6388,
  "\u2581Sawyer": 6389,
  "\u2581Tank": 6390,
  "\u2581can": 6391,
  "\u2581diskutieren": 6392,
  "\u2581kaufte": 6393,
  "\u2581k\u00f6stlich": 6394,
  "Ca": 6395,
  "lung": 6396,
  "sky": 6397,
  "\u2581En": 6398,
  "\u2581Kalt": 6399,
  "\u2581Schar": 6400,
  "\u2581Spanisch": 6401,
  "\u2581daB": 6402,
  "\u2581di": 6403,
  "ING": 6404,
  "tank": 6405,
  "\u2581J\u00e4gerin": 6406,
  "\u2581Mu": 6407,
  "\u2581Sektor": 6408,
  "\u2581Weltkrieg": 6409,
  "\u2581derselben": 6410,
  "dass": 6411,
  "geschickt": 6412,
  "ord": 6413,
  "\u2581Aktion": 6414,
  "\u2581End": 6415,
  "\u2581Vereinigte": 6416,
  "\u2581Wehe": 6417,
  "\u2581aufwachen": 6418,
  "\u2581flehe": 6419,
  "\u2581gefiel": 6420,
  "\u2581plant": 6421,
  "\u2581s\u00fc\u00dfe": 6422,
  "Ra": 6423,
  "bert": 6424,
  "seitige": 6425,
  "\u2581Jeffrey": 6426,
  "\u2581d\u00e4mlich": 6427,
  "\u2581garantiert": 6428,
  "\u2581pers\u00f6nliche": 6429,
  "\u2581vergiftet": 6430,
  "cu": 6431,
  "handel": 6432,
  "\u2581Baseball": 6433,
  "\u2581B\u00e4ren": 6434,
  "\u2581Toast": 6435,
  "\u2581keins": 6436,
  "\u2581verderben": 6437,
  "Do": 6438,
  "\u2581Grau": 6439,
  "\u2581Marcus": 6440,
  "\u2581Pl\u00e4tze": 6441,
  "\u2581Tolle": 6442,
  "\u2581telefoniert": 6443,
  "60": 6444,
  "\u2581Caroline": 6445,
  "\u2581Joker": 6446,
  "\u2581Letztes": 6447,
  "\u2581achten": 6448,
  "\u2581aufgewachsen": 6449,
  "\u2581entsprechend": 6450,
  "\u2581tr": 6451,
  "\u2581versprach": 6452,
  "lyn": 6453,
  "tar": 6454,
  "\u2581Mauern": 6455,
  "\u2581Miete": 6456,
  "\u2581Pablo": 6457,
  "\u2581Produkt": 6458,
  "\u2581Replikanten": 6459,
  "\u2581Riz": 6460,
  "\u2581Seymour": 6461,
  "\u2581Tabak": 6462,
  "\u2581vermasselt": 6463,
  "\u2581Badezimmer": 6464,
  "\u2581Einbruch": 6465,
  "\u2581Gestalt": 6466,
  "\u2581Kommandant": 6467,
  "\u2581eintreten": 6468,
  "0.000": 6469,
  "kal": 6470,
  "pu": 6471,
  "\u2581Anblick": 6472,
  "\u2581Bedrohung": 6473,
  "\u2581Versicherung": 6474,
  "\u2581widerlich": 6475,
  "hafte": 6476,
  "horn": 6477,
  "\u2581Psychiater": 6478,
  "\u2581Stirn": 6479,
  "\u2581Wirkung": 6480,
  "\u2581bete": 6481,
  "\u2581schweren": 6482,
  "ete": 6483,
  "\u2581Elvis": 6484,
  "\u2581Falsche": 6485,
  "\u2581Friede": 6486,
  "\u2581Inter": 6487,
  "\u2581School": 6488,
  "\u2581Streich": 6489,
  "\u2581klauen": 6490,
  "burg": 6491,
  "erst": 6492,
  "pla": 6493,
  "\u2581Friedens": 6494,
  "\u2581Geschwindigkeit": 6495,
  "\u2581Hasen": 6496,
  "\u2581Justin": 6497,
  "\u2581T\u00e4ter": 6498,
  "\u2581Whoa": 6499,
  "\u2581beides": 6500,
  "\u2581bemerken": 6501,
  "Bo": 6502,
  "sichtig": 6503,
  "\u2581Quellen": 6504,
  "\u2581Verhandlung": 6505,
  "\u2581Wichtigste": 6506,
  "\u2581billig": 6507,
  "m\u00e4nner": 6508,
  "\u2581eingestellt": 6509,
  "\u2581gekocht": 6510,
  "kin": 6511,
  "lacht": 6512,
  "wesen": 6513,
  "\u2581Italien": 6514,
  "\u2581Wunde": 6515,
  "schauen": 6516,
  "\u2581Ausr\u00fcstung": 6517,
  "\u2581Flagge": 6518,
  "\u2581Junior": 6519,
  "\u2581Service": 6520,
  "\u2581Versuche": 6521,
  "CHT": 6522,
  "iko": 6523,
  "\u00e4ch": 6524,
  "\u2581Betr\u00fcger": 6525,
  "\u2581Ergebnisse": 6526,
  "\u2581Extra": 6527,
  "\u2581Genauso": 6528,
  "\u2581Treue": 6529,
  "dies": 6530,
  "gelt": 6531,
  "nnen": 6532,
  "sache": 6533,
  "\u2581Fleck": 6534,
  "\u2581Gerede": 6535,
  "\u2581Julie": 6536,
  "\u2581Liz": 6537,
  "\u2581Tumor": 6538,
  "\u2581geboten": 6539,
  "192": 6540,
  "fu": 6541,
  "val": 6542,
  "\u2581D\u00fcrfte": 6543,
  "\u2581Ernte": 6544,
  "\u2581Hobby": 6545,
  "\u2581Kriege": 6546,
  "\u2581springt": 6547,
  "\u2581umlegen": 6548,
  "\u2581wende": 6549,
  "besitzer": 6550,
  "fuhr": 6551,
  "iss": 6552,
  "star": 6553,
  "\u2581Bert": 6554,
  "\u2581Betracht": 6555,
  "\u2581Logan": 6556,
  "12": 6557,
  "h\u00f6rend": 6558,
  "preis": 6559,
  "vis": 6560,
  "\u258136": 6561,
  "\u2581Kansas": 6562,
  "\u2581Total": 6563,
  "\u2581Verd\u00e4chtigen": 6564,
  "\u2581gefasst": 6565,
  "\u2581k\u00fcrzlich": 6566,
  "ai": 6567,
  "schreit": 6568,
  "\u2581Brenn": 6569,
  "\u2581Bundes": 6570,
  "\u2581Kennt": 6571,
  "\u2581Regisseur": 6572,
  "\u2581Zaun": 6573,
  "\u2581schw\u00f6r": 6574,
  "\u2581Arten": 6575,
  "\u2581Call": 6576,
  "\u2581Kal": 6577,
  "\u2581Sperr": 6578,
  "\u2581ignorieren": 6579,
  "boot": 6580,
  "ons": 6581,
  "use": 6582,
  "\u2581Schauspielerin": 6583,
  "\u2581Tess": 6584,
  "\u2581gefreut": 6585,
  "\u2581vermeiden": 6586,
  "f\u00fc": 6587,
  "uns": 6588,
  "\u2581Iss": 6589,
  "\u2581Pers\u00f6nlichkeit": 6590,
  "\u2581Renn": 6591,
  "\u2581Rohr": 6592,
  "\u2581blaue": 6593,
  "\u2581gek\u00fcmmert": 6594,
  "gg": 6595,
  "\u2581H\u00e4lt": 6596,
  "\u2581Jackie": 6597,
  "\u2581verschwand": 6598,
  "Junge": 6599,
  "j\u00e4hrige": 6600,
  "\u2581Dallas": 6601,
  "\u2581Julian": 6602,
  "\u2581Knoten": 6603,
  "\u2581Schachtel": 6604,
  "\u2581ersch\u00f6pft": 6605,
  "\u2581vergib": 6606,
  "El": 6607,
  "ish": 6608,
  "schrei": 6609,
  "\u2581Fremde": 6610,
  "\u2581gebissen": 6611,
  "\u2581harten": 6612,
  "\u2581\u00fcberwachen": 6613,
  "2.": 6614,
  "25": 6615,
  "Ho": 6616,
  "tiert": 6617,
  "\u2581Babe": 6618,
  "\u2581Chan": 6619,
  "ani": 6620,
  "uddy": 6621,
  "\u2581Protokoll": 6622,
  "\u2581verdienst": 6623,
  "Spiel": 6624,
  "gef\u00fchl": 6625,
  "ucht": 6626,
  "uck": 6627,
  "wendet": 6628,
  "\u2581Anweisung": 6629,
  "\u2581Erinner": 6630,
  "\u2581Greif": 6631,
  "\u2581meldet": 6632,
  "Li": 6633,
  "more": 6634,
  "\u2581Trotz": 6635,
  "\u2581Weit": 6636,
  "\u2581besetzt": 6637,
  "\u2581verwundet": 6638,
  "NE": 6639,
  "\u2581Sekret\u00e4rin": 6640,
  "\u2581Shane": 6641,
  "\u2581gedauert": 6642,
  "\u2581ges": 6643,
  "\u2581gew\u00e4hren": 6644,
  "\u2581stopp": 6645,
  "\u2581Tropfen": 6646,
  "\u2581gefesselt": 6647,
  "\u2581h\u00e4ufig": 6648,
  "\u2581riskant": 6649,
  "\u2581Navy": 6650,
  "\u2581Rechtschaffen": 6651,
  "\u2581deutliche": 6652,
  "\u2581sa": 6653,
  "\u2581tauschen": 6654,
  "lie\u00df": 6655,
  "ose": 6656,
  "ration": 6657,
  "trag": 6658,
  "zuf\u00fchren": 6659,
  "\u2581Lauft": 6660,
  "\u2581Museum": 6661,
  "\u2581beschreiben": 6662,
  "\u2581dachtest": 6663,
  "\u2581ex": 6664,
  "\u2581st\u00fcrzen": 6665,
  "\u2581trink": 6666,
  "rik": 6667,
  "\u2581Farben": 6668,
  "\u2581Force": 6669,
  "\u2581Mars": 6670,
  "\u2581St\u00f6rt": 6671,
  "\u2581dank": 6672,
  "\u2581seist": 6673,
  "Eine": 6674,
  "dis": 6675,
  "\u2581Finanz": 6676,
  "\u2581Ork": 6677,
  "\u2581Spar": 6678,
  "\u2581Telefonnummer": 6679,
  "\u2581Unterhalt": 6680,
  "\u2581benehmen": 6681,
  "nte": 6682,
  "\u2581Amanda": 6683,
  "\u2581Leistung": 6684,
  "\u2581Th": 6685,
  "\u2581Whisky": 6686,
  "\u2581eingesetzt": 6687,
  "\u2581einzelnen": 6688,
  "\u2581sprang": 6689,
  "mord": 6690,
  "ola": 6691,
  "sto\u00df": 6692,
  "\u2581Juliet": 6693,
  "\u2581Kapiert": 6694,
  "\u2581m\u00f6glicherweise": 6695,
  "bleiben": 6696,
  "irren": 6697,
  "\u258114.": 6698,
  "\u2581Figur": 6699,
  "\u2581Kost\u00fcm": 6700,
  "\u2581Lunge": 6701,
  "\u2581explodiert": 6702,
  "\u2581null": 6703,
  "\u2581W\u00fcnsche": 6704,
  "ime": 6705,
  "oli": 6706,
  "schicken": 6707,
  "\u2581Blake": 6708,
  "\u2581Ferien": 6709,
  "\u2581South": 6710,
  "\u2581aktiviert": 6711,
  "\u2581akzeptiert": 6712,
  "\u2581dunklen": 6713,
  "\u2581erweisen": 6714,
  "\u2581verlesen": 6715,
  "\u2581versammeln": 6716,
  "\u258128": 6717,
  "\u2581BR": 6718,
  "\u2581Duell": 6719,
  "\u2581Krone": 6720,
  "\u2581Weiber": 6721,
  "\u2581bereiten": 6722,
  "\u2581gen": 6723,
  "\u2581heutigen": 6724,
  "\u2581k\u00f6nigliche": 6725,
  "\u2581s\u00e4mtliche": 6726,
  "\u2581tr\u00e4umen": 6727,
  "Alles": 6728,
  "\u2581Gummi": 6729,
  "\u2581fr\u00f6hlich": 6730,
  "io": 6731,
  "sort": 6732,
  "trau": 6733,
  "\u2581Landung": 6734,
  "\u2581Long": 6735,
  "\u2581Randall": 6736,
  "\u2581Tsch\u00fcs": 6737,
  "\u2581heisst": 6738,
  "bereich": 6739,
  "\u2581Beh\u00f6rden": 6740,
  "\u2581Bibliothek": 6741,
  "\u2581Entf\u00fchrung": 6742,
  "\u2581Merk": 6743,
  "\u2581beteiligt": 6744,
  "\u2581leere": 6745,
  "\u2581nachsehen": 6746,
  "Zeit": 6747,
  "blick": 6748,
  "gesicht": 6749,
  "kind": 6750,
  "\u2581Aufzug": 6751,
  "\u2581Butler": 6752,
  "\u2581Patrick": 6753,
  "\u2581Rate": 6754,
  "\u2581abgelehnt": 6755,
  "\u2581ankommen": 6756,
  "\u2581verfluchte": 6757,
  "\u2581verpflichtet": 6758,
  "\u2581wehgetan": 6759,
  "frage": 6760,
  "\u2581Applaus": 6761,
  "\u2581Kar": 6762,
  "\u2581Tradition": 6763,
  "Keine": 6764,
  "gefallen": 6765,
  "probleme": 6766,
  "\u2581Anders": 6767,
  "\u2581Ankunft": 6768,
  "\u2581b\u00f6ser": 6769,
  "\u2581leeren": 6770,
  "\u2581n\u00e4hert": 6771,
  "alit\u00e4t": 6772,
  "\u00e4cht": 6773,
  "\u2581150": 6774,
  "\u2581Admiral": 6775,
  "\u2581Clown": 6776,
  "\u2581Ginger": 6777,
  "\u2581Gl\u00fccks": 6778,
  "\u2581half": 6779,
  "\u2581herrlich": 6780,
  "\u2581schaff": 6781,
  "ada": 6782,
  "gegen": 6783,
  "k\u00f6rper": 6784,
  "schild": 6785,
  "\u2581Ethan": 6786,
  "\u2581Freundinnen": 6787,
  "\u2581Pol": 6788,
  "\u2581taucht": 6789,
  "BER": 6790,
  "kreuz": 6791,
  "zone": 6792,
  "\u2581Gro\u00dfes": 6793,
  "\u2581Leine": 6794,
  "\u2581NICHT": 6795,
  "\u2581Seitdem": 6796,
  "\u2581Terror": 6797,
  "\u2581Wh": 6798,
  "\u2581wandte": 6799,
  "\u2581\u00f6ffentliche": 6800,
  "01": 6801,
  "bare": 6802,
  "haut": 6803,
  "rst": 6804,
  "w\u00e4rts": 6805,
  "\u2581Feuers": 6806,
  "\u2581Hugo": 6807,
  "\u2581gefehlt": 6808,
  "\u2581hattet": 6809,
  "\u2581reg": 6810,
  "anten": 6811,
  "\u2581Ausland": 6812,
  "\u2581Bond": 6813,
  "\u2581Heuchler": 6814,
  "\u2581ermahn": 6815,
  "\u2581internationale": 6816,
  "\u2581sicheren": 6817,
  "kundig": 6818,
  "ruf": 6819,
  "\u2581Ergebnis": 6820,
  "\u2581aufrecht": 6821,
  "\u2581schulden": 6822,
  "\u2581zur\u00fcckgehen": 6823,
  "\u2581\u00dcberhaupt": 6824,
  "fle": 6825,
  "zahlen": 6826,
  "\u2581Honig": 6827,
  "\u2581Pfadfinder": 6828,
  "\u2581nationale": 6829,
  "\u2581wa": 6830,
  "este": 6831,
  "nahm": 6832,
  "zuhalten": 6833,
  "\u2581Tore": 6834,
  "\u2581Verfahren": 6835,
  "\u2581Warren": 6836,
  "\u2581entscheidet": 6837,
  "\u2581fr": 6838,
  "\u2581wiederzusehen": 6839,
  "\u2581zur\u00fcckkommt": 6840,
  "\u2581Barbara": 6841,
  "\u2581Gal": 6842,
  "\u2581Scham": 6843,
  "\u2581erkenne": 6844,
  "\u2581guck": 6845,
  "\u2581lernst": 6846,
  "acht": 6847,
  "\u258119.": 6848,
  "\u2581Cooper": 6849,
  "\u2581Zustimmung": 6850,
  "\u2581f\u00fcllen": 6851,
  "\u2581leidet": 6852,
  "felsohne": 6853,
  "leute": 6854,
  "sage": 6855,
  "\u2581Friedhof": 6856,
  "\u2581Gro": 6857,
  "\u2581Hor": 6858,
  "\u2581Huren": 6859,
  "\u2581Unbe": 6860,
  "\u2581Wichtig": 6861,
  "\u2581friedlich": 6862,
  "blut": 6863,
  "\u2581Anton": 6864,
  "\u2581Genie\u00df": 6865,
  "\u2581Hausaufgaben": 6866,
  "\u2581Kennedy": 6867,
  "\u2581Mari": 6868,
  "\u2581Nina": 6869,
  "\u2581Stephanie": 6870,
  "\u2581auftauchen": 6871,
  "\u2581biete": 6872,
  "\u2581intelligent": 6873,
  "STE": 6874,
  "ativ": 6875,
  "lst": 6876,
  "\u2581Bay": 6877,
  "\u2581Bu": 6878,
  "\u2581Erster": 6879,
  "\u2581Fir": 6880,
  "\u2581Guy": 6881,
  "\u2581Pistolen": 6882,
  "\u2581Weltraum": 6883,
  "\u2581Wohnzimmer": 6884,
  "\u2581atmet": 6885,
  "\u2581p\u00fcnktlich": 6886,
  "\u2581County": 6887,
  "\u2581Jung": 6888,
  "\u2581Kleines": 6889,
  "\u2581Lenny": 6890,
  "\u2581Par": 6891,
  "\u2581brauchten": 6892,
  "\u2581einig": 6893,
  "LL": 6894,
  "bl": 6895,
  "mar": 6896,
  "willig": 6897,
  "\u2581Geisel": 6898,
  "\u2581Giles": 6899,
  "\u2581Heiliger": 6900,
  "\u2581J\u00fcngsten": 6901,
  "\u2581Unterw\u00e4sche": 6902,
  "\u2581faszinierend": 6903,
  "\u2581lagen": 6904,
  "\u2581leihen": 6905,
  "\u2581\u00fcberraschen": 6906,
  "BE": 6907,
  "gie": 6908,
  "mir": 6909,
  "weil": 6910,
  "\u2581Jin": 6911,
  "\u2581Liebhaber": 6912,
  "\u2581Wodka": 6913,
  "\u2581Zahnarzt": 6914,
  "\u2581aktiv": 6915,
  "\u2581meiste": 6916,
  "rum": 6917,
  "\u2581Dienste": 6918,
  "\u2581Euro": 6919,
  "\u2581Fantastisch": 6920,
  "\u2581Finn": 6921,
  "\u2581Mia": 6922,
  "\u2581Schw": 6923,
  "\u2581bilden": 6924,
  "\u2581draus": 6925,
  "\u2581klingen": 6926,
  "\u2581netten": 6927,
  "\u2581sch\u00fcchtern": 6928,
  "DE": 6929,
  "rang": 6930,
  "\u2581Akt": 6931,
  "\u2581Cor": 6932,
  "\u2581Margaret": 6933,
  "\u2581geschworen": 6934,
  "\u2581heil": 6935,
  "\u2581kennenlernen": 6936,
  "fass": 6937,
  "\u2581Br\u00fcste": 6938,
  "\u2581H\u00fchnchen": 6939,
  "\u2581M\u00e4rchen": 6940,
  "\u2581Queen": 6941,
  "\u2581feuer": 6942,
  "\u2581pleite": 6943,
  "\u2581\u00d6": 6944,
  "irk": 6945,
  "ppel": 6946,
  "ris": 6947,
  "\u2581Diskussion": 6948,
  "\u2581Gra": 6949,
  "\u2581H\u00e4uptling": 6950,
  "\u2581Irgendwelche": 6951,
  "\u2581Love": 6952,
  "\u2581Muster": 6953,
  "\u2581Schlie\u00dflich": 6954,
  "\u2581Tanzen": 6955,
  "\u2581Wood": 6956,
  "\u2581ka": 6957,
  "\u2581oberste": 6958,
  "\u2581ta": 6959,
  "To": 6960,
  "alen": 6961,
  "cha": 6962,
  "ektor": 6963,
  "inn": 6964,
  "tasche": 6965,
  "\u2581G\u00fcrtel": 6966,
  "\u2581Saft": 6967,
  "\u2581Wirtschaft": 6968,
  "\u2581bedenken": 6969,
  "Pro": 6970,
  "din": 6971,
  "ges": 6972,
  "k\u00fc": 6973,
  "rich": 6974,
  "\u2581Ego": 6975,
  "\u2581Handtuch": 6976,
  "\u2581einnehmen": 6977,
  "\u2581vor\u00fcber": 6978,
  "\u00e4nke": 6979,
  "\u2581durchsucht": 6980,
  "\u2581sichern": 6981,
  "\u2581wonach": 6982,
  "16": 6983,
  "mut": 6984,
  "nein": 6985,
  "urley": 6986,
  "\u258175": 6987,
  "\u2581Kaugummi": 6988,
  "\u2581K\u00fcss": 6989,
  "\u2581Pater": 6990,
  "\u2581gek": 6991,
  "\u2581harmlos": 6992,
  "\u2581klappen": 6993,
  "eb": 6994,
  "oni": 6995,
  "\u2581Central": 6996,
  "\u2581Couch": 6997,
  "\u2581Fach": 6998,
  "\u2581Fremden": 6999,
  "\u2581Seife": 7000,
  "\u2581Sonnen": 7001,
  "\u2581Verkauf": 7002,
  "IL": 7003,
  "werden": 7004,
  "\u2581Bat": 7005,
  "\u2581Bitt": 7006,
  "\u2581Davis": 7007,
  "\u2581Hap": 7008,
  "\u2581Kut": 7009,
  "\u2581Kyle": 7010,
  "\u2581Passagiere": 7011,
  "\u2581Pri": 7012,
  "\u2581Schein": 7013,
  "\u2581ruinieren": 7014,
  "rart": 7015,
  "\u2581Beach": 7016,
  "\u2581Hinten": 7017,
  "\u2581Kerzen": 7018,
  "\u2581Mittwoch": 7019,
  "\u2581Pfeil": 7020,
  "rien": 7021,
  "\u2581Apfel": 7022,
  "\u2581Betrug": 7023,
  "\u2581Char": 7024,
  "\u2581Detroit": 7025,
  "\u2581Drinks": 7026,
  "\u2581Ellie": 7027,
  "\u2581Festhalten": 7028,
  "\u2581gelehrt": 7029,
  "\u2581goldenen": 7030,
  "\u2581gr\u00fcndlich": 7031,
  "\u2581traue": 7032,
  "r\u00e4t": 7033,
  "\u258142": 7034,
  "\u2581Ki": 7035,
  "\u2581K\u00f6der": 7036,
  "\u2581Reisen": 7037,
  "\u2581Sonnenuntergang": 7038,
  "\u2581Twain": 7039,
  "\u2581gedreht": 7040,
  "\u2581rechnen": 7041,
  "\u2581siehe": 7042,
  "\u2581umkehren": 7043,
  "\u2581verwandeln": 7044,
  "klo": 7045,
  "\u258134": 7046,
  "\u2581Anh\u00f6rung": 7047,
  "\u2581Gri": 7048,
  "\u2581Herausforderung": 7049,
  "\u2581Hit": 7050,
  "\u2581Ricky": 7051,
  "\u2581Verschwindet": 7052,
  "\u2581gelb": 7053,
  "ssi": 7054,
  "\u2581Exzellenz": 7055,
  "\u2581Serie": 7056,
  "\u2581Vereinigten": 7057,
  "\u2581Wessen": 7058,
  "\u2581kr\u00e4ftig": 7059,
  "gericht": 7060,
  "tage": 7061,
  "\u2581Aufenthalt": 7062,
  "\u2581Male": 7063,
  "\u2581Spanien": 7064,
  "\u2581Unglaub": 7065,
  "\u2581aufgebaut": 7066,
  "\u2581klang": 7067,
  "\u2581irgendeinem": 7068,
  "\u2581toter": 7069,
  "Po": 7070,
  "etz": 7071,
  "\u258121.": 7072,
  "\u2581Em": 7073,
  "\u2581M\u00e4del": 7074,
  "\u2581barmherzig": 7075,
  "\u2581bewiesen": 7076,
  "\u2581verehrt": 7077,
  "Lass": 7078,
  "ate": 7079,
  "\u2581Bailey": 7080,
  "\u2581Klage": 7081,
  "\u2581Motel": 7082,
  "\u2581Zuflucht": 7083,
  "\u2581ausrichten": 7084,
  "\u2581gesegnet": 7085,
  "OK": 7086,
  "ec": 7087,
  "linge": 7088,
  "\u2581Anspruch": 7089,
  "\u2581Bri": 7090,
  "\u2581Briten": 7091,
  "\u2581Butch": 7092,
  "\u2581Krieges": 7093,
  "\u2581Sarg": 7094,
  "\u2581Spezial": 7095,
  "\u2581betrachtet": 7096,
  "\u2581schlaf": 7097,
  "\u2581verhindert": 7098,
  "kr": 7099,
  "selben": 7100,
  "\u2581Abschaum": 7101,
  "\u2581Dampf": 7102,
  "\u2581K\u00e4lte": 7103,
  "\u2581Netter": 7104,
  "\u2581Zauberei": 7105,
  "\u2581anschauen": 7106,
  "\u2581Ehefrau": 7107,
  "\u2581Nochmal": 7108,
  "\u2581Tan": 7109,
  "\u2581Unten": 7110,
  "\u2581Voraus": 7111,
  "\u2581Vorbild": 7112,
  "\u2581Zeigt": 7113,
  "\u2581anzusehen": 7114,
  "\u2581aufgetaucht": 7115,
  "\u2581derselbe": 7116,
  "getreten": 7117,
  "\u2581Daumen": 7118,
  "\u2581Hauptquartier": 7119,
  "\u2581Stall": 7120,
  "\u2581Vin": 7121,
  "\u2581Vinnie": 7122,
  "\u2581hervorragend": 7123,
  "\u2581hoffte": 7124,
  "\u2581trinkst": 7125,
  "\u2581zweit": 7126,
  "Allah": 7127,
  "dale": 7128,
  "job": 7129,
  "\u2581Antworte": 7130,
  "\u2581Kutsche": 7131,
  "\u2581Rita": 7132,
  "\u2581darunter": 7133,
  "\u2581don": 7134,
  "\u2581engagiert": 7135,
  "\u2581repariert": 7136,
  "\u2581stellst": 7137,
  "\u2581westlich": 7138,
  "\u2581w\u00fcrdig": 7139,
  "sitz": 7140,
  "stra": 7141,
  "wald": 7142,
  "\u2581Lichter": 7143,
  "\u2581Os": 7144,
  "\u2581Treibstoff": 7145,
  "\u2581Ze": 7146,
  "\u2581aufzuhalten": 7147,
  "\u2581hilfreich": 7148,
  "\u2581identifizieren": 7149,
  "Am": 7150,
  "r\u00fccken": 7151,
  "\u2581Drehen": 7152,
  "\u2581Lot": 7153,
  "\u2581Mas": 7154,
  "\u2581Schalt": 7155,
  "\u2581vertreten": 7156,
  "fleisch": 7157,
  "sucht": 7158,
  "\u2581Avenue": 7159,
  "\u2581meistens": 7160,
  "\u2581vorm": 7161,
  "hol": 7162,
  "opsie": 7163,
  "spar": 7164,
  "\u2581regnet": 7165,
  "\u2581verirrt": 7166,
  "\u2581wohnst": 7167,
  "stamm": 7168,
  "\u2581CD": 7169,
  "\u2581Fla": 7170,
  "\u2581Francis": 7171,
  "\u2581Leicht": 7172,
  "\u2581M\u00f6glicherweise": 7173,
  "\u2581Vorfall": 7174,
  "\u2581holst": 7175,
  "\u2581wertlos": 7176,
  "ihr": 7177,
  "kette": 7178,
  "opfer": 7179,
  "uhr": 7180,
  "\u2581Ash": 7181,
  "\u2581Dokument": 7182,
  "\u2581Sen": 7183,
  "\u2581Spruch": 7184,
  "\u2581W\u00f6rter": 7185,
  "\u2581br\u00e4uchte": 7186,
  "\u2581schmecken": 7187,
  "\u2581unterschrieben": 7188,
  "\u2581wilde": 7189,
  "SS": 7190,
  "\u2581genauer": 7191,
  "\u2581\u00c9ch": 7192,
  "UN": 7193,
  "Un": 7194,
  "zieren": 7195,
  "\u2581Benehmen": 7196,
  "\u2581Interessen": 7197,
  "\u2581Stephen": 7198,
  "\u2581Tiefe": 7199,
  "\u2581Vizepr\u00e4sident": 7200,
  "\u2581fehl": 7201,
  "\u2581gejagt": 7202,
  "\u2581gn\u00e4dig": 7203,
  "\u2581menschlich": 7204,
  "\u2581vergelten": 7205,
  "alf": 7206,
  "traf": 7207,
  "\u2581Haft": 7208,
  "\u2581Jessica": 7209,
  "\u2581Kenny": 7210,
  "\u2581Parkplatz": 7211,
  "\u2581Scotch": 7212,
  "\u2581Tagebuch": 7213,
  "\u2581gewachsen": 7214,
  "\u2581logisch": 7215,
  "\u2581verkaufe": 7216,
  "\u2581zuhause": 7217,
  "haltung": 7218,
  "\u2581Anwesenheit": 7219,
  "\u2581Carlos": 7220,
  "\u2581Frances": 7221,
  "\u2581Mannschaft": 7222,
  "\u2581aufgehalten": 7223,
  "\u2581britische": 7224,
  "\u2581milit\u00e4rische": 7225,
  "\u2581nirgends": 7226,
  "age": 7227,
  "hard": 7228,
  "mud": 7229,
  "rand": 7230,
  "\u2581Glaubens": 7231,
  "\u2581Griechen": 7232,
  "\u2581Ingenieur": 7233,
  "\u2581Poker": 7234,
  "\u2581Rauchen": 7235,
  "\u2581Versehen": 7236,
  "05": 7237,
  "ISCHE": 7238,
  "problem": 7239,
  "\u2581Genosse": 7240,
  "\u2581Murray": 7241,
  "\u2581Sparta": 7242,
  "\u2581erh\u00e4lt": 7243,
  "\u2581reine": 7244,
  "\u2581reizend": 7245,
  "\u2581r\u00e4umen": 7246,
  "\u2581wartete": 7247,
  "nick": 7248,
  "\u2581Bl\u00f6dmann": 7249,
  "\u2581Caf\u00e9": 7250,
  "\u2581Flammen": 7251,
  "\u2581Paine": 7252,
  "\u2581Winde": 7253,
  "\u2581einkaufen": 7254,
  "\u2581live": 7255,
  "Me": 7256,
  "for": 7257,
  "l\u00f6": 7258,
  "wache": 7259,
  "\u2581Betty": 7260,
  "\u2581Huhn": 7261,
  "\u2581Loyalit\u00e4t": 7262,
  "\u2581Seh": 7263,
  "\u2581Abgemacht": 7264,
  "\u2581Back": 7265,
  "\u2581Bye": 7266,
  "\u2581Erd": 7267,
  "\u2581K\u00fchl": 7268,
  "\u2581Schlimmes": 7269,
  "\u2581Wahrhaftig": 7270,
  "\u2581anfing": 7271,
  "\u2581entstehen": 7272,
  "\u2581privat": 7273,
  "\u2581riskiert": 7274,
  "\u2581stieg": 7275,
  "\u2581\u00dcbelt\u00e4ter": 7276,
  "Co": 7277,
  "\u00fctz": 7278,
  "\u2581Frevler": 7279,
  "\u2581Summe": 7280,
  "\u2581teil": 7281,
  "\u2581undankbar": 7282,
  "UND": 7283,
  "programm": 7284,
  "\u2581Boten": 7285,
  "\u2581Existenz": 7286,
  "\u2581Oberfl\u00e4che": 7287,
  "\u2581Orleans": 7288,
  "\u2581besch\u00e4digt": 7289,
  "\u2581wessen": 7290,
  "leid": 7291,
  "\u2581Bund": 7292,
  "\u2581Burger": 7293,
  "\u2581Irren": 7294,
  "\u2581Sch\u00e4tze": 7295,
  "\u2581dis": 7296,
  "\u2581l\u00f6st": 7297,
  "\u2581spenden": 7298,
  "f\u00fchrt": 7299,
  "f\u00fchrung": 7300,
  "kuchen": 7301,
  "mein": 7302,
  "\u2581Business": 7303,
  "\u2581Diana": 7304,
  "\u2581Hughes": 7305,
  "\u2581denselben": 7306,
  "\u2581einsetzen": 7307,
  "hat": 7308,
  "\u2581Aufschub": 7309,
  "\u2581Axel": 7310,
  "\u2581Dauer": 7311,
  "\u2581Festung": 7312,
  "\u2581Fu\u00dfball": 7313,
  "\u2581Gandhi": 7314,
  "\u2581gl\u00fccklicher": 7315,
  "\u2581rei\u00dfen": 7316,
  "\u2581vertreiben": 7317,
  "g\u00e4nge": 7318,
  "heben": 7319,
  "skraft": 7320,
  "\u2581Bio": 7321,
  "\u2581Bonnie": 7322,
  "\u2581H\u00e4usern": 7323,
  "\u2581Schriftsteller": 7324,
  "\u2581Stufe": 7325,
  "\u2581Zwillinge": 7326,
  "\u2581verwickelt": 7327,
  "\u2581zugef\u00fcgt": 7328,
  "\u00fcl": 7329,
  "\u2581Bande": 7330,
  "\u2581Dichter": 7331,
  "\u2581Franklin": 7332,
  "\u2581R\u00fcckzug": 7333,
  "\u2581Sorte": 7334,
  "\u2581anst\u00e4ndig": 7335,
  "\u2581heben": 7336,
  "kat": 7337,
  "\u00e1": 7338,
  "\u2581Besatzung": 7339,
  "\u2581Noah": 7340,
  "\u2581Werft": 7341,
  "\u2581au\u00dfergew\u00f6hnlich": 7342,
  "\u2581erhielt": 7343,
  "\u2581sichtbar": 7344,
  "\u2581we": 7345,
  "\u2581\u00fcberwacht": 7346,
  "AG": 7347,
  "ane": 7348,
  "fabrik": 7349,
  "nacht": 7350,
  "ute": 7351,
  "\u2581Begriff": 7352,
  "\u2581Kapitel": 7353,
  "\u2581k\u00fchl": 7354,
  "\u2581Beruhigen": 7355,
  "\u2581Beverly": 7356,
  "\u2581Blo\u00df": 7357,
  "\u2581Donald": 7358,
  "\u2581Fahrrad": 7359,
  "\u2581Testament": 7360,
  "\u2581besorge": 7361,
  "\u2581diejenige": 7362,
  "\u2581durchsuchen": 7363,
  "\u2581identifiziert": 7364,
  "\u2581schlimme": 7365,
  "17": 7366,
  "AS": 7367,
  "ington": 7368,
  "rio": 7369,
  "st\u00e4tten": 7370,
  "such": 7371,
  "zent": 7372,
  "\u2581Ass": 7373,
  "\u2581Chips": 7374,
  "\u2581Japan": 7375,
  "\u2581Marlowe": 7376,
  "\u2581Schwuchtel": 7377,
  "\u2581Trost": 7378,
  "\u2581er\u00f6ffnet": 7379,
  "\u2581gekl\u00e4rt": 7380,
  "\u2581mi": 7381,
  "\u2581richte": 7382,
  "bilder": 7383,
  "ender": 7384,
  "ros": 7385,
  "\u2581Ciao": 7386,
  "\u2581Cleveland": 7387,
  "\u2581Dennoch": 7388,
  "\u2581Martha": 7389,
  "\u2581Pu": 7390,
  "\u2581Verlass": 7391,
  "drehen": 7392,
  "kr\u00e4fte": 7393,
  "\u2581Action": 7394,
  "\u2581anscheinend": 7395,
  "\u2581geeignet": 7396,
  "\u2581umziehen": 7397,
  "typ": 7398,
  "\u2581leugnet": 7399,
  "\u2581sch\u00f6nsten": 7400,
  "-5": 7401,
  "15": 7402,
  "glich": 7403,
  "\u2581Becher": 7404,
  "\u2581Helena": 7405,
  "\u2581Manhattan": 7406,
  "\u2581Oktober": 7407,
  "\u2581Reihen": 7408,
  "\u2581bescheiden": 7409,
  "\u2581kurzen": 7410,
  "\u2581vertragen": 7411,
  "gebete": 7412,
  "zelle": 7413,
  "\u2581Bestie": 7414,
  "\u2581Dr\u00fcck": 7415,
  "\u2581Faust": 7416,
  "\u2581Fl\u00fcssigkeit": 7417,
  "\u2581Kompliment": 7418,
  "\u2581Louise": 7419,
  "\u2581Luxus": 7420,
  "\u2581R\u00fchr": 7421,
  "\u2581Sachte": 7422,
  "\u2581vergeht": 7423,
  "\u2581wolltet": 7424,
  "kehren": 7425,
  "\u2581AI": 7426,
  "\u2581Heroin": 7427,
  "\u2581gestanden": 7428,
  "\u2581versuchten": 7429,
  "kosten": 7430,
  "\u2581Abstand": 7431,
  "\u2581Frohe": 7432,
  "\u2581Horn": 7433,
  "\u2581M\u00f6bel": 7434,
  "\u2581Nora": 7435,
  "\u2581ST": 7436,
  "\u2581Spitzen": 7437,
  "ID": 7438,
  "Im": 7439,
  "box": 7440,
  "lle": 7441,
  "tas": 7442,
  "\u2581Biest": 7443,
  "\u2581Buches": 7444,
  "\u2581Eigentum": 7445,
  "\u2581Handels": 7446,
  "\u2581Kara": 7447,
  "\u2581Zugriff": 7448,
  "\u2581el": 7449,
  "\u2581gew\u00f6hnen": 7450,
  "\u2581zwang": 7451,
  "mmen": 7452,
  "\u25815000": 7453,
  "\u2581Bishop": 7454,
  "\u2581Engeln": 7455,
  "\u2581Mache": 7456,
  "\u2581Media": 7457,
  "\u2581Philadelphia": 7458,
  "\u2581Replikant": 7459,
  "\u2581Ripley": 7460,
  "\u2581Wetten": 7461,
  "\u2581versichert": 7462,
  "\u2581wahrer": 7463,
  "bruch": 7464,
  "gio": 7465,
  "\u2581Craig": 7466,
  "\u2581Ketten": 7467,
  "\u2581Meldung": 7468,
  "\u2581Rote": 7469,
  "\u2581Shit": 7470,
  "Alle": 7471,
  "LI": 7472,
  "bericht": 7473,
  "\u2581Bohnen": 7474,
  "\u2581Disziplin": 7475,
  "\u2581Erdbeben": 7476,
  "\u2581Kissen": 7477,
  "\u2581Komitee": 7478,
  "\u2581Twe": 7479,
  "\u2581Zwerge": 7480,
  "\u2581erhoben": 7481,
  "fan": 7482,
  "ritt": 7483,
  "r\u00e4umen": 7484,
  "\u25817,": 7485,
  "\u2581Fahrstuhl": 7486,
  "\u2581Fr": 7487,
  "\u2581beschissene": 7488,
  "\u2581hinzu": 7489,
  "\u2581Apollo": 7490,
  "\u2581Damm": 7491,
  "\u2581Politiker": 7492,
  "\u2581Ruhestand": 7493,
  "\u2581Stanley": 7494,
  "\u2581Zack": 7495,
  "\u2581blutet": 7496,
  "\u2581gehorchen": 7497,
  "\u2581grob": 7498,
  "\u2581wichtigste": 7499,
  "don": 7500,
  "kl": 7501,
  "misch": 7502,
  "\u2581Anlage": 7503,
  "\u2581Doctor": 7504,
  "\u2581Lance": 7505,
  "\u2581Spielt": 7506,
  "\u2581befreundet": 7507,
  "\u2581wecken": 7508,
  "Hey": 7509,
  "block": 7510,
  "ok": 7511,
  "sendung": 7512,
  "verschwendung": 7513,
  "waffe": 7514,
  "\u2581AB": 7515,
  "\u2581Ebene": 7516,
  "\u2581Lebt": 7517,
  "\u2581Tarzan": 7518,
  "\u2581ausgegeben": 7519,
  "\u2581begr\u00fc\u00dfen": 7520,
  "\u2581gr\u00fcnen": 7521,
  "\u2581kurzem": 7522,
  "\u2581n\u00e4hern": 7523,
  "\u2581wegnehmen": 7524,
  "ckel": 7525,
  "ela": 7526,
  "gier": 7527,
  "lag": 7528,
  "nisch": 7529,
  "\u2581Leiden": 7530,
  "\u2581L\u00f6ffel": 7531,
  "\u2581Pfarrer": 7532,
  "\u2581Republik": 7533,
  "\u2581Umwelt": 7534,
  "\u2581geheimen": 7535,
  "\u2581h\u00e4rter": 7536,
  "\u2581schickten": 7537,
  "\u2581si": 7538,
  "itch": 7539,
  "\u2581Wonach": 7540,
  "\u2581MIT": 7541,
  "\u2581Tyler": 7542,
  "\u2581Zentimeter": 7543,
  "\u2581bekamen": 7544,
  "\u2581blicken": 7545,
  "\u2581steckte": 7546,
  "llah": 7547,
  "zel": 7548,
  "\u258150.000": 7549,
  "\u2581Affe": 7550,
  "\u2581Bunker": 7551,
  "\u2581Far": 7552,
  "\u2581Taffey": 7553,
  "\u2581Verh\u00f6r": 7554,
  "\u2581Wohlgefallen": 7555,
  "\u2581Zettel": 7556,
  "\u2581besseres": 7557,
  "\u2581geschieden": 7558,
  "\u2581greift": 7559,
  "\u2581nannten": 7560,
  "F\u00fcr": 7561,
  "position": 7562,
  "\u2581Etage": 7563,
  "\u2581Kirby": 7564,
  "\u2581K\u00e4mpfen": 7565,
  "\u2581Rebellen": 7566,
  "\u2581Roll": 7567,
  "\u2581bestrafen": 7568,
  "\u2581gef\u00e4lligst": 7569,
  "\u2581normaler": 7570,
  "aktion": 7571,
  "ihn": 7572,
  "\u2581Holmes": 7573,
  "\u2581Len": 7574,
  "\u2581Spike": 7575,
  "\u2581bedanken": 7576,
  "\u2581br": 7577,
  "\u2581mitteilen": 7578,
  "\u2581or": 7579,
  "\u2581werfe": 7580,
  "%": 7581,
  "Krankenschwester": 7582,
  "alles": 7583,
  "nor": 7584,
  "\u2581Casey": 7585,
  "\u2581Gand": 7586,
  "\u2581Herzinfarkt": 7587,
  "\u2581Vergehen": 7588,
  "\u2581Wendy": 7589,
  "\u2581dummen": 7590,
  "j\u00e4ger": 7591,
  "\u258124.": 7592,
  "\u2581Desmond": 7593,
  "\u2581It": 7594,
  "\u2581Make": 7595,
  "\u2581Nachbar": 7596,
  "\u2581fein": 7597,
  "\u2581feucht": 7598,
  "\u2581legte": 7599,
  "\u2581mitbringen": 7600,
  "\u2581m\u00f6glichen": 7601,
  "\u2581pinkeln": 7602,
  "\u2581versichere": 7603,
  "\u2581\u00fcbertragen": 7604,
  "fell": 7605,
  "zunehmen": 7606,
  "\u2581Raub": 7607,
  "\u2581erleichtert": 7608,
  "\u2581wendet": 7609,
  "junge": 7610,
  "luft": 7611,
  "tr\u00e4ge": 7612,
  "\u2581Gef\u00e4hrten": 7613,
  "\u2581H\u00fcte": 7614,
  "\u2581Trennung": 7615,
  "able": 7616,
  "\u2581Bew\u00e4hrung": 7617,
  "\u2581Kekse": 7618,
  "\u2581befragen": 7619,
  "\u2581folgte": 7620,
  "endes": 7621,
  "etwas": 7622,
  "\u2581Daniels": 7623,
  "\u2581Juni": 7624,
  "\u2581Probier": 7625,
  "\u2581Ve": 7626,
  "\u2581sch\u00f6nste": 7627,
  "IT": 7628,
  "eh": 7629,
  "gehst": 7630,
  "iel": 7631,
  "leb": 7632,
  "oid": 7633,
  "riss": 7634,
  "setzung": 7635,
  "stieg": 7636,
  "yo": 7637,
  "\u2581100.000": 7638,
  "\u2581Ausweg": 7639,
  "\u2581Erfahrungen": 7640,
  "bauen": 7641,
  "itis": 7642,
  "\u2581Irak": 7643,
  "\u2581Normal": 7644,
  "\u2581Poly": 7645,
  "\u2581Treten": 7646,
  "\u2581baut": 7647,
  "\u2581frech": 7648,
  "\u2581gelangen": 7649,
  "\u2581love": 7650,
  "\u2581umdrehen": 7651,
  "\u2581zugeh\u00f6rt": 7652,
  "Vor": 7653,
  "our": 7654,
  "\u2581600": 7655,
  "\u2581Akzent": 7656,
  "\u2581Lampe": 7657,
  "\u2581betr\u00fcgen": 7658,
  "\u2581bot": 7659,
  "\u2581gest\u00fcrzt": 7660,
  "\u2581po": 7661,
  "\u2581sch\u00e4men": 7662,
  "\u2581weis": 7663,
  "rung": 7664,
  "\u2581Chevalier": 7665,
  "\u2581Gem\u00fcse": 7666,
  "\u2581Grundst\u00fcck": 7667,
  "\u2581Sean": 7668,
  "\u2581Steuern": 7669,
  "\u2581hinauf": 7670,
  "\u2581teilt": 7671,
  "\u2581wiederholt": 7672,
  "funk": 7673,
  "rbarm": 7674,
  "sicht": 7675,
  "\u2581Hot": 7676,
  "\u2581Instinkt": 7677,
  "\u2581Konferenz": 7678,
  "\u2581Produktion": 7679,
  "\u2581Tokio": 7680,
  "\u2581gen\u00fcgen": 7681,
  "\u2581graben": 7682,
  "\u2581kauf": 7683,
  "\u2581reagieren": 7684,
  "fiel": 7685,
  "hrt": 7686,
  "nahme": 7687,
  "wenn": 7688,
  "\u2581Atombombe": 7689,
  "\u2581Lake": 7690,
  "\u2581Sin": 7691,
  "\u2581Verr\u00fcckter": 7692,
  "40": 7693,
  "Hi": 7694,
  "ano": 7695,
  "geflogen": 7696,
  "lief": 7697,
  "og": 7698,
  "wind": 7699,
  "\u2581Ersten": 7700,
  "\u2581Versager": 7701,
  "\u2581harter": 7702,
  "\u2581helft": 7703,
  "Film": 7704,
  "finden": 7705,
  "fragen": 7706,
  "netz": 7707,
  "reden": 7708,
  "reisen": 7709,
  "\u2581Brad": 7710,
  "\u2581Branche": 7711,
  "\u2581Graf": 7712,
  "\u2581MA": 7713,
  "\u2581gef": 7714,
  "\u2581gewaltige": 7715,
  "LA": 7716,
  "nahmen": 7717,
  "\u2581Marines": 7718,
  "\u2581Shi": 7719,
  "\u2581begeht": 7720,
  "\u2581beschleunigen": 7721,
  "\u2581geflohen": 7722,
  "\u2581l\u00fcge": 7723,
  "\u2581schlimmste": 7724,
  "\u2581triffst": 7725,
  "anti": 7726,
  "feier": 7727,
  "kle": 7728,
  "\u2581Achilles": 7729,
  "\u2581Archer": 7730,
  "\u2581Christen": 7731,
  "\u2581McBain": 7732,
  "\u2581Mitgef\u00fchl": 7733,
  "\u2581Umschlag": 7734,
  "\u2581dunkle": 7735,
  "\u2581eigener": 7736,
  "\u2581lahm": 7737,
  "\u2581ohnm\u00e4chtig": 7738,
  "\u2581unver": 7739,
  "\u2581weitergehen": 7740,
  "\u2581\u00d6ffne": 7741,
  "gab": 7742,
  "immer": 7743,
  "rennen": 7744,
  "rohr": 7745,
  "\u2581Blatt": 7746,
  "\u2581Blutdruck": 7747,
  "\u2581Dom": 7748,
  "\u2581Gary": 7749,
  "\u2581Graham": 7750,
  "\u2581Schuldig": 7751,
  "\u2581Unterkunft": 7752,
  "\u2581abgenommen": 7753,
  "\u2581genial": 7754,
  "\u2581solle": 7755,
  "\u2581\u00dcberwachungs": 7756,
  "locken": 7757,
  "namen": 7758,
  "vier": 7759,
  "\u2581Abends": 7760,
  "\u2581Matthew": 7761,
  "\u2581Nichte": 7762,
  "\u2581Sonnenaufgang": 7763,
  "\u2581Tele": 7764,
  "\u2581Times": 7765,
  "\u2581heirate": 7766,
  "De": 7767,
  "Jimmy": 7768,
  "kommst": 7769,
  "\u2581Murphy": 7770,
  "\u2581Obst": 7771,
  "\u2581arrangiert": 7772,
  "\u2581aufgehoben": 7773,
  "\u2581auftaucht": 7774,
  "\u2581gesch\u00fctzt": 7775,
  "\u2581h\u00fcbscher": 7776,
  "\u2581jagt": 7777,
  "\u2581schieben": 7778,
  "\u2581uber": 7779,
  "\u2581weiterer": 7780,
  "\u2581zurzeit": 7781,
  "ain": 7782,
  "rot": 7783,
  "sse": 7784,
  "\u2581Fee": 7785,
  "\u2581Pfad": 7786,
  "\u2581Studenten": 7787,
  "\u2581verbreitet": 7788,
  "ras": 7789,
  "\u00fcn": 7790,
  "\u2581Cory": 7791,
  "\u2581F\u00e4higkeit": 7792,
  "\u2581Gel\u00e4nde": 7793,
  "\u2581Generationen": 7794,
  "\u2581Schie\u00dfen": 7795,
  "\u2581Spreng": 7796,
  "\u2581Teilhaber": 7797,
  "\u2581unn\u00f6tig": 7798,
  "ermine": 7799,
  "schl\u00e4ge": 7800,
  "sley": 7801,
  "\u2581Angela": 7802,
  "\u2581Faden": 7803,
  "\u2581Immerhin": 7804,
  "\u2581Missverst\u00e4ndnis": 7805,
  "\u2581Nest": 7806,
  "\u2581Reichweite": 7807,
  "\u2581Route": 7808,
  "\u2581durchgehen": 7809,
  "\u2581gelangt": 7810,
  "\u2581rituell": 7811,
  "\u2581v": 7812,
  "\u2581verpr\u00fcgelt": 7813,
  "h\u00f6": 7814,
  "\u2581Arrest": 7815,
  "\u2581Cousine": 7816,
  "\u2581Nazi": 7817,
  "\u2581Orte": 7818,
  "\u2581Schie\u00dferei": 7819,
  "\u2581Spritze": 7820,
  "\u2581ersetzt": 7821,
  "\u2581geschnitten": 7822,
  "\u2581\u00c4gypten": 7823,
  "fl\u00fcgel": 7824,
  "richtet": 7825,
  "\u2581Alan": 7826,
  "\u2581Bach": 7827,
  "\u2581Cho": 7828,
  "\u2581Eimer": 7829,
  "\u2581Koordinaten": 7830,
  "\u2581Lehrerin": 7831,
  "\u2581Nah": 7832,
  "\u2581Paula": 7833,
  "\u2581Regierungs": 7834,
  "\u2581Rumson": 7835,
  "\u2581Z\u00fcge": 7836,
  "\u2581elektrische": 7837,
  "\u2581mu": 7838,
  "\u2581niedlich": 7839,
  "\u2581wundervolle": 7840,
  "Med": 7841,
  "andere": 7842,
  "\u2581Armer": 7843,
  "\u2581Flaschen": 7844,
  "\u2581IM": 7845,
  "\u2581Ste": 7846,
  "\u2581verf\u00fcgen": 7847,
  "\u2581zustimmen": 7848,
  "\u2581zust\u00e4ndig": 7849,
  "Chi": 7850,
  "fahrer": 7851,
  "sex": 7852,
  "uh": 7853,
  "\u2581Buh": 7854,
  "\u2581Gala": 7855,
  "\u2581Gitarre": 7856,
  "\u2581Magazin": 7857,
  "\u2581geehrt": 7858,
  "\u2581zur\u00fcckgeben": 7859,
  "hut": 7860,
  "stunde": 7861,
  "turm": 7862,
  "\u2581Bel": 7863,
  "\u2581Freuden": 7864,
  "\u2581Geliebte": 7865,
  "\u2581Pers\u00f6nliches": 7866,
  "\u2581Sylvia": 7867,
  "\u2581Wah": 7868,
  "\u2581ertrinken": 7869,
  "\u2581rauche": 7870,
  "Los": 7871,
  "holen": 7872,
  "old": 7873,
  "\u2581Alters": 7874,
  "\u2581Angriffs": 7875,
  "\u2581Erin": 7876,
  "\u2581Freundes": 7877,
  "\u2581Ios": 7878,
  "\u2581McC": 7879,
  "\u2581Profit": 7880,
  "\u2581au": 7881,
  "\u2581belogen": 7882,
  "\u2581betrachten": 7883,
  "\u2581bezichtigt": 7884,
  "\u2581schreibst": 7885,
  "\u2581vergibt": 7886,
  "TRA": 7887,
  "leitet": 7888,
  "tch": 7889,
  "\u2581Demokratie": 7890,
  "\u2581Schaffen": 7891,
  "\u2581Verr\u00fcckte": 7892,
  "\u2581absurd": 7893,
  "\u2581h\u00f6chste": 7894,
  "\u2581riesig": 7895,
  "\u2581verlaufen": 7896,
  "Ding": 7897,
  "Shirt": 7898,
  "ng": 7899,
  "schei\u00dfe": 7900,
  "strecke": 7901,
  "will": 7902,
  "\u00c9\u00c9": 7903,
  "\u2581Dawn": 7904,
  "\u2581Draht": 7905,
  "\u2581Dreckskerl": 7906,
  "\u2581Gem\u00e4lde": 7907,
  "\u2581Sprengstoff": 7908,
  "\u2581ausmachen": 7909,
  "\u2581eingeschlafen": 7910,
  "\u2581probiert": 7911,
  "\u2581rechtschaffen": 7912,
  "code": 7913,
  "\u25812:": 7914,
  "\u2581Ac": 7915,
  "\u2581Boxer": 7916,
  "\u2581Gratuliere": 7917,
  "\u2581Inneren": 7918,
  "\u2581Kimble": 7919,
  "\u2581Tauben": 7920,
  "\u2581Wang": 7921,
  "\u2581ausgegangen": 7922,
  "\u2581heilige": 7923,
  "\u2581meinetwegen": 7924,
  "\u2581unrecht": 7925,
  "\u2581\u00fcberfahren": 7926,
  "NA": 7927,
  "stock": 7928,
  "\u2581Aufstehen": 7929,
  "\u2581Eve": 7930,
  "\u2581Irrer": 7931,
  "\u2581Walsh": 7932,
  "\u2581Zweitens": 7933,
  "\u2581unterschiedlich": 7934,
  "els": 7935,
  "\u2581Becky": 7936,
  "\u2581Jude": 7937,
  "\u2581Nacken": 7938,
  "\u2581Puppe": 7939,
  "\u2581Regiment": 7940,
  "\u2581Truppe": 7941,
  "\u2581Werte": 7942,
  "\u2581n\u00f6rdlich": 7943,
  "\u2581qualvolle": 7944,
  "\u2581ver\u00e4rgert": 7945,
  "\u2581\u00fcbernimmt": 7946,
  "zz": 7947,
  "\u2581000": 7948,
  "\u2581Aufmachen": 7949,
  "\u2581Einzel": 7950,
  "\u2581Marke": 7951,
  "\u2581angewiesen": 7952,
  "\u2581ei": 7953,
  "\u2581gewinne": 7954,
  "\u2581hilflos": 7955,
  "\u2581schalten": 7956,
  "eger": 7957,
  "eres": 7958,
  "name": 7959,
  "szeit": 7960,
  "\u2581Benutz": 7961,
  "\u2581Ivan": 7962,
  "\u2581Yus": 7963,
  "\u2581dicke": 7964,
  "\u2581mies": 7965,
  "\u2581mitmachen": 7966,
  "\u2581\u00c4rsche": 7967,
  "illa": 7968,
  "ith": 7969,
  "\u2581Clouseau": 7970,
  "\u2581Col": 7971,
  "\u2581Kisten": 7972,
  "\u2581Old": 7973,
  "\u2581Romeo": 7974,
  "\u2581Tura": 7975,
  "\u2581bla": 7976,
  "Mach": 7977,
  "akt": 7978,
  "fertig": 7979,
  "wach": 7980,
  "\u2581Irgendetwas": 7981,
  "\u2581Kompanie": 7982,
  "\u2581Konzert": 7983,
  "\u2581Original": 7984,
  "\u2581Shaw": 7985,
  "\u2581Sky": 7986,
  "\u2581Vers": 7987,
  "\u2581wolle": 7988,
  "SDI": 7989,
  "fried": 7990,
  "\u2581DNA": 7991,
  "\u2581Denen": 7992,
  "\u2581Turk": 7993,
  "\u2581losgehen": 7994,
  "14": 7995,
  "auto": 7996,
  "durch": 7997,
  "nom": 7998,
  "\u2581Hektor": 7999,
  "\u2581Monats": 8000,
  "\u2581Schwachkopf": 8001,
  "\u2581erschrecken": 8002,
  "\u2581geliefert": 8003,
  "\u2581k\u00fcsst": 8004,
  "\u2581schrecklichen": 8005,
  "OP": 8006,
  "zauber": 8007,
  "\u25812.000": 8008,
  "\u2581AUS": 8009,
  "\u2581Mexikaner": 8010,
  "\u2581Rente": 8011,
  "\u2581Tust": 8012,
  "\u2581scheinst": 8013,
  "\u2581vereint": 8014,
  "\u2581whoa": 8015,
  "zulegen": 8016,
  "\u2581Blei": 8017,
  "\u2581But": 8018,
  "\u2581Diebstahl": 8019,
  "\u2581Jar": 8020,
  "\u2581Miguel": 8021,
  "\u2581d\u00fcrft": 8022,
  "\u2581entt\u00e4uschen": 8023,
  "\u2581positiv": 8024,
  "f\u00e4hig": 8025,
  "stoff": 8026,
  "\u00e4re": 8027,
  "\u2581Cheyenne": 8028,
  "\u2581Dumm": 8029,
  "\u2581Freak": 8030,
  "\u2581Hierher": 8031,
  "\u2581Motiv": 8032,
  "\u2581Scheiss": 8033,
  "\u2581Sklave": 8034,
  "\u2581Staffel": 8035,
  "\u2581Verschw\u00f6rung": 8036,
  "\u2581bedeckt": 8037,
  "\u2581n\u00fcchtern": 8038,
  "\u2581pr\u00e4sentiert": 8039,
  "mals": 8040,
  "wal": 8041,
  "zehn": 8042,
  "\u258132": 8043,
  "\u2581Champion": 8044,
  "\u2581Karre": 8045,
  "\u2581Pen": 8046,
  "\u2581Schiffs": 8047,
  "\u2581Socken": 8048,
  "\u2581Tankstelle": 8049,
  "\u2581billige": 8050,
  "\u2581untereinander": 8051,
  "18": 8052,
  "Fr": 8053,
  "anlage": 8054,
  "eilen": 8055,
  "h\u00e4ndler": 8056,
  "sau": 8057,
  "\u2581Alt": 8058,
  "\u2581Atmosph\u00e4re": 8059,
  "\u2581Funkger\u00e4t": 8060,
  "\u2581Massen": 8061,
  "\u2581Ofen": 8062,
  "\u2581Rey": 8063,
  "\u2581Rezept": 8064,
  "\u2581Teufels": 8065,
  "\u2581Ticket": 8066,
  "\u2581Zehen": 8067,
  "\u2581ausgeschlossen": 8068,
  "\u2581bewahrt": 8069,
  "\u2581bewundere": 8070,
  "\u2581ergreifen": 8071,
  "\u2581m\u00e4chtiger": 8072,
  "\u2581riesige": 8073,
  "\u2581trat": 8074,
  "\u2581DES": 8075,
  "\u2581Geschworenen": 8076,
  "\u2581W\u00e4rme": 8077,
  "\u2581fordern": 8078,
  "\u2581geheilt": 8079,
  "\u2581zur\u00fcckgelassen": 8080,
  "Ex": 8081,
  "Ihm": 8082,
  "frau": 8083,
  "kro": 8084,
  "schl\u00e4gt": 8085,
  "\u2581Allan": 8086,
  "\u2581Eli": 8087,
  "\u2581Gr": 8088,
  "\u2581H\u00e4ng": 8089,
  "\u2581Kellner": 8090,
  "\u2581Mick": 8091,
  "\u2581Speed": 8092,
  "\u2581Tower": 8093,
  "\u2581Trainer": 8094,
  "\u2581gesch\u00e4ftlich": 8095,
  "\u2581unabh\u00e4ngig": 8096,
  "ky": 8097,
  "party": 8098,
  "stab": 8099,
  "zum": 8100,
  "\u2581Christ": 8101,
  "\u2581Lieben": 8102,
  "\u2581Nachfolger": 8103,
  "\u2581Private": 8104,
  "\u2581lade": 8105,
  "\u2581reicher": 8106,
  "\u2581vi": 8107,
  "arzt": 8108,
  "bombe": 8109,
  "ile": 8110,
  "nimmt": 8111,
  "tis": 8112,
  "\u2581Kids": 8113,
  "\u2581Ozean": 8114,
  "\u2581Samen": 8115,
  "\u2581Tausend": 8116,
  "\u2581Tennis": 8117,
  "\u2581Ufer": 8118,
  "\u2581V\u00f6llig": 8119,
  "\u2581nerven": 8120,
  "\u2581rennt": 8121,
  "\u2581sch\u00fctzt": 8122,
  "\u2581verlobt": 8123,
  "\u2581z\u00e4h": 8124,
  "ORT": 8125,
  "OS": 8126,
  "geschrieben": 8127,
  "gle": 8128,
  "ull": 8129,
  "\u2581Benny": 8130,
  "\u2581Biff": 8131,
  "\u2581Herrscher": 8132,
  "\u2581Wellen": 8133,
  "\u2581freu": 8134,
  "\u2581gesessen": 8135,
  "\u2581lediglich": 8136,
  "\u2581lohnt": 8137,
  "Se": 8138,
  "mark": 8139,
  "ure": 8140,
  "\u2581Ani": 8141,
  "\u2581Beth": 8142,
  "\u2581Com": 8143,
  "\u2581Gefahren": 8144,
  "\u2581Konsequenzen": 8145,
  "\u2581Rasen": 8146,
  "\u2581Tafel": 8147,
  "\u2581f\u00e4llig": 8148,
  "\u2581solcher": 8149,
  "wird": 8150,
  "ziehe": 8151,
  "\u2581Gauner": 8152,
  "\u2581am\u00fcsieren": 8153,
  "\u2581erweckt": 8154,
  "\u2581lerne": 8155,
  "\u2581verteilt": 8156,
  "Bitte": 8157,
  "zentrum": 8158,
  "\u2581Carmine": 8159,
  "\u2581Kol": 8160,
  "\u2581N\u00e4chsten": 8161,
  "\u2581Sofa": 8162,
  "\u2581Spott": 8163,
  "\u2581Trinkgeld": 8164,
  "\u2581dienst": 8165,
  "\u2581flach": 8166,
  "\u2581k\u00f6nntet": 8167,
  "\u2581umgelegt": 8168,
  "\u2581weglaufen": 8169,
  "f\u00e4lle": 8170,
  "scha": 8171,
  "\u2581'\"": 8172,
  "\u2581Boone": 8173,
  "\u2581Dynamit": 8174,
  "\u2581Experte": 8175,
  "\u2581Foley": 8176,
  "\u2581Folgt": 8177,
  "\u2581Saal": 8178,
  "\u2581gesto\u00dfen": 8179,
  "\u2581r\u00e4chen": 8180,
  "\u2581uner": 8181,
  "fangen": 8182,
  "mont": 8183,
  "pel": 8184,
  "r\u00fcck": 8185,
  "\u2581Batterie": 8186,
  "\u2581Fr\u00fchling": 8187,
  "\u2581Futter": 8188,
  "\u2581Marsellus": 8189,
  "\u2581Muschi": 8190,
  "\u2581Pelham": 8191,
  "\u2581R\u00fcstung": 8192,
  "\u2581SAM": 8193,
  "\u2581abwarten": 8194,
  "\u2581gebunden": 8195,
  "\u2581opfern": 8196,
  "Dann": 8197,
  "not": 8198,
  "ziel": 8199,
  "\u2581Gerne": 8200,
  "\u2581Hauptsache": 8201,
  "\u2581Irgendjemand": 8202,
  "\u2581Lebensmittel": 8203,
  "\u2581Salat": 8204,
  "\u2581ertrage": 8205,
  "\u2581gewaltt\u00e4tig": 8206,
  "enbewohner": 8207,
  "\u25819,": 8208,
  "\u2581Blocks": 8209,
  "\u2581Bot": 8210,
  "\u2581Gottheit": 8211,
  "\u2581Griechenland": 8212,
  "\u2581Kombination": 8213,
  "\u2581Medien": 8214,
  "\u2581Rekord": 8215,
  "\u2581Sila": 8216,
  "\u2581begriffen": 8217,
  "\u2581blockiert": 8218,
  "\u2581\u00b6": 8219,
  "reiz": 8220,
  "\u2581Bl": 8221,
  "\u2581Brooklyn": 8222,
  "\u2581Spaziergang": 8223,
  "\u2581abgeholt": 8224,
  "\u2581einsteigen": 8225,
  "\u2581fielen": 8226,
  "\u2581geklappt": 8227,
  "\u2581h\u00fcbschen": 8228,
  "\u2581normalen": 8229,
  "ech": 8230,
  "\u2581Aufwachen": 8231,
  "\u2581Diebe": 8232,
  "\u2581Geste": 8233,
  "\u2581Ging": 8234,
  "\u2581Letzten": 8235,
  "\u2581Sp\u00fcr": 8236,
  "\u2581Umkreis": 8237,
  "\u2581Verzeih": 8238,
  "\u2581sozusagen": 8239,
  "\u2581wundern": 8240,
  "falls": 8241,
  "ffer": 8242,
  "fte": 8243,
  "lia": 8244,
  "uld": 8245,
  "\u258111.": 8246,
  "\u2581Kammer": 8247,
  "\u2581Kr\u00fcppel": 8248,
  "\u2581Lester": 8249,
  "\u2581Richie": 8250,
  "\u2581Tr\u00e4umen": 8251,
  "\u2581Werbe": 8252,
  "\u2581abgebrochen": 8253,
  "\u2581\u00fcberlege": 8254,
  "Ben": 8255,
  "rechnung": 8256,
  "strich": 8257,
  "\u2581Aller": 8258,
  "\u2581Ausflug": 8259,
  "\u2581Blicke": 8260,
  "\u2581Ermittlungen": 8261,
  "\u2581Verpflichtung": 8262,
  "\u2581bl\u00f6der": 8263,
  "\u2581erkannte": 8264,
  "\u2581fuhren": 8265,
  "\u2581gepr\u00fcft": 8266,
  "\u2581reichlich": 8267,
  "\u2581uneins": 8268,
  "MAN": 8269,
  "MP": 8270,
  "deln": 8271,
  "swert": 8272,
  "weis": 8273,
  "\u00e4um": 8274,
  "\u2581Gest\u00e4ndnis": 8275,
  "\u2581Niederlage": 8276,
  "\u2581vielmals": 8277,
  "EI": 8278,
  "lick": 8279,
  "schie\u00dfen": 8280,
  "show": 8281,
  "\u2581Albtraum": 8282,
  "\u2581Offiziere": 8283,
  "\u2581Streifen": 8284,
  "\u2581al": 8285,
  "\u2581durchziehen": 8286,
  "\u2581eklig": 8287,
  "\u2581geleitet": 8288,
  "\u2581nix": 8289,
  "\u2581verf\u00fcgbar": 8290,
  "zog": 8291,
  "\u2581Knall": 8292,
  "\u2581November": 8293,
  "\u2581Schei\u00dfer": 8294,
  "\u2581Schickt": 8295,
  "\u2581Schieb": 8296,
  "\u2581Verhaftung": 8297,
  "\u2581hu": 8298,
  "\u2581verbessern": 8299,
  "\u2581verleugnet": 8300,
  "H\u00f6r": 8301,
  "ets": 8302,
  "hl": 8303,
  "zellen": 8304,
  "\u2581Einrichtung": 8305,
  "\u2581Mumm": 8306,
  "\u2581duschen": 8307,
  "komme": 8308,
  "ora": 8309,
  "\u2581Break": 8310,
  "\u2581Kenn": 8311,
  "\u2581Krach": 8312,
  "\u2581Untergang": 8313,
  "\u2581Vernunft": 8314,
  "\u2581einzelne": 8315,
  "\u2581sprengen": 8316,
  "SE": 8317,
  "gl\u00fcck": 8318,
  "ologie": 8319,
  "unfall": 8320,
  "\u258116.": 8321,
  "\u2581Elend": 8322,
  "\u2581Kollege": 8323,
  "\u2581Orden": 8324,
  "\u2581Platten": 8325,
  "\u2581Prinzip": 8326,
  "\u2581Versp\u00e4tung": 8327,
  "\u2581klare": 8328,
  "\u2581komische": 8329,
  "\u2581kommunizieren": 8330,
  "\u2581siegen": 8331,
  "\u2581verbinden": 8332,
  "fehler": 8333,
  "gro\u00df": 8334,
  "insel": 8335,
  "ite": 8336,
  "link": 8337,
  "\u2581Berater": 8338,
  "\u2581Korb": 8339,
  "\u2581Kuba": 8340,
  "\u2581North": 8341,
  "\u2581Qua": 8342,
  "\u2581Saison": 8343,
  "\u2581Samurai": 8344,
  "\u2581Sanit\u00e4ter": 8345,
  "\u2581spinnst": 8346,
  "\u2581zweites": 8347,
  "Ach": 8348,
  "Sag": 8349,
  "stone": 8350,
  "volle": 8351,
  "\u2581Bour": 8352,
  "\u2581Coach": 8353,
  "\u2581Diane": 8354,
  "\u2581Kirk": 8355,
  "\u2581Monkeys": 8356,
  "\u2581Reed": 8357,
  "\u2581automatisch": 8358,
  "\u2581beschuldigt": 8359,
  "\u2581sichere": 8360,
  "\u2581verursachen": 8361,
  "75": 8362,
  "ister": 8363,
  "k\u00f6pfe": 8364,
  "polizei": 8365,
  "\u2581Alibi": 8366,
  "\u2581Highschool": 8367,
  "\u2581Vorsitzender": 8368,
  "\u2581eingeschlossen": 8369,
  "\u2581starken": 8370,
  "af": 8371,
  "bie": 8372,
  "einig": 8373,
  "greifen": 8374,
  "lot": 8375,
  "\u2581Beweisen": 8376,
  "\u2581Henker": 8377,
  "\u2581LA": 8378,
  "\u2581Unschuld": 8379,
  "\u2581Winston": 8380,
  "\u2581echtes": 8381,
  "\u2581fetten": 8382,
  "\u2581verteilen": 8383,
  "\u2581weisen": 8384,
  "\u2581zur\u00fcckrufen": 8385,
  "Dies": 8386,
  "abkommen": 8387,
  "bl\u00e4tter": 8388,
  "\u2581Vision": 8389,
  "\u2581empfinden": 8390,
  "\u2581verrichten": 8391,
  "\u2581wacht": 8392,
  "\u2581zur\u00fcckhalten": 8393,
  "\u2581\u00c4rztin": 8394,
  "grad": 8395,
  "hier": 8396,
  "hlt": 8397,
  "\u258125.": 8398,
  "\u2581Port": 8399,
  "\u2581bevorzugt": 8400,
  "\u2581organisiert": 8401,
  "\u2581\u00fcberreden": 8402,
  "DA": 8403,
  "Ihr": 8404,
  "ans": 8405,
  "\u2581Corn": 8406,
  "\u2581Mercedes": 8407,
  "\u2581Schi": 8408,
  "\u2581Sch\u00fctzen": 8409,
  "\u2581Trag\u00f6die": 8410,
  "\u2581aufgewacht": 8411,
  "\u2581folgten": 8412,
  "\u2581soziale": 8413,
  "IM": 8414,
  "wissende": 8415,
  "\u00dcber": 8416,
  "\u2581Adams": 8417,
  "\u2581Anh\u00e4nger": 8418,
  "\u2581Anw\u00e4ltin": 8419,
  "\u2581Behalte": 8420,
  "\u2581Ch": 8421,
  "\u2581Garderobe": 8422,
  "\u2581Gattinnen": 8423,
  "\u2581Jenny": 8424,
  "\u2581Russ": 8425,
  "\u2581cm": 8426,
  "bis": 8427,
  "\u2581Bran": 8428,
  "\u2581Erfindung": 8429,
  "\u2581Gehe": 8430,
  "\u2581Kri": 8431,
  "\u2581Nagel": 8432,
  "\u2581Reiter": 8433,
  "\u2581nettes": 8434,
  "\u2581verklagen": 8435,
  "Qu": 8436,
  "klar": 8437,
  "\u2581Atmen": 8438,
  "\u2581Frisur": 8439,
  "\u2581Mangel": 8440,
  "\u2581Verbindungen": 8441,
  "\u2581anwesend": 8442,
  "\u2581behilflich": 8443,
  "\u2581irgendeinen": 8444,
  "\u2581schrie": 8445,
  "ENT": 8446,
  "\u2581Abgesehen": 8447,
  "\u2581Crane": 8448,
  "\u2581Penis": 8449,
  "\u2581She": 8450,
  "\u2581W\u00f6lfe": 8451,
  "\u2581fabelhaft": 8452,
  "\u2581innere": 8453,
  "\u2581kehrte": 8454,
  "\u2581verschaffen": 8455,
  "GEN": 8456,
  "dig": 8457,
  "leg": 8458,
  "owski": 8459,
  "tanz": 8460,
  "trieb": 8461,
  "\u258123.": 8462,
  "\u258137": 8463,
  "\u2581Elf": 8464,
  "\u2581Genehmigung": 8465,
  "\u2581Gr\u00fc\u00dfe": 8466,
  "\u2581Harper": 8467,
  "\u2581Nachts": 8468,
  "\u2581Oben": 8469,
  "\u2581Riggs": 8470,
  "\u2581unterbrechen": 8471,
  "\u2581vergewaltigt": 8472,
  "\u2581\u00dcbertretung": 8473,
  "aa": 8474,
  "qual": 8475,
  "schaffen": 8476,
  "top": 8477,
  "\u2581Abrechnung": 8478,
  "\u2581Premierminister": 8479,
  "\u2581Schl\u00e4ge": 8480,
  "\u2581Schl\u00e4ger": 8481,
  "\u2581Schneider": 8482,
  "\u2581Speck": 8483,
  "\u2581Watson": 8484,
  "\u2581Yorker": 8485,
  "\u2581deutlicher": 8486,
  "\u2581gelten": 8487,
  "\u2581programmiert": 8488,
  "\u2581sendet": 8489,
  "\u2581\u00fcbernommen": 8490,
  "Al": 8491,
  "IR": 8492,
  "ami": 8493,
  "\u258133": 8494,
  "\u2581Deep": 8495,
  "\u2581Verlangen": 8496,
  "\u2581Wundersch\u00f6n": 8497,
  "\u2581befragt": 8498,
  "\u2581begleitet": 8499,
  "\u2581erfuhr": 8500,
  "\u2581jenen": 8501,
  "\u2581liegst": 8502,
  "\u2581regelm\u00e4\u00dfig": 8503,
  "\u2581verr\u00fcckten": 8504,
  "eign": 8505,
  "pft": 8506,
  "\u2581ES": 8507,
  "\u2581Helikopter": 8508,
  "\u2581Klemme": 8509,
  "\u2581Marilyn": 8510,
  "\u2581Schmei\u00df": 8511,
  "\u2581Verzweiflung": 8512,
  "\u2581ankommt": 8513,
  "\u2581billiger": 8514,
  "\u2581zogen": 8515,
  "Sa": 8516,
  "decken": 8517,
  "fa\u00dft": 8518,
  "geladen": 8519,
  "teile": 8520,
  "\u2581Cla": 8521,
  "\u2581Jefferson": 8522,
  "\u2581Kamin": 8523,
  "\u2581McDonald": 8524,
  "\u2581Strategie": 8525,
  "\u2581Tanner": 8526,
  "\u2581Troy": 8527,
  "\u2581get": 8528,
  "\u2581sexuell": 8529,
  "\u2581z\u00e4hle": 8530,
  "hang": 8531,
  "\u2581Ak": 8532,
  "\u2581Betten": 8533,
  "\u2581Gebot": 8534,
  "\u2581Les": 8535,
  "\u2581Vargas": 8536,
  "\u2581dreimal": 8537,
  "\u2581feindliche": 8538,
  "\u2581f\u00fcttern": 8539,
  "alarm": 8540,
  "einheit": 8541,
  "schicht": 8542,
  "\u2581Autogramm": 8543,
  "\u2581Institut": 8544,
  "\u2581Kanonen": 8545,
  "\u2581Kenne": 8546,
  "\u2581Leder": 8547,
  "\u2581M\u00e4dchens": 8548,
  "\u2581Piep": 8549,
  "\u2581Schmeckt": 8550,
  "\u2581Val": 8551,
  "\u2581Zwerg": 8552,
  "\u2581angehen": 8553,
  "\u2581dauerte": 8554,
  "\u2581riesigen": 8555,
  "13": 8556,
  "hund": 8557,
  "lesen": 8558,
  "streit": 8559,
  "treiben": 8560,
  "\u25812000": 8561,
  "\u2581Araber": 8562,
  "\u2581Bleibe": 8563,
  "\u2581Haaren": 8564,
  "\u2581Heck": 8565,
  "\u2581Kokain": 8566,
  "\u2581Ungeheuer": 8567,
  "\u2581auserw\u00e4hlt": 8568,
  "\u2581ausgew\u00e4hlt": 8569,
  "\u2581doof": 8570,
  "\u2581landet": 8571,
  "\u2581reiche": 8572,
  "\u2581schie\u00dfe": 8573,
  "\u2581zur\u00fcckgekehrt": 8574,
  "aIs": 8575,
  "arbeiter": 8576,
  "schirm": 8577,
  "\u00fcb": 8578,
  "\u2581Sol": 8579,
  "\u2581Turner": 8580,
  "\u2581aggressiv": 8581,
  "\u2581fasse": 8582,
  "Gute": 8583,
  "angriff": 8584,
  "fra": 8585,
  "kommando": 8586,
  "sprechen": 8587,
  "tiker": 8588,
  "\u2581Anflug": 8589,
  "\u2581Br\u00fcdern": 8590,
  "\u2581FRAU": 8591,
  "\u2581For": 8592,
  "\u2581Fotze": 8593,
  "\u2581Kanzler": 8594,
  "\u2581Mylady": 8595,
  "\u2581Notaufnahme": 8596,
  "\u2581Offen": 8597,
  "\u2581Ralph": 8598,
  "\u2581Set": 8599,
  "\u2581Standpunkt": 8600,
  "\u2581beweg": 8601,
  "Show": 8602,
  "War": 8603,
  "verlust": 8604,
  "\u258129": 8605,
  "\u2581Echo": 8606,
  "\u2581Falschen": 8607,
  "\u2581Reicht": 8608,
  "\u2581Tausch": 8609,
  "\u2581Zivilisation": 8610,
  "\u2581bo": 8611,
  "\u2581gesorgt": 8612,
  "\u2581heut": 8613,
  "\u2581stahl": 8614,
  "\u2581that": 8615,
  "ED": 8616,
  "lisch": 8617,
  "\u2581Ace": 8618,
  "\u2581Klinge": 8619,
  "\u2581Methoden": 8620,
  "\u2581Nette": 8621,
  "\u2581Seth": 8622,
  "\u2581Wunden": 8623,
  "\u2581freier": 8624,
  "\u2581h\u00f6chsten": 8625,
  "\u2581richtiges": 8626,
  "hundert": 8627,
  "zustellen": 8628,
  "\u2581Erhaben": 8629,
  "\u2581Hills": 8630,
  "\u2581Kaution": 8631,
  "\u2581Laser": 8632,
  "\u2581Lokal": 8633,
  "\u2581Magst": 8634,
  "\u2581Naomi": 8635,
  "\u2581aufeinander": 8636,
  "\u2581charmant": 8637,
  "\u2581dieselben": 8638,
  "\u2581entscheide": 8639,
  "\u2581erwartest": 8640,
  "\u2581hei": 8641,
  "\u2581Drau\u00dfen": 8642,
  "\u2581Hotels": 8643,
  "\u2581Kleinigkeit": 8644,
  "\u2581Mio": 8645,
  "\u2581September": 8646,
  "\u2581Special": 8647,
  "\u2581gen\u00fcgend": 8648,
  "\u2581grade": 8649,
  "\u2581verliehen": 8650,
  "Or": 8651,
  "cy": 8652,
  "ordnung": 8653,
  "stich": 8654,
  "\u2581Anschlag": 8655,
  "\u2581Str": 8656,
  "\u2581W\u00e4nde": 8657,
  "\u2581Zuneigung": 8658,
  "\u2581fette": 8659,
  "\u2581vergolten": 8660,
  "dung": 8661,
  "l\u00e4uft": 8662,
  "offrey": 8663,
  "\u2581H\u00fcter": 8664,
  "\u2581Mack": 8665,
  "\u2581Schafe": 8666,
  "\u2581Schmutz": 8667,
  "\u2581Shannon": 8668,
  "\u2581Tru": 8669,
  "\u2581andern": 8670,
  "\u2581bu": 8671,
  "\u2581h\u00e4tt": 8672,
  "\u2581stattdessen": 8673,
  "\u2581unterbrochen": 8674,
  "\u2581vergehen": 8675,
  "\u2581vertrieben": 8676,
  "19": 8677,
  "AUF": 8678,
  "LAND": 8679,
  "packen": 8680,
  "tig": 8681,
  "\u2581Angeblich": 8682,
  "\u2581Burrows": 8683,
  "\u2581Friseur": 8684,
  "\u2581Gebete": 8685,
  "\u2581Gesch\u00e4ftsmann": 8686,
  "\u2581Ruth": 8687,
  "\u2581Zak": 8688,
  "\u2581ausgel\u00f6st": 8689,
  "\u2581ehren": 8690,
  "\u2581empfindlich": 8691,
  "\u2581langes": 8692,
  "\u2581verg": 8693,
  "\u2581\u00fcberzeugend": 8694,
  "9": 8695,
  "z\u00e4hl": 8696,
  "\u2581Jen": 8697,
  "\u2581Russell": 8698,
  "\u2581Sher": 8699,
  "\u2581Wovor": 8700,
  "\u2581benutze": 8701,
  "\u2581beruflich": 8702,
  "\u2581f\u00fchrst": 8703,
  "\u2581geweint": 8704,
  "\u2581verschieden": 8705,
  "\u2581vorbeikommen": 8706,
  "\u2581\u00f6ffne": 8707,
  "02": 8708,
  "Fan": 8709,
  "getragen": 8710,
  "trop": 8711,
  "\u2581Episode": 8712,
  "\u2581Harding": 8713,
  "\u2581Hinsetzen": 8714,
  "\u2581Lade": 8715,
  "\u2581M\u00f6glich": 8716,
  "\u2581Sorg": 8717,
  "\u2581bel\u00e4stigen": 8718,
  "\u2581erteilt": 8719,
  "\u2581gr\u00f6\u00dferen": 8720,
  "\u2581rettete": 8721,
[...]
